{"anyon": 21330, "amacare": 11724, "570": 39254, "arling": 30045, "Ġstocked": 42070, "Ġrocks": 12586, "Ġfigure": 3785, "Ġ17": 1596, "Ġmascul": 18498, "Ġefficiently": 18306, "»": 119, "Ġshaping": 23610, "oops": 44860, "ĠMaurit": 46106, "ĠCheck": 6822, "wards": 2017, "Ġbiscuits": 50128, "ĠGerald": 27027, "ĠHaw": 6091, "Ġrunes": 32326, "heddar": 44937, "Week": 20916, "ĠOu": 42201, "Serv": 11838, "Ġadvantage": 4621, "ĠPanasonic": 46049, "ĠPet": 4767, "Ġsucking": 27904, "ĠCitiz": 12662, "Pear": 46262, "ĠCome": 7911, "Ġunfairly": 30750, "Ġdebug": 14257, "ĠLego": 33198, "Ġshare": 2648, "ĠAPR": 40410, "Ġplentiful": 39976, "Ġinhibitors": 40272, "ographically": 33145, "ĠSere": 30175, "Ġscissors": 41786, "Field": 15878, "DOS": 35178, "Ġreciprocal": 48135, "Ġlame": 30248, "heon": 37060, "ĠWatt": 30263, "ĠSpaceX": 26549, "Ġgloss": 21194, "ĠSans": 20845, "ĠArpaio": 46861, "Ġadults": 6490, "ĠSyndrome": 27109, "ĠPowerShell": 33870, "Ġcoc": 8954, "ĠArrows": 43946, "ĠRand": 8790, "Ġthunder": 18355, "agonal": 27923, "Beer": 49802, "Ġhighlighting": 21292, "Ġstressing": 43455, "Ġcascade": 44847, "################": 14468, "Ġargues": 11673, "Peter": 19727, "Ġunwilling": 19084, "ĠCosts": 36845, "Ġadmins": 44563, "Ġgrounded": 22804, "Ġmindset": 20527, "Ġdiffered": 36337, "Ġplantations": 49441, "Ġtweaking": 39272, "ĠCur": 4424, "PLIED": 49094, "Ġdiscrep": 24373, "alities": 27969, "Ġgoverned": 21825, "ĠVic": 24017, "ĠGPIO": 50143, "Ġassessed": 15276, "ĠSD": 9834, "Ô": 144, ">": 29, "Ġcaul": 46087, "Ġaccident": 5778, "Ġfright": 12773, "ĠManziel": 45843, "ĠGillespie": 45078, "Son": 31056, "ĠTAM": 33112, "ĠCraft": 15745, "ĠPair": 39645, "bard": 23024, "hedon": 46086, "different": 39799, "Ġfridge": 25772, "agos": 48215, "ĠUbuntu": 14949, "Ġener": 2400, "Ġtough": 5802, "Pause": 49991, "Ty": 25492, "normal": 11265, "un": 403, "Ġdoubled": 15229, "Ġdanger": 3514, "Ġunsub": 32793, "Ġforms": 5107, "Ġanal": 2037, "Ġembarrassment": 24655, "authorized": 19721, "Gro": 42921, "Ġappre": 5208, "wise": 3083, "Ġlandscape": 10747, "Ġcharacter": 2095, "Ġ@": 2488, "Americans": 17636, "IU": 44958, "Ġrefresh": 14976, "Grade": 42233, "ĠCollection": 12251, "agine": 12756, "Ġattribut": 24548, "ĠLegislature": 20815, "ilon": 33576, "Style": 21466, "ĠSpartan": 34527, "ĠArmed": 16657, "ĠBundy": 35259, "Ġhorror": 9961, "Ġaudits": 41973, "ãĥĳ": 32546, "Ġaspects": 7612, "agnetic": 25145, "Ġmeltdown": 37824, "Ġintest": 20183, "Apr": 13680, "ush": 1530, "Ġlig": 26106, "×": 147, "Ġcontested": 24163, "Ġsett": 2970, "Ġnightmare": 17123, "Ġfucking": 9372, "Ġlistener": 24783, "adal": 31682, "Ops": 41472, "Blade": 47520, "Play": 11002, ":": 25, "raltar": 45662, "Ġmodifications": 19008, "424": 40090, "Ġ320": 20959, "stars": 30783, "ĠAppalach": 36390, "Ġhelium": 43142, "Ġlibertarians": 35929, "oultry": 30056, "ĠGhana": 32825, "go": 2188, "Ġwished": 16555, "Ġdope": 45654, "Ġnarrowed": 33214, "ISO": 40734, "nels": 19423, "raf": 32188, "Ġflashes": 29227, "Ġincreases": 5732, "vine": 26818, "Ġethnic": 9450, "ĠCyn": 31040, "Ã®": 34803, "ĠOuter": 35868, "Ġinfiltr": 21086, "Ġseverely": 15052, "aeper": 28235, "ĠQuincy": 46884, "Ġseconds": 4201, "HAHAHAHA": 39021, "ĠDuncan": 18625, "Ġclos": 3542, "Ġdeputies": 21861, "Ġrugby": 22948, "ĠTray": 34575, "Ġpivotal": 28992, "driver": 26230, "ĠLebanon": 16849, "Ġsometimes": 3360, "Ġsynergy": 42193, "Conf": 18546, "Ġpubs": 46972, "Pitt": 47627, "ĠApple": 4196, "ĠLos": 5401, "ĠDuel": 23958, "Ġloopholes": 39178, "WB": 45607, "ĠWars": 6176, "putable": 48840, "Kay": 37247, "ĠGad": 20925, "ĠConservatives": 17897, "Ġlesser": 14494, "Ġderived": 10944, "Ġfiercely": 33285, "ĠSims": 25343, "eller": 12368, "Ġibn": 47160, "ĠPok": 8175, "ĠDOS": 43036, "Ġbasil": 37792, "Ġbring": 2222, "Helper": 47429, "Ġtrunk": 21427, "Ġovertly": 45118, "Ġsquid": 45126, "Ġskysc": 37885, "ĠArche": 43572, "monkey": 49572, "ĠCitizenship": 47002, "Fal": 41129, "bi": 8482, "Ġheadline": 16534, "Ġanchors": 43360, "Ġcake": 12187, "Ġexport": 10784, "ĠFULL": 34958, "ĠManagement": 8549, "ĠPen": 7507, "ĠKand": 50224, "ĠInstit": 37931, "Ġscar": 10153, "ĠFew": 20463, "Ġequality": 10537, "/)": 34729, "Ġlicense": 5964, "Ġresided": 49330, "ĠFN": 44260, "ĠRBI": 20948, "vised": 16149, "Ġrun": 1057, "ĠWere": 15176, "Ġexchanging": 39167, "Ġpartner": 5212, "Ġtraded": 14018, "ĠMAY": 26720, "ingu": 6680, "180": 15259, "agara": 38415, "Ġblister": 40770, "Ġreiterate": 49852, "ĠVegas": 9621, "Ġphotograp": 10079, "781": 49703, "Ġwatching": 4964, "Ġegregious": 34372, "Ġstopped": 5025, "last": 12957, "Ġslicing": 49289, "utsch": 40768, "Ġcontenders": 29467, "?'\"": 26989, "\"!": 40484, "Ġheroin": 16914, "eredith": 36897, "Ġrobotics": 36359, "ĠMai": 36709, "Ġmates": 27973, "ai": 1872, "ĠFr": 1305, "Ġdisreg": 18795, "Ni": 34153, "leave": 47408, "Ġcodes": 12416, "Ġhiber": 46681, "Ġelabor": 12628, "Ġformulated": 34391, "ĠWeinstein": 22473, "regate": 49373, "dylib": 31739, "ĠPete": 17542, "ĠGlou": 49383, "ĠPOL": 20634, "ĠITV": 49188, "Silver": 26766, "ulum": 14452, "Ġsticker": 27735, "avery": 12447, "iets": 27955, "ettings": 12374, "ĠEXT": 27489, "Nintendo": 32348, "Bot": 20630, "ĠRecep": 44970, "Ġremarks": 10252, "ĠMetallic": 38037, "Ġamount": 2033, "Ġdownwards": 44890, "ĠMeet": 21167, "ĠNumbers": 27797, "Ġtimetable": 40021, "ĠSoldiers": 28179, "Ġyou": 345, "Ġ1973": 15674, "ĠPCR": 45154, "Gb": 49017, "bishop": 27832, "ĠGeological": 34246, "Ġgreenhouse": 16325, "ĠApproach": 38066, "Ġcarc": 36756, "rehensible": 34718, "Ġconcluded": 8391, "Ġbegging": 26732, "ĠProducts": 18675, "Ġpromot": 4256, "war": 5767, "izzle": 44461, "ĠBl": 1086, "ims": 12078, "Ġdisconnect": 22837, "ĠPurpose": 32039, "Nevertheless": 29011, "ergic": 19793, "ĠDB": 20137, "oti": 5092, "tis": 48010, "angs": 27725, "otive": 19138, "\\\":": 30478, "ĠMillennium": 26139, "Ġapplies": 8991, "Ġlogistical": 41088, "607": 31980, "Ġsimultaneous": 29526, "276": 27988, "Ġextra": 3131, "Ġburned": 11544, "Gener": 8645, "Ġlaptops": 26635, "Ġslid": 27803, "ĠWrath": 28258, "INFO": 10778, "Ġaffinity": 28430, "collect": 33327, "Ġlouder": 27089, "oters": 26008, "ĠTrue": 6407, "Button": 21864, "Ġunfavorable": 38206, "iably": 18745, "ms": 907, "name": 3672, "Ġalterations": 29858, "Ġconsultants": 29597, "gender": 8388, "ĠRasm": 39933, "ĠRite": 47810, "Ġcrab": 32202, "ĠDefinitive": 46634, "Ġgraceful": 44363, "Ġpt": 42975, "ĠPetr": 47377, "674": 45385, "notation": 38983, "Ġbucks": 24780, "Ġfull": 1336, "Ġimpairment": 23992, "Ġpilgrimage": 36068, "ĠRoberto": 32076, "Ġrebuilt": 30080, "ĠMia": 32189, "ĠBlend": 41198, "ĠUCLA": 21750, "ĊÂł": 44320, "Ġraspberry": 38973, "ĠGw": 39661, "locking": 48331, "Ġtrooper": 41967, "Ġnods": 34833, "Ġrockets": 20293, "Ġdepart": 6313, "othal": 42376, "ĠTosh": 47922, "ĠDakota": 13336, "ess": 408, "ĠOsaka": 42429, "ĠETF": 31112, "iegel": 28210, "ĠHolding": 31703, "unn": 20935, "Ġrecovering": 20222, "prim": 19795, "Ġcleric": 33824, "Ġimprovements": 8561, "ancer": 8250, "ford": 3841, "For": 1890, "520": 31211, "Ġcreated": 2727, "ĠJackets": 41324, "Ġchords": 34211, "Ġilleg": 4416, "Ġtechniques": 7605, "Rus": 35313, "Ġsurgery": 8185, "Ġgardening": 46072, "975": 42716, "Ġplanets": 14705, "åĮ": 44293, "Ġbenign": 32293, "Ġveterans": 11255, "complex": 41887, "Ġcanoe": 47434, "Ġautumn": 23608, "ism": 1042, "Ġmaintenance": 9262, "Ġpleasures": 35396, "Ġreact": 6324, "Ġexhausting": 39663, "Ġreclaimed": 50225, "ĠNoah": 18394, "ĠOffensive": 26855, "VC": 15922, "ef": 891, "ĠRidge": 20614, "Ġlighting": 12019, "Ġpoly": 7514, "ĠMuslim": 3765, "ĠAssociates": 29306, "ĠNeutral": 25627, "ĠHIT": 46405, "è¦ļéĨĴ": 23614, "Ġpoetic": 38273, "Ġcult": 2285, "Ġasses": 50201, "Ø¹": 44690, "0000000000000000": 25645, "Ġevents": 2995, "ĠWade": 19136, "Ġpreference": 12741, "ĠSOM": 42121, "relations": 39468, "gado": 50054, "782": 46519, "ĠPB": 30524, "tall": 35429, "Ġfailing": 9894, "Ġsalesman": 42414, "IL": 4146, "give": 26535, "ĠWE": 12887, "Ġions": 39270, "Kind": 35854, "Ġcages": 37933, "azer": 19178, "ĠCummings": 38154, "Ġpitted": 46852, "mount": 14948, "Ġ1929": 31883, "acked": 6021, "ĠResistance": 17363, "sbm": 32310, "ĠAltern": 13243, "along": 24176, "rew": 1809, "ĠRom": 3570, "upon": 27287, "Ġhut": 40812, "Attack": 27732, "Ġmount": 3817, "Sales": 44490, "Ġexempt": 13068, "ĠGuides": 48770, "dose": 34436, "ĠSoftware": 10442, "Ġindignation": 48689, "ĠLabs": 23500, "Ġartificially": 32455, "124": 17464, "ĠPolar": 32909, "Ġnecess": 2418, "ATT": 17139, "lycer": 38577, "Ġpsychologically": 39705, "50": 1120, "charged": 17200, "umption": 24098, "Ġinterfaces": 20314, "ĠMob": 16540, "ĠYok": 45138, "Ġexactly": 3446, "ĠShah": 18381, "Ġhunting": 10988, "few": 32146, "ĠUKIP": 37809, "Rock": 19665, "ĠFang": 24468, "di": 10989, "Ġguessed": 25183, "Ġshrew": 44551, "Ġconstructor": 23772, "atted": 16898, "the": 1169, "Ġnominees": 26456, "ĠArab": 4498, "ĠJewish": 5582, "dL": 45582, "ĠX": 1395, "Ġallev": 23863, "ĠChristian": 4302, "ĠHawkins": 32534, "adel": 6959, "Ġgalleries": 38462, "Ġthus": 4145, "Ġscientifically": 32627, "ĠRegistrar": 46439, "Ġrenovations": 44481, "ĠTests": 30307, "lords": 19673, "Ġpuzzles": 24367, "reading": 25782, "ĠIntel": 8180, "Ġharshly": 43123, "Fac": 47522, "Ġstool": 38753, "Ġredist": 17678, "Ġspotting": 43853, "Ġspecified": 7368, "akra": 38004, "Ġrefuel": 47874, "ĠSolomon": 22912, "icating": 12364, "quet": 21108, ">>\\": 34516, "PIN": 44032, "Par": 10044, "among": 35131, "Ġturnover": 25079, "COLOR": 46786, "ĠPicks": 33957, "fight": 15481, "ĠDome": 31390, "eteenth": 26425, "Ġmigraine": 50082, "EMS": 39201, "ĠIw": 44316, "GF": 21713, "Ġstatistical": 13905, "ãĥ¢": 40361, "Ġfeder": 28062, "Js": 49044, "ĠMist": 15078, "Date": 10430, "ocalyptic": 28339, "Ġcategorized": 37661, "Ġiv": 21628, "Đ": 204, "atical": 39056, "ited": 863, "raped": 31951, "Ġguise": 34731, "oenix": 8538, "Ġff": 31246, "ĠBull": 8266, "%);": 49563, "bsite": 12485, "ĠSamson": 47977, "carbon": 29255, "Pokemon": 48034, "Ġheterosexual": 24026, "ĠInspired": 45827, "Ġ331": 43722, "rats": 46714, "uses": 2664, "Ġceases": 42217, "Ġ\"#": 25113, "âĦ¢": 8151, "udi": 47928, "#": 2, "Ġcarp": 39465, "ĠSHALL": 50163, "ãĥīãĥ©ãĤ´ãĥ³": 24731, "separ": 25512, "username": 29460, "ĠUSAF": 45353, "Ġmeas": 2212, "274": 28857, "Ġcope": 19271, "Ġimmediate": 7103, "ĠAsc": 29469, "ors": 669, "clusion": 4717, "Ġwhisper": 31992, "Ġtoxicity": 28152, "iet": 1155, "Ġspace": 2272, "urch": 2575, "Ġoptionally": 42976, "Ġan": 281, "Ġdistortions": 47876, "Ġpest": 28064, "UB": 10526, "Id": 7390, "ĠBlackburn": 42603, "Ġwob": 46867, "Ġsensational": 31826, "Ġemphasis": 12476, "Ġl": 300, "Ġ223": 30299, "ĠMISS": 49684, "ĠLocated": 40764, "ĠCoast": 8545, "Ġshutter": 31168, "Ġpar": 1582, "ĠCorpus": 44874, "express": 42712, "ĠChristy": 50058, "ĠTol": 20054, "ĠBin": 20828, "Iron": 22797, "Ġyeah": 10194, "ologies": 5823, "Ġconstellation": 38712, "ĠCyr": 40399, "ĠEmb": 13302, "Ġtorque": 26415, "ĠSai": 25251, "Ġintention": 6778, "ĠLi": 7455, "Ġmu": 38779, "226": 24909, "ĠEy": 21566, "ĠRemy": 32912, "());": 35430, "induced": 17223, "ĠAB": 9564, "husband": 48912, "Timeout": 48031, "Ġcrafted": 18025, "Ġcheeks": 25839, "ĠAtom": 33102, "Ġcircumstances": 5917, "GET": 18851, "ĠHim": 10978, "Ġthrew": 9617, "OUN": 19385, "Ġpredicts": 26334, "Ġenzymes": 29120, "extreme": 29896, "ĠJoy": 14087, "Production": 35027, "ĠRoma": 29600, "Ġunrealistic": 31363, "Ġnud": 26731, "Ġner": 17156, "390": 25964, "isive": 13911, "Nitrome": 42066, "culosis": 38767, "Ġkg": 14211, "Ġcoils": 41331, "ĠSilk": 26006, "wan": 8149, "Ġremake": 28763, "fb": 21855, "Ġintending": 38939, "ĠMotors": 19292, "Ġbott": 3005, "ĠRadio": 8829, "Ġbash": 27334, "Ġproclamation": 39862, "ĠAU": 27548, "93": 6052, "Neither": 27270, "Ġnecessarily": 6646, "Software": 25423, "Ġpussy": 18185, "Ġcaucuses": 40100, "DragonMagazine": 42424, "Ġoptics": 36237, "onto": 5957, "Ġcondos": 48093, "cover": 9631, "Ġcommit": 4589, "ĠDianne": 49197, "Ġregeneration": 27597, "Ġpen": 3112, "ĠEverett": 36815, "ition": 653, "ĠCOVER": 47902, "provided": 41279, "Moh": 38443, "Ġutter": 10517, "ĠHouses": 34336, "ĠTire": 45942, "req": 42180, ".........": 34617, "edin": 27152, "Handler": 25060, "ĠKau": 28148, "Ġcoded": 30817, "388": 30460, "Doctor": 37564, "scroll": 48728, "oso": 28213, "ĠWave": 17084, "cest": 9165, "ĠâĢĭ": 20126, "Ġpl": 458, "ĠFans": 24964, "inch": 8589, "debug": 24442, "474": 38652, "Ġmurd": 7847, "ĠFin": 4463, "Ġcontest": 8414, "Ġgiants": 20178, "Ġcongress": 8681, "Ġcompiler": 17050, "Ġqualifier": 39265, "ĠUK": 3482, "ĠTes": 10696, "Ġpledged": 16387, "Ġstem": 10717, "Ġtolerated": 28197, "bled": 9342, "ĠGL": 10188, "ĠAdolf": 35333, "Interested": 48860, "Dial": 24400, "swing": 46737, "ĠRabb": 22502, "Ġlegitim": 18262, "Ġeman": 31184, "Ġgovernor": 8153, "ĠSpell": 11988, "ĠMord": 29548, "Ġbrackets": 28103, "ĠElse": 25974, "Ġawaken": 26559, "ĠMenu": 21860, "Ġplanetary": 27047, "ullivan": 16040, "names": 14933, "ĠExposure": 39090, "Ġattempting": 9361, "oddy": 38553, "Magikarp": 41538, "ĠDunk": 39303, "ĠRequired": 20906, "05": 2713, "Ġbulb": 28287, "ĠOnion": 34733, "wp": 24142, "Ġgard": 16985, "ii": 4178, "Ġhasht": 20267, "artments": 32514, "ĠSemi": 35525, "staff": 28120, "ohan": 22436, "ĠHanna": 43766, "hetto": 35619, "ĠInvalid": 17665, "Ġshenanigans": 48949, "ãĥª": 12675, "Ġsky": 6766, "ĠLemon": 27252, "ĠServ": 3116, "Ġoffers": 4394, "Ġsodium": 21072, "PL": 6489, "rone": 33171, "atility": 18486, "ĠSUPPORT": 43333, "Ġ2": 362, "Ġupsetting": 38423, "requent": 46018, "ĠHands": 22237, "Ġlawy": 4840, "Ġgaping": 46529, "Ġmindfulness": 35502, "Ġ2015": 1853, "ĠYor": 42453, "Ġteammates": 13107, "spirit": 38685, "ĠAdam": 7244, "xual": 5541, "weet": 7277, "rendered": 26238, "Ġarmoured": 44138, "ĠToy": 10977, "ĠGuilty": 47321, "Ġcr": 1067, "Mix": 35608, "Ġdelic": 8675, "Ġgraduating": 30024, "Ġperceptual": 49615, "ĠSpeaker": 14931, "ĠAsian": 7740, "patient": 26029, "ĠHAVE": 21515, "ĠBu": 9842, "Ġshorten": 45381, "ĠDJ": 13004, "Ġnoisy": 31210, "iries": 18561, "ĠLas": 10123, "ilded": 46158, "Ġå": 10263, "Ġpoke": 22620, "ĠTorrent": 43399, "Ġincrease": 2620, "Ġdearly": 46379, "Ġsure": 1654, "Ġproductive": 12973, "ÂłÂłÂłÂł": 8828, "ĠSugar": 20874, "ĠPhar": 48141, "[/": 13412, "Ġhormonal": 36956, "Ġrelate": 15124, "ĠSy": 1632, "ĠModest": 42810, "Ġassoci": 2570, "ommod": 8641, "umpy": 32152, "Ġsurvivors": 13644, "232": 24339, "Ġworries": 18572, "Ġcircling": 43080, "ÃĽ": 34543, "Ġbattalion": 36328, "endered": 30398, "ĠNike": 23817, "Ġmansion": 24141, "ĠRazor": 36065, "Ġtopple": 49377, "Ġtouted": 28275, "ĠPF": 28223, "Ġincumbent": 23526, "ukes": 31469, "Ġjew": 12711, "ĠCOMP": 24301, "Elf": 46995, "Ġworrisome": 48367, "Ġrefin": 50170, "ĠRESP": 47203, "Ġpenn": 22429, "TP": 7250, "Ġ1923": 37272, "ĠCarbuncle": 35818, "Ġforming": 14583, "Ġpans": 36209, "usr": 14629, "Ġensued": 38597, "650": 17544, "Ġelig": 7453, "DEV": 39345, "North": 14157, "Ġprecious": 14186, "Ġtempt": 12475, "ĠCONTROL": 49833, "Ġpractition": 17629, "Ġprocessors": 20399, "ruck": 30915, "Ġspies": 28801, "ĠGraph": 29681, "Ġtours": 21284, "Ġprotocol": 8435, "ĠLocked": 48613, "fer": 2232, "virt": 48940, "olis": 8506, "Ġexpert": 5887, "Ġlum": 46390, "ĠDamage": 8995, "Ġtasty": 25103, "ĠJanuary": 3269, "Ġscholars": 9123, "ĠQaeda": 17942, "Ġpalette": 27043, "Ġshadowy": 40175, "2014": 4967, "Ġreflects": 12497, "ĠParking": 29259, "Ġmirac": 30352, "hya": 48812, "Ġappropriated": 32316, "Ġesoteric": 44894, "rous": 7596, "Anti": 28795, "UTC": 17429, "ume": 2454, "Ġeye": 4151, "Ġseldom": 25129, "gregation": 17097, "RY": 18276, "Ġinterconnected": 40582, "ĠSwordsman": 48318, "ameless": 39942, "Ġdissatisf": 27570, "Ġpointer": 17562, "albeit": 45781, "oji": 31370, "Ġmanuscripts": 36578, "Ġgimm": 33135, "ĠSquare": 9276, "âĢĶ-": 44839, "Ġsuggestions": 11776, "ĠTunnel": 35863, ".?": 40791, "Pod": 41565, "ĠCool": 15226, "Ġextremists": 20674, "Ġadoption": 12695, "ĠPhotograph": 18903, "Stone": 34346, "Ġintrig": 13250, "iour": 49439, "wolf": 18829, "akia": 21897, "ĠPower": 4333, "Ġbuddy": 24407, "Ġtacos": 44058, "Ġrefusal": 17387, "016": 27037, "cession": 43914, "ortment": 33920, "Ġsci": 20681, "ĠSupplemental": 48165, "knowledge": 45066, "ĠCandidate": 40327, "Ġinterpre": 16795, "Ġrece": 1407, "aper": 2136, "Ġresorts": 43017, "ĠStreaming": 43124, "acha": 34518, "Ġbuggy": 46542, "Ġillegal": 5293, "Ġdism": 18099, "Ġcling": 36331, "ĠCombine": 29176, "etsy": 34877, "ear": 451, "ĠMinerva": 39367, "Ġvengeance": 30657, "348": 28978, "Ġ133": 22169, "lev": 2768, "Ġindependents": 35576, "Ġtownship": 42823, "ĠTennis": 37213, "mate": 9830, "ĠFolk": 36111, "Ġrelayed": 47968, "ĠBrit": 2490, "busters": 30181, "ĠAbsolute": 36532, "Ġnumber": 1271, "HI": 25374, "ĠRuler": 31808, "airy": 13021, "ĠGor": 19097, "ascar": 37740, "855": 45432, "Typically": 49321, "ĠClassical": 43680, "elle": 13485, "Ġposture": 24521, "ĺ": 246, "a": 64, "vict": 32433, "Ġshaved": 39273, "ĠClarke": 19635, "ĠSuppose": 39200, "funding": 25032, "Ġspecs": 25274, "Ġconduct": 3189, "utical": 14224, "ĠVictor": 12622, "ĠFraser": 28059, "Parent": 24546, "Ġpreempt": 38726, "Ġthresholds": 40885, "wood": 3822, "Ġbec": 639, "ainers": 50221, "Ġcomfortably": 24341, "ĠPed": 13457, "vi": 8903, "ĠMold": 29684, "Ġdescription": 6764, "ĠDirectX": 37017, "Ġindoctr": 41201, "Ġacts": 6529, "ĠDri": 5809, "Update": 10260, "ĠVac": 25709, "To": 2514, "zeb": 38130, "ĠChin": 22604, "Ġomin": 30366, "Ġrestrictions": 8733, "Ġdiscontin": 19936, "Ġvari": 5553, "ĠHighway": 14914, "Ġprofile": 7034, "ĠNS": 10896, "Ġbombard": 35285, "Ġ2008": 3648, "Ġextermination": 48495, "Ġhopes": 7176, "His": 6653, "Ġwarm": 5814, "oresc": 45166, "Ġmatters": 6067, "ĠHorus": 29698, "ĠLeonard": 20131, "Ġpeanut": 26636, "ĠParticipants": 26122, "Ġwindshield": 38866, "670": 43798, "Ġsmir": 42821, "ĠHelm": 28351, "Accept": 38855, "ĠAram": 39026, "ĠDele": 42226, "Mand": 49846, "Ġslew": 26891, "Ġrampage": 34040, "Ġscarce": 18549, "Ġcapt": 3144, "ĠIPO": 41805, "ĠRomans": 22482, "Ġcrate": 27021, "rities": 19491, "ĠVernon": 27820, "Ġate": 15063, "orned": 26994, "Ġhaha": 42254, "186": 25096, "ĠHE": 11179, "FI": 11674, "Ġplight": 29383, "Ġconverted": 11513, "lege": 2765, "Ġterrorist": 7417, "Ġpersonalities": 20929, "ĠBackground": 25353, "Ġoperations": 4560, "Ġiss": 1189, "ĠDh": 20529, "IOR": 41254, "Ġaffordability": 38981, "grown": 22377, "Ġdevotion": 25808, "Ġapartments": 19592, "though": 2016, "ĠDevelop": 6013, "allow": 12154, "Ġdisturbances": 38622, "Ġassault": 4641, "ĠJ": 449, "Ġspacious": 40894, "Ġbeen": 587, "Ġpopcorn": 38914, "Integer": 46541, "other": 847, "353": 33319, "ĠStudio": 11733, "ĠSouthern": 8050, "ACTED": 38542, "Ġasking": 4737, "ĠExchange": 12516, "Ġincluding": 1390, "ĠMir": 7381, "omez": 30010, "ĠBahÃ¡": 38218, "ĠSophia": 39953, "mobi": 43549, "Ġpinpoint": 30534, "esthesia": 34811, "Ġgentlemen": 28527, "asia": 23218, "Ġmakeshift": 34064, "pure": 37424, "ia": 544, "three": 15542, "lihood": 11935, "Ġoutweigh": 31405, "ĠJuan": 16852, "Ġapex": 40167, "ĠCPS": 32084, "ĠSaber": 40506, "NECT": 48842, "ĠBloody": 30893, "Spons": 43522, "abyte": 37828, "inia": 43168, "ities": 871, "Ġtalking": 3375, "ky": 2584, "javascript": 37495, "oward": 46138, "Ġpers": 2774, "Ġcl": 537, "Ġidentification": 11795, "frog": 49956, "ĠKEY": 35374, "Ġavoid": 3368, "Ġhottest": 26896, "ĠGDP": 12396, "ĠDante": 34898, "Ġcontinu": 11143, "Ġcoast": 7051, "ever": 964, "Ġoverpower": 42905, "LLOW": 44765, "Ġsorts": 10524, "CNN": 18474, "Ġpresence": 4931, "weak": 38695, "Ġtc": 37096, "actively": 33329, "Ġ(?,": 32843, "ĠArizona": 7943, "ĠBundes": 33816, "Ġadjusting": 22000, "Ġrope": 17182, "Hash": 26257, "Ġ777": 35534, "Ġchloride": 44921, "ÏĦ": 32830, "Ġmaths": 47761, "Ġnicer": 36597, "Qu": 4507, "Ġmaintain": 5529, "ACE": 11598, "Ġsounds": 5238, "ĠSheila": 49627, "uden": 44452, "ablishment": 25380, "Ġpunched": 25436, "always": 33770, "KY": 31159, "Ġpapers": 9473, "Ġpastor": 22175, "FM": 23264, "ĠRates": 34864, "ĠLug": 31541, "ĠFellow": 29764, "ĠPatriot": 26888, "iddler": 26458, "ĠSurvivors": 45998, "Ġprofiles": 16545, "Ġtrigger": 7616, "Ġcongreg": 30663, "ĠZac": 44922, "Ġrelocation": 35703, "--------": 982, "ĠMontgomery": 21532, "compliance": 47587, "Ġbenefit": 4414, "Ġindoor": 22639, "component": 42895, "Ġassurances": 35568, "ĠRum": 25463, "Ġbonds": 13100, "Ġdefinition": 6770, "!!!!!": 50184, "Benz": 42484, "420": 27211, "efer": 41027, "oj": 13210, "Ġ301": 25643, "ĠObamaCare": 38195, "ĠTobias": 46675, "scar": 13034, "ĠPreviously": 29875, "Ġguru": 35730, "verse": 4399, "Ġsid": 9785, "Types": 31431, "iling": 4386, "Continue": 29453, "ĠBlueprint": 39932, "Ġmatchups": 32033, "wana": 49484, "Brother": 39461, "Ġshields": 21132, "Ġcontinental": 29843, "Ġprizes": 21740, "Ġ360": 11470, "ĠHiroshima": 42922, "ĠLikely": 45974, "ĠIncrease": 25285, "Ġholder": 15762, "Ġgrinned": 36268, "gomery": 20142, "ĠWATCHED": 30134, "ĠCarlson": 33059, "ĠDefense": 5947, "Ġsibling": 33423, "Sus": 30746, "Ġportraits": 31725, "ĠHare": 42285, "ogging": 30853, "Ġscripture": 36739, "gy": 1360, "ĠEmerson": 41886, "yk": 48361, "338": 28460, "isson": 30927, "itted": 2175, "ĠYosh": 28563, "Ġbinary": 13934, "ÃĥÃĤÃĥÃĤÃĥÃĤÃĥÃĤÃĥÃĤÃĥÃĤÃĥÃĤÃĥÃĤÃĥÃĤÃĥÃĤÃĥÃĤÃĥÃĤÃĥÃĤÃĥÃĤÃĥÃĤÃĥÃĤ": 23090, "Ġcurrently": 3058, "Ord": 35422, "Ġdeep": 2769, "majority": 35839, "Ġbelongings": 30985, "Ġfreeing": 35800, "Said": 47638, "ĠCaucus": 31787, "arms": 8357, "Ġ364": 44969, "Ġattracting": 25142, "Ġchapters": 15754, "ursive": 30753, "Ġpiss": 18314, "aturation": 36921, "ĠCache": 34088, "Textures": 39860, "Ġracket": 37391, "Ġslightly": 4622, "nergy": 5877, "Ġpepper": 13385, "Ġscars": 31109, "ĠTOD": 16926, "ĠTek": 33516, "Ġdilemma": 26566, "bitcoin": 35395, "Ġorigins": 15587, "Ëľ": 41185, "PLIC": 31484, "Ġespecially": 2592, "perial": 7629, "ĠAlan": 12246, "Ġhoped": 10719, "ĠNewt": 40893, "male": 22606, "igers": 34984, "ĠTablet": 42399, "established": 27718, "ĠSCHOOL": 35883, "enough": 48229, "Ġairs": 37112, "Ġpupils": 25613, "Ġknowingly": 26526, "Chel": 38292, "Ġ1977": 15589, "Ġshowdown": 33338, "talk": 16620, "ĠWhatsApp": 37666, "ernel": 7948, "mit": 2781, "ĠInteger": 34142, "ĠDos": 43976, "ĠRounds": 49049, "ĠBolton": 35293, "ĠCed": 25789, "ĠSneak": 49475, "Ġscary": 14343, "kh": 14636, "Ġinnings": 16267, "Ġsubt": 13284, "live": 12583, "ĠNat": 14393, "Ġslip": 13819, "Ġ*.": 46866, "ĠMeanwhile": 11214, "Ġforeclosure": 41400, "Ġlocality": 48036, "Ġbloggers": 30357, "ĠBelgian": 21402, "Ġparody": 29695, "Ġprot": 1237, "Ġflow": 5202, "Ġwanna": 18869, "Ġantib": 11310, "Ġpredis": 46276, "rika": 28716, "Ġfuner": 49831, "ĠCreate": 13610, "her": 372, "Ġcheese": 9891, "Ġcivilized": 34169, "ĠVide": 42551, "ĠTechnique": 41317, "STEP": 42135, "Ġfucked": 20654, "Brand": 38416, "ĠEM": 17228, "ĠNah": 35201, "ĠDian": 19326, "secut": 4552, "Ġrefugee": 12540, "Ġadditionally": 36527, "Ġinteracted": 49236, "ĠPricing": 45030, "Ġdrifted": 38648, "Ġstim": 7132, "ĠPaleo": 46840, "ĠLW": 38492, "Ġcosmetic": 27284, "yrinth": 21324, "ĠSwitzerland": 14679, "Ġcountryside": 25708, "Ġsmashing": 35233, "Ġhyper": 8718, "ĠObjects": 35832, "ĠSpike": 26309, "ĠImport": 17267, "Ġsurreal": 28201, "TER": 5781, "EStreamFrame": 43177, "Ġthrust": 14613, "ĠRin": 25773, "Ġacet": 25174, "ĠJudith": 39987, "Ġpci": 39886, "Ġvery": 845, "Ġanticipated": 14486, "Ġfunctionality": 11244, "åľ": 28839, "yx": 28391, "onga": 44294, "ĠAcquisition": 44564, "Ġpages": 5468, "ĠDemocrat": 9755, "Ġvaccinated": 37663, "Ġ105": 13343, "Ġobjectively": 35721, "valid": 12102, "Demand": 42782, "ĠXY": 41420, "ĠSchwarz": 34835, "cean": 5829, "ĠGamerGate": 45358, "Desc": 24564, "ĠKoh": 24754, "acious": 14209, "possibly": 39363, "Ġpals": 39898, "Ġschedules": 24025, "Ġcontrols": 6973, "Ġprosper": 13983, "Theme": 47863, "ĠEnemy": 21785, "ĠCommunication": 26117, "Ġdecide": 5409, "Large": 21968, "MAT": 41636, "Path": 15235, "ym": 4948, "kus": 45614, "ĠStorm": 8865, "ĠDrops": 41692, "aquin": 48734, "Ġjailed": 22159, "ĠSung": 29802, "ĠKarachi": 46154, "ĠSelect": 9683, "ĠSuperior": 22953, "ĠFort": 6401, "aturday": 3658, "]": 60, "ĠStories": 18152, "Ġok": 12876, "Ġrefuses": 17567, "ĠMount": 5628, "rites": 23156, "ILD": 26761, "ertility": 27651, ">>": 4211, "vre": 43933, "($": 16763, "ĠChuck": 14663, "ĠReload": 37653, "Ġsocialists": 43005, "utonium": 43078, "ĠDNS": 18538, "Äĵ": 27092, "ull": 724, "O": 46, "storms": 38563, "Ġlays": 26614, "ettle": 23570, "FREE": 39274, "IME": 12789, "Ġfabricated": 33612, "Ġcolumnist": 22309, "Ġabsurd": 12986, "ardy": 39124, "ischer": 24645, "drop": 14781, "ĠToll": 44786, "ĠSalvation": 40814, "utter": 10381, "eland": 8822, "Ġdiscretionary": 41314, "Ġonward": 38232, "ĠAvalanche": 39372, "hood": 2894, "Leary": 48487, "iture": 8089, "sync": 27261, "1964": 46477, "ÙĨ": 23338, "Ġracial": 8425, "Ġencomp": 20504, "mb": 2022, "ĠAnon": 49347, "ĠHorowitz": 47591, "Ġdisconnected": 28597, "Ġwedd": 9540, "Ġunsur": 31035, "bo": 2127, "ĠSh": 911, "Ġfearful": 26844, "Ġcoli": 40395, "Break": 31737, "Ġsmarter": 23714, "aimon": 49438, "ĠVerify": 49899, "Ġtolerant": 33435, "Ġhops": 29438, "Ġselective": 21792, "ĠHolocaust": 18661, "Ġbaking": 16871, "Ġperjury": 47816, "Ġtags": 15940, "Ġparchment": 38414, "ĠAbedin": 39562, "taker": 30157, "Ġsequels": 45176, "ĠLaur": 13240, "enh": 16550, "ourcing": 29985, "Ġnortheast": 24287, "ĠâĹı": 48049, "Ġidentifier": 27421, "Ñĥ": 35072, "Ġexpecting": 12451, "Ġbullpen": 35093, "Ġsteam": 13324, "ĠKubrick": 46354, "ĠBos": 14548, "set": 2617, "orns": 19942, "Ġneocons": 43530, "Fight": 27365, "ĠEasy": 16789, "Ġshowed": 3751, "Ġpredicting": 25539, "Ġoverr": 23170, "Ġlogging": 18931, "Ġautobi": 33136, "Ġcatastrophic": 22694, "ĠKov": 43326, "âĶĢ": 7280, "ĠCf": 43216, "evaluate": 49786, "Ġintersect": 36177, "zo": 10872, "406": 29703, "Ġfooled": 35820, "ĠZeit": 47447, "ousing": 12752, "ĠSale": 16467, "miah": 35029, "Ġfunc": 25439, "Ġreferring": 9759, "Ġhomophobia": 42583, "Spr": 38454, "Ġagreed": 4987, "ĠDates": 44712, "ĠFuj": 32671, "Ġspe": 693, "Attorney": 46319, "Ġelastic": 27468, "Ġreputation": 8507, "UT": 3843, "Ġvenerable": 45682, "pared": 29190, "Ġbrowser": 6444, "Ġslideshow": 48828, "fitted": 38631, "Ġtv": 31557, "ĠTed": 11396, "Ġcouple": 3155, "ref": 5420, "ĠLabyrinth": 28561, "Ġexceedingly": 32436, "Besides": 23937, "youtu": 32594, "Ġpumping": 26916, "Ġdownturn": 34540, "Ġvaluable": 8119, "ĠMoj": 40120, "Ġom": 39030, "ãģĤ": 40948, "Ġregulates": 39474, "Ġinfluences": 16717, "127": 16799, "361": 35195, "Ġda": 12379, "Ġundermine": 16637, "ectar": 44504, "Ġdirector": 3437, "soon": 36194, "Ġdisruptions": 44365, "Ġbus": 1323, "ĠActually": 18689, "Ġversatility": 31689, "wid": 28029, "Ġcontin": 1261, "ĠRandomRedditorWithNo": 36174, "ĠGus": 37307, "ĠHercules": 32795, "ulent": 15288, "xe": 27705, "ãĤ¦": 16165, "Ġtheatre": 21421, "ĠSydney": 11852, "ĠKurdish": 14845, "Ġconsecut": 12358, "Years": 40630, "108": 15711, "Ger": 38069, "ĠDiabetes": 39569, "Ġbitcoins": 22690, "Latin": 49022, "Ġhomer": 44155, "Ġrattled": 48588, "Days": 38770, "Ġforthcoming": 21220, "ĠMana": 17493, "****": 2466, "Ġincom": 15501, "Ġbailout": 29928, "Young": 20917, "ove": 659, "ĠUnknown": 16185, "arge": 1376, "Ġplush": 46336, "Ġrepro": 43969, "ĠDane": 42999, "MAL": 42126, "ĠAure": 43737, "Ġchirop": 47544, "Ġhorns": 26771, "ĠChron": 8750, "found": 9275, "Disk": 40961, "ĠCorporation": 10501, "ĠOm": 16543, "ORPG": 49665, "ĠTamil": 32519, "ĠÂ©": 10673, "Stop": 19485, "ĠFOIA": 41245, "gdala": 40420, "é¾įå¥": 39820, "ĠMillennials": 42828, "ĠOvert": 46067, "Ġrevised": 15556, "ĠUt": 7273, "Ġleg": 1232, "Ġeff": 914, "ĠPride": 21735, "Ġdisadvantage": 21407, "ĠPeck": 48434, "Ġwithstand": 25073, "Energy": 28925, "Ġthereafter": 19547, "Ġfined": 22643, "CHECK": 50084, "Ġresidency": 27308, ".),": 12179, "Ġflip": 14283, "ĠGreater": 18169, "flex": 32880, "Ġpayout": 40055, "Mah": 40936, "Ġdictates": 35054, "Ġflick": 26810, "Ġunpaid": 24268, "vec": 35138, "town": 12735, "Ġextr": 22820, "Ġ229": 31064, "ĠCindy": 39062, "Ġremove": 4781, "Ġtofu": 40108, "Ġproceed": 5120, "VEL": 18697, "Ġtherapeutic": 21546, "ĠMilk": 24796, "Ġblur": 23671, "Ġenigmatic": 48584, "Ġhardened": 33034, "placed": 21820, "Ġcoaching": 13101, "fect": 2309, "Ġcoolest": 38889, "Ġcushion": 33579, "Contact": 17829, "Ġbrushing": 42798, "ĠAllaah": 49086, "Ġconsortium": 36451, "ĠCES": 42700, "Ġsplash": 22870, "Ġhold": 1745, "Ġintervention": 9572, "neg": 12480, "326": 39195, "Ġswiftly": 23994, "Ġvetted": 48383, "ĠLines": 26299, "Ġeuro": 11063, "Ġidi": 46205, "Ġpel": 16176, "Ġcompress": 27413, "Foreign": 33616, "gewater": 40843, "Ġstaged": 23393, "ĠFILE": 45811, "ended": 1631, "ĠZap": 36079, "Ġninety": 37989, "Ġdr": 1553, "Nob": 21191, "Ġtargeting": 10822, "Ġegreg": 31954, "ĠFAM": 42129, "maps": 31803, "Ġ165": 21409, "icidal": 21488, "ĠABE": 44013, "Ġque": 8358, "ĠPre": 3771, "166": 23055, "Ġinstaller": 29124, "onomic": 40036, "ĠAllison": 33461, "ĠBer": 4312, "ĠZion": 16899, "ĠJinping": 39823, "strength": 41402, "Ġprolong": 16761, "Ġcredited": 18141, "Ġinvests": 49862, "Ġdistur": 11239, "Ġmitigation": 33585, "Ġmaps": 8739, "Ġmidday": 47168, "ĠWebster": 31890, "missions": 8481, "ĠKendall": 36779, "Ġhello": 23748, "Ġhorizont": 13736, "Ġtourists": 15930, "Ġrazor": 26811, "Ġraged": 49000, "Ġ655": 45021, "Contin": 17875, "Ġfibre": 33073, "Ġrot": 5724, "Ġbust": 13076, "Ġrotting": 44494, "Ġexpanded": 9902, "ĠNewsp": 36765, "Ġidle": 21696, "ĠPhillip": 29470, "ĠBlake": 13307, "ĠArd": 34597, "alm": 38182, "Ġsuspicious": 13678, "Ġslogan": 23796, "acher": 3493, "ĠChilean": 48014, "Ġassumes": 18533, "Ġmountain": 8598, "Ġscan": 9367, "Ġlogged": 18832, "ocytes": 30309, "Ġblessing": 20027, "Ġraising": 8620, "Ġgrading": 43165, "ounce": 8652, "proxy": 36436, "ĠMumbai": 22917, "ĠAchievements": 49496, "Ġartifacts": 20316, "Ġsecretive": 32654, "ĠBe": 1355, "Ġkeyword": 21179, "Ġgraft": 38455, "Ġrepublic": 17146, "Ġconcentration": 10368, "elcome": 9571, "ĠNights": 27760, "Ġuncond": 31776, "ogly": 34619, "inks": 2973, "Ġsugars": 34476, "ĠElemental": 21340, "abeth": 9407, "eem": 13761, "gnu": 41791, "ĠOriental": 39713, "Ġhesitate": 22898, "Ġicing": 41567, "Ġrally": 7903, "Ġadvocates": 11009, "Ġfares": 33164, "Reb": 28951, "internal": 32538, "Ġattributed": 14183, "sword": 30553, "493": 43134, "ĠNebraska": 18329, "roleum": 21945, "Ġcolleagues": 7810, "Ġlifelong": 25837, "cho": 6679, "Ġrye": 47553, "ĠFear": 16132, "Ġstyling": 35517, "ĠGibson": 20400, "Ġbliss": 30533, "Ġcanonical": 40091, "Ġentertained": 34988, "Wi": 31294, "ĠRW": 33212, "ĠSHOULD": 40312, "Ġshelf": 18316, "ĠWitcher": 36018, "Pand": 47206, "Ġbapt": 20452, "ĠPuzz": 27985, "Ġkh": 44081, "etermined": 23444, "Benef": 42166, "igated": 26963, "88": 3459, "ĠLimited": 15302, "Ġfateful": 46873, "ĠABS": 29950, "ĠNR": 23057, "ĠFavorite": 33992, "Ġregulations": 6647, "zsche": 37467, "Ġspells": 10377, "proof": 13288, "Ġobnoxious": 43283, "Split": 41205, "Ġacknowledges": 23477, "rama": 20058, "atherine": 15289, "Ġsocio": 21790, "ĠOsama": 29236, "ĠSakura": 20574, "ĠInvestigators": 40466, "Ġbetrayal": 29355, "ĠColor": 5315, "Train": 44077, "Ġsoldiers": 5795, "Ġreincarn": 41831, "Ġcompletes": 32543, "ifax": 26590, "Topics": 25902, "References": 19927, "Ġgoal": 3061, "asonry": 38950, "ĠRegistry": 33432, "rontal": 39321, "Ļ½": 50159, "Ġassay": 40575, "ĠLatvia": 35794, "ĠBarcelona": 15142, "Depending": 41156, "rapnel": 48766, "eals": 10621, "arters": 6137, "attery": 16296, "andem": 30025, "vas": 11017, "Ġutilization": 32121, "ĠJOHN": 39263, "resa": 14625, "painted": 47351, "ĠBuffy": 27438, "Ġnp": 45941, "otype": 8690, "Ġaccumulated": 22425, "Ġteenage": 16330, "ĠSpells": 30656, "ensor": 22854, "ĠJFK": 35216, "conference": 41124, "JECT": 23680, "Ġemulation": 47065, "Analysis": 32750, "sec": 2363, "Ġdominated": 13354, "Comp": 7293, "Ġloading": 11046, "Ġforced": 4137, "Ġoverd": 14904, "Ġpowerful": 3665, "ĠLazarus": 49093, "Ġmining": 9691, "Ġtoolbar": 50149, "ĠSecret": 3943, "Ġdrawings": 23388, "Cass": 43529, "memory": 31673, "ĠSunni": 18592, "Ġtransient": 32361, "EED": 41841, "Set": 7248, "Ġlie": 6486, "Ġ23": 2242, "ologists": 9251, "Ġcoun": 2289, "ĠVenezuelan": 34497, "commun": 10709, "Ġfascinated": 30103, "Ġpastors": 43978, "Ġmetabolic": 19737, "onian": 27625, "ĠIncluded": 34774, "Ġcuring": 46053, "ixels": 14810, "Ġinexplicable": 49602, "ĠMatch": 13225, "ĠVIEW": 49880, "Republic": 15431, "ĠAfgh": 44238, "Ġpromotions": 20699, "Ġautomated": 16359, "Ġdoubtful": 31608, "amorph": 37670, "ĠCe": 20101, "Ġrudimentary": 47381, "ĠBender": 34535, "563": 46572, "Ġlecture": 19143, "kov": 21862, "ĠIncarnation": 47881, "Ġadministered": 17169, "Ġrevolves": 38228, "Ġrouters": 41144, "irled": 49376, "Buff": 36474, "girls": 36960, "Ġdrives": 10182, "init": 15003, "ĠTracking": 37169, "lund": 37525, "onso": 26666, "ĠNavigation": 42115, "elong": 21537, "Ġkn": 638, "rils": 41408, "exper": 23100, "ĠDead": 5542, "Ġdossier": 34602, "ĠMoore": 8877, "Ġusability": 42863, "Ġtackle": 9761, "ĠFormula": 19639, "ĠEMP": 38144, "Ġgreen": 4077, "Ġknocking": 21500, "ĠRiy": 33542, "ĠLily": 20037, "ĠWarlock": 34787, "Ġspeaker": 10834, "Ġreins": 35627, "ĠBooker": 31004, "Ġgem": 16840, "Ġlike": 588, "ĠMour": 24289, "ĠByz": 36655, "acking": 5430, "Ġdrafted": 15937, "Ġtea": 8887, "ĠDivision": 7458, "ffic": 2108, "623": 46872, "ĠLip": 24701, "asa": 15462, "ella": 12627, "Ġwives": 17743, "Ġcoding": 19617, "Ġpush": 4574, "Ġreprint": 26589, "Ġannouncer": 49032, "Ġ170": 16677, "Ġmult": 1963, "Ġsnow": 6729, "ĠGMT": 16987, "None": 14202, "ĠStarship": 40172, "Ġnod": 18666, "Ġevacuated": 23724, "Construction": 36687, "False": 25101, "Complete": 20988, "Ġfriend": 1545, "attack": 20358, "onomous": 38175, "éģ": 34402, "Ġincrim": 48903, "fuel": 25802, "ĠIro": 47927, "Protect": 41426, "ĠTo": 1675, "Ġzero": 6632, "hest": 3634, "ĠEssentially": 34039, "ĠPow": 14120, "Ġsettling": 25446, "Ġspeculate": 26256, "Jews": 47415, "Ġslapping": 48966, "ĠVoyager": 34124, "ĠPryor": 45350, "ĠSew": 27347, "Ġdemonstrates": 15687, "Ġlinkage": 45945, "You": 1639, "Franc": 42885, "ĠErica": 45187, "ĠMosul": 19192, "Map": 13912, "Ġreality": 3950, "Ġnormalized": 39279, "APH": 31300, "Ġnegotiators": 45373, "leases": 29329, "Ġnarr": 6664, "»Ĵ": 36596, "Ġarchive": 15424, "010": 20943, "Ġharmony": 22471, "bound": 7784, "Ġmercury": 27394, "istor": 32380, "ĠAppl": 39100, "usk": 17990, "ĠDuterte": 25763, "Ġtrail": 8025, "enment": 23242, "Ġstunning": 13393, "Ġnurture": 43414, "idad": 32482, "ĠMarx": 10487, "Ġsharply": 18939, "ĠPI": 30434, "Ġnons": 14011, "ĠAlfred": 22044, "Ġindexes": 39199, "pin": 11635, "Ġmusic": 2647, "Ġexerc": 4208, "Ġmanip": 7704, "packs": 32377, "Ġrecord": 1700, "ãĥį": 44916, "Ġafternoon": 6672, "Ġpatients": 3871, "nuts": 31381, "ĠCOUN": 31404, "ĠProductions": 25315, "urse": 12321, "regon": 8285, "Ġcognition": 31119, "Ġprov": 899, "ji": 7285, "ĠRodriguez": 19391, "Machine": 37573, "ĠPau": 37329, "Author": 13838, "ĠHydro": 32116, "Ġtelling": 5149, "ĠMade": 14446, "Ġim": 545, "ĠScenes": 49525, "Ġstay": 2652, "ĠOrthodox": 17650, "Ġclosest": 11706, "Ġstuffing": 43672, "committee": 26799, "Ġpopulations": 9684, "Ġtextbooks": 31814, "Ġloose": 9155, "ean": 11025, "agents": 49638, "ĠProbably": 18578, "Ġ(_": 44104, "ĠNuclear": 19229, "ĠMAS": 32337, "é¾į": 11885, "sequent": 44399, "athing": 26927, "ĠTestament": 18318, "child": 9410, "Ġb": 275, "Ġreaching": 8978, "Ġ178": 27368, "Ġprotections": 15018, "ĠCooper": 10382, "ĠOh": 3966, "ĠCharl": 6258, "Ġnovels": 16122, "Ġprovoke": 29791, "Ġrode": 22075, "Ġprinc": 5144, "ĠSupreme": 5617, "Ġkisses": 36544, "Ġii": 21065, "Ġlett": 35044, "ON": 1340, "tha": 12898, "ĠElixir": 42652, "Ġresultant": 43440, "endium": 49811, "Ġwrapping": 27074, "despite": 41081, "Ġsniper": 26160, "Ġsucceeds": 31137, "Ġracially": 28824, "IV": 3824, "Ġstatist": 10118, "Ġbrow": 4772, "ĠBieber": 42263, "Ġdetainee": 49436, "Ġspans": 32727, "Ġletting": 9616, "Ġmachinery": 20230, "ĠNAS": 7210, "Craig": 40441, "Ġdire": 19958, "Ġsexually": 11363, "ĠImam": 38386, "waters": 41555, "Ġunparalleled": 39235, "ĠShade": 48747, "Ġobliter": 35722, "Ġinclusion": 14900, "Ġpredicate": 44010, "ĠFlames": 25814, "ĠDollar": 29747, "ĠKurt": 20642, "aptop": 45007, "192": 17477, "Ġpropaganda": 11613, "ĠVault": 23450, "cyclopedia": 25497, "Nusra": 39294, "Ġflirt": 44109, "Ġgranting": 21787, "Ġ>>>": 13163, "ONS": 19213, "Ġcontentious": 27154, "Ġcontrovers": 5467, "Philipp": 49680, "ĠBi": 8436, "inction": 9438, "ĠRefugee": 42791, "Ġs": 264, "culture": 25584, "Ġcounselors": 44135, "obe": 5910, "ĠPH": 9370, "Ġparasite": 38473, "Ġexplor": 39180, "À": 124, "Whit": 43617, "Ġpinned": 25711, "inventory": 24807, "Ġfly": 6129, "Against": 39276, "Ġow": 12334, "ĠWhere": 6350, "orious": 9982, "oct": 38441, "ĠIsabel": 41838, "TED": 36493, "Ġgoverning": 15030, "Ġ1968": 15963, "Ġfirst": 717, "Ġinscribed": 45100, "ĠSpears": 45978, "ĠPrec": 28737, "Ġcreatine": 49346, "Ġdental": 22727, "isf": 4468, "Ġtrace": 12854, "Ġfr": 1216, "Ġspit": 27591, "Ġvarious": 2972, "aiman": 47840, "Ġcooled": 32162, "Australian": 38036, "ĠOpenGL": 30672, "ĠBritt": 26036, "Ġhurt": 5938, "xb": 30894, "haul": 15194, "Ġspouses": 30250, "Ġdeficient": 40043, "ĠIc": 43042, "TPS": 28820, "Ġhonesty": 24345, "ĠAdrian": 21462, "Ġsubsequently": 12412, "ĠJoint": 16798, "gob": 44270, "gar": 4563, "ĠCold": 10250, "Ġheter": 14445, "ĠTigers": 17662, "Ġembry": 20748, "Ġthrown": 8754, "ĠHL": 38312, "Ġsuspensions": 47228, "acc": 4134, "ĠAx": 12176, "aba": 15498, "stated": 21989, "Ġ$\\": 39280, "ut": 315, "Ġenterprise": 13953, "ĠKeen": 32444, "ĠRip": 29496, "Ġspite": 15275, "Ġrails": 27587, "Ġstigmat": 43603, "diff": 26069, "ĠFamilies": 25813, "ĠSimulator": 13942, "Ġtucked": 29779, "Ġobvious": 3489, "opening": 29443, "Ġseismic": 37463, "Ġpolitic": 31723, "ĠDial": 21269, "ĠPodesta": 27375, "cloth": 44905, "armed": 12026, "267": 25674, "Ġmuscle": 8280, "Layout": 32517, "Ġclone": 17271, "Ġtipped": 28395, "ĠBucs": 44099, "Ġreservoir": 22115, "ĠGu": 1962, "Wonder": 42337, "Climate": 37649, "enda": 7438, "Ġbiodiversity": 37589, "channel": 17620, "âĺħâĺħ": 28353, "Ġfug": 31497, "Ġsne": 10505, "Scientists": 29193, "Card": 16962, "Ġrappers": 50233, "Ġresult": 1255, "ĠCoke": 34723, "ĠStir": 33689, "multi": 41684, "initial": 36733, "Ġcapit": 46964, "ĠWarm": 25692, "ĠDef": 2896, "Ġorganised": 20325, "Ġshootout": 34995, "ĠLIM": 27564, "Ġspeeches": 18138, "rance": 8132, "q": 80, "Legend": 21351, "ĠAbyssal": 45123, "ĠThrust": 49794, "ĠRuntime": 43160, "Austral": 19763, "Ġpolite": 23507, "Ġsafeguards": 32673, "ĠReprodu": 36551, "Emily": 48640, "Ġapprove": 14762, "ĠPC": 4217, "Lab": 17822, "ĠVictoria": 12313, "Ġmut": 4517, "STR": 18601, "leaf": 33201, "36": 2623, "Ġlends": 37733, "ĠNote": 5740, "Ġoutfit": 16313, "heartedly": 44407, "big": 14261, "Ġpredictor": 41568, "Ġdecentral": 20649, "ĠPie": 21690, "aviour": 37716, "Ġclaimed": 4752, "beck": 27343, "Ġthirsty": 47124, "hiba": 49224, "ikan": 49894, "itially": 22640, "ĠJericho": 47782, "NEWS": 49597, "omics": 31994, "Ġ433": 47407, "ĠCasual": 43508, "Ġdeposition": 32553, "ĠDefendants": 44162, "Ġaccessed": 17535, "Ġcontradiction": 25741, "Ġpouring": 23147, "Ġ1840": 47784, "Ġrepositories": 38072, "ĠCombat": 14487, "ĠAbbey": 33128, "Ġ~/.": 39763, "Ġreflected": 12548, "Ġmushroom": 28520, "Ġ[&": 49082, "Ġmyself": 3589, "ĠGiants": 12056, "ĠHazard": 32224, "Ġdowned": 42281, "Ġinterven": 14118, "ĠUnreal": 42536, "Ġdebilitating": 41378, "Ġflyers": 45112, "never": 12081, "There": 1858, "Ġdere": 49408, "Ġexpenditures": 22895, "Ġbunch": 7684, "Ġmanually": 14500, "ĠLaf": 31528, "Germany": 27079, "ENDED": 49361, "Ġboats": 16659, "Ġmummy": 38567, "Ġreceipts": 29946, "ĠSomewhere": 43808, "ĠBlessed": 33398, "Ġunc": 4591, "Ġeats": 25365, "ĠTypical": 48752, "Ġwoo": 36440, "ĠCannabis": 28838, "Ġintervening": 37294, "Ġedits": 31671, "Ġdepressing": 31193, "stuff": 41094, "ĠAi": 38230, "Ġscrolls": 32138, "ĠFriend": 9182, "Ġhunger": 16460, "NG": 10503, "ĠStru": 34887, "Ġensl": 25563, "Ġcafeteria": 43075, "river": 38291, "Ġfutile": 35322, "Catalog": 49015, "Ġrestaurants": 10808, "ĠDungeons": 25461, "Ġevolution": 6954, "ĠDug": 27436, "Ġimproperly": 34250, "ĠTah": 26293, "Ġunbeat": 36499, "Ġmundane": 30741, "themed": 26966, "Ġmutually": 26519, "ĠCrowd": 29452, "Ġruined": 20484, "ĠBombay": 48918, "Ġluggage": 31488, "Ġwond": 3135, "ĠMara": 40124, "Ġrear": 8286, "Ġclipboard": 47999, "Ġdiscrepancies": 42420, "Ġdudes": 34578, "Ġvanish": 39572, "ãĥīãĥ©": 19073, "ĠFixed": 10832, "ĠBrookings": 44924, "eri": 33442, "imer": 22723, "Ġconvergence": 40826, "Ġmeters": 10700, "ĠPokÃ©": 9169, "ĠHave": 8192, "ĠRousse": 42849, "ĠNursing": 46278, "flow": 11125, "Ġliability": 12247, "Lind": 43410, "Ġunexpected": 10059, "ĠDepth": 36350, "Ġchain": 6333, "Calif": 19619, "Pink": 41912, "Ġ1905": 37166, "Ġfavors": 23866, "Ġexpectancy": 29098, "Ġcass": 30606, "ĠPortsmouth": 48823, "illusion": 35760, "Ġpumped": 29104, "Ġnewsletters": 16983, "Browser": 46532, "imoto": 43354, "ĠGetting": 18067, "İĭ": 23329, "ĠDeluxe": 21907, "pol": 16104, "iquette": 40387, "Ġchildhood": 9963, "ĠPr": 1736, "arget": 7641, "Ġexercised": 25805, "Ġstrap": 23016, "CLE": 29931, "Ġtang": 13875, "Ġtheorem": 44728, "ĠFool": 36458, "Ġdesired": 10348, "Ġcomplicity": 48234, "Ġdeclining": 18080, "agh": 10471, "ĠRevolution": 9303, "._": 13557, "Ġorganizing": 16924, "ĠBrewers": 35295, "ister": 1694, "&": 5, "ĠShake": 41113, "Ġapologised": 46397, "10000": 49388, "Ġnas": 25221, "Ġorganis": 13867, "Ġwrists": 38163, "Ġbulk": 11963, "ĠAdvanced": 13435, "Ġscoff": 39247, "ĠMedicare": 13771, "lation": 7592, "Ġwhim": 29923, "Ġ368": 43019, "Ġunusual": 8468, "ĠCanadians": 14008, "Rod": 27917, "omination": 27744, "Ġcapacity": 5339, "Ġscalable": 43865, "Ġacres": 16051, "asts": 5773, "Ġcinnamon": 29181, "eca": 31047, "075": 46396, "129": 18741, "ĠReich": 24560, "ĠDoes": 8314, "Ġdisciple": 35567, "Ġtrustee": 36882, "Ġexpedition": 22817, "ĠGord": 39592, "Ġguarantees": 19026, "135": 17059, "Ġalphabet": 24830, "][/": 44926, "oÄŁ": 45492, "ĠMatters": 30587, "ilitarian": 43900, "aughty": 28496, ":\\": 7479, "Ġcohort": 20812, "Ġawareness": 9359, "Ġconfusion": 10802, "Shield": 33651, "ues": 947, "Ġdove": 38862, "ĠMond": 27328, "Ġrepaid": 48417, "Ġcrippling": 37953, "Ġarchitectures": 45619, "ĠRae": 41155, "Ġphilosophical": 17580, "Ġfounder": 9119, "ĠBaltimore": 10346, "ĠObs": 11086, "Tomorrow": 49488, "Ġbleak": 30942, "ometric": 16996, "Ġlabel": 6167, "Ġpreschool": 38725, "/(": 29006, "Ġbowel": 35711, "omew": 28030, "ĠBian": 41227, "ĠOff": 3242, "ĠEverything": 11391, "Ġmemes": 32905, "tn": 34106, "ĠMk": 24798, "Ġcent": 1247, "Ġhourly": 30160, "Ġdedicate": 39383, "venants": 43773, "ĠJenna": 45377, "ĠGerman": 2679, "inatory": 23132, "Ġhumiliating": 37743, "Classic": 39914, "Ġmy": 616, "ocus": 10901, "Ġoptical": 18480, "Ġsmell": 8508, "Ġjets": 20792, "ĠGreenberg": 46702, "Store": 22658, "Ġdisadvant": 14560, "Ġjudgement": 23071, "ĠMotor": 12533, "att": 1078, "ĠCoral": 41390, "ĠCarn": 19659, "ĠAzerb": 29740, "copy": 30073, "itsu": 19831, "ĠZelda": 22166, "Ġappliances": 29834, "Ġfocus": 2962, "Ġclasp": 47425, "Ġlords": 33200, "Ġemphatically": 49206, "StreamerBot": 37574, "Ġburner": 46027, "ureen": 49851, "Ġ(>": 45160, "Ġleaping": 45583, "ĠCNS": 48935, "Ġrevamped": 43814, "Ġfold": 5591, "ĠHighest": 41864, "Ġtravelling": 16574, "Ġridden": 46715, "ĠWynne": 45867, "Ġbearings": 39872, "Ġenabling": 15882, "Ġspills": 42123, "Ġecology": 36517, "Teen": 45639, "Ġluxury": 13064, "Ġcontr": 3445, "Ġeveryone": 2506, "Ġmacro": 15021, "Ġfeaturing": 9593, "Ġmajority": 3741, "ĠCort": 18418, "Ġharmonic": 49239, "bp": 46583, "ĠC": 327, "Ġsculpt": 14747, "ĠMacedonia": 36353, "Sex": 23398, "Ġutterly": 15950, "ĠShooting": 25360, "Ġtook": 1718, "Ġantique": 38504, "Hall": 34194, "erey": 48023, "Ġtests": 5254, "ĠGolf": 19709, "Ġcloudy": 40026, "Ġlarge": 1588, "uffs": 18058, "dim": 27740, "Ġalcoholic": 26016, "ĠProperties": 24946, "Ġmentioned": 4750, "ĠDetected": 46497, "Ġseafood": 31473, "ĠEditor": 12058, "Ġpillar": 30042, "ĠAX": 43051, "é£": 45617, "Run": 10987, "ĠIn": 554, "Tue": 41392, "Ġjointly": 26913, "ĠKerala": 34649, "Ġvine": 17793, "ĠKentucky": 11867, "Ġbig": 1263, "azed": 13865, "ĠScher": 47956, "ĠHOU": 29068, "ivably": 47994, "arya": 43898, "ĠBeetle": 47464, "ĠPresent": 21662, "mini": 45313, "Ġdestruction": 8166, "Ġav": 1196, "ĠAI": 9552, "Bay": 15262, "Ġsaddle": 33083, "Ju": 33018, "ĠFROM": 16034, "Ġspreads": 26779, "Ġcomplications": 19481, "Seriously": 42338, "Ġsugg": 1947, "ĠTsukuyomi": 43796, "Ġkidney": 21919, "ĠHUM": 45850, "ĠMovement": 15477, "ĠLara": 29849, "Ġbishop": 24233, "Loc": 33711, "866": 42240, "goo": 42469, "Ġappreciation": 19163, "Ġancestry": 29171, "ĠTour": 9852, "Ġindictment": 19975, "ĠOri": 17954, "ĠContributions": 49152, "Ġforge": 28325, "Ġ});": 14980, "ĠJob": 15768, "rists": 37326, "Ġentails": 35445, "698": 39357, "ĠRune": 28228, "Ġlapse": 42689, "utory": 17957, "reement": 10237, "Ġrallies": 22558, "Ġsts": 39747, "quality": 13237, "wrapper": 48553, "Ġrip": 18344, "Ghost": 32001, "Ġdestructive": 17656, "Ġhesitation": 29592, "ĠSean": 11465, "edd": 6048, "ÂłÂł": 4603, "Ġdenouncing": 45041, "ĠJeanne": 48202, "ĠGeographic": 33636, "Ġnig": 44873, "Directory": 43055, "ellow": 5037, "Ġcontinuation": 24659, "Ġfuzz": 26080, "Ġwicked": 20589, "Ġdivergence": 43366, "ĠBottle": 33608, "Ġcryptography": 45898, "ĠEaster": 20111, "Ġmul": 35971, "ventional": 20405, "guy": 22932, "ĠTaxi": 49227, "Ġpills": 19521, "Ġmotivations": 28140, "ĠBecame": 30769, "Weapon": 27632, "ãĥĪ": 13298, "Ab": 4826, "Ġcongestion": 28014, "Ġpesticide": 36466, "Ġqualification": 28587, "Ġasbestos": 45450, "120": 10232, "Ġflown": 22371, "Orig": 11610, "ĠQuentin": 42447, "ĠRollins": 47489, "idel": 5943, "Ġfundraising": 18066, "Ġbrazen": 40033, "Ġbystand": 33326, "Ġtoug": 14427, "Ġsecretaries": 49431, "ĠEdwin": 37016, "Ġlured": 41546, "fights": 50121, "Ġcat": 3797, "Ġrestricted": 10770, "hardt": 28375, "Ġexplode": 22818, "Ġregrett": 31649, "Ġdome": 29500, "ĠBryce": 39560, "Ġeaves": 42174, "Ġgravel": 34375, "rians": 19151, "Ġgenital": 24678, "Ġdread": 15157, "Las": 46898, "brainer": 49334, "ĠOversight": 35968, "\")": 4943, "Ġentities": 12066, "ĠCricket": 34761, "Ġabduct": 24827, "ĠOffic": 6328, "lich": 33467, "Journal": 25296, "Ġinstances": 10245, "ĠAlv": 33414, "Ore": 41543, "Ġmisogyn": 22795, "ĠRodham": 41848, "ae": 3609, "Ġuh": 21480, "266": 25540, "Ġrenting": 34245, "fetched": 50012, "arations": 24355, "IRE": 41736, "dict": 11600, "Ġ290": 26481, "ĠJay": 9180, "sey": 4397, "ĠMDMA": 34883, "ĠFeast": 42936, "173": 25399, "Ġvetoed": 49581, "ights": 2337, "Ġlands": 8604, "Ġimproved": 6596, "IAL": 12576, "Ġconvinc": 15609, "Ġenthus": 8485, "ĠWelsh": 22945, "Ġconfisc": 22735, "ĠInsider": 22167, "reed": 15977, "liter": 17201, "sch": 20601, "ĠReef": 34151, "piring": 12987, "Ġtype": 2099, "ampunk": 46183, "lr": 14050, "acion": 49443, "Ġpredict": 4331, "paralleled": 37859, "uably": 14632, "Ġfilibuster": 38940, "hetically": 31786, "igor": 36274, "996": 38565, "Ġassaults": 21832, "ishly": 29735, "image": 9060, "Ġcarts": 44355, "ĠFilip": 24600, "ant": 415, "ĠDIS": 13954, "Â½": 23141, "liga": 38910, "Ġaccumulate": 29915, "ietal": 21587, "addafi": 32113, "Because": 8128, "iga": 13827, "Ġaggro": 44082, "×Ķ": 38269, "Ġcommissioner": 16248, "Ġfactory": 8860, "Ġrepet": 46152, "ĠReduce": 44048, "prime": 35505, "ĠSB": 18056, "Ġcloset": 21615, "ivari": 35460, "ĠPine": 23076, "Ġsize": 2546, "Ġruin": 16866, "rest": 2118, "Ġslack": 30740, "ĠVeg": 8427, "Ġworms": 29174, "ĠArlington": 30379, "Ġdecreased": 11832, "Chelsea": 41053, "ãĥ¼": 6312, "kit": 15813, "Ġ157": 23313, "ĠDor": 12528, "Ġarri": 2914, "ĠCompensation": 39059, "ĠÂłĠÂł": 11504, "ĠLear": 8010, "ĠContribut": 25767, "ãĥ¼ãĥ³": 31708, "Ġtangled": 41431, "cence": 43696, "Ġdeserve": 10925, "ĠSad": 14668, "Lisa": 44203, "Ġnecessities": 41918, "ĠTro": 8498, "kin": 5116, "ĠHamp": 13039, "Ġtrailing": 25462, "Sil": 15086, "unctions": 46797, "ĠHowe": 38320, "Ġrookie": 12302, "isse": 20782, "Ġapproaching": 13885, "ĠReturning": 42882, "Lock": 25392, "ĠHaunted": 43884, "Ġredeem": 26509, "aking": 868, "Ġpun": 4000, "Sab": 39646, "ĠSchool": 3961, "ĠCarib": 17152, "Ġteam": 1074, "ĠWITH": 13315, "Ġsingers": 39113, "à": 156, "Ġpron": 9668, "ĠOrganic": 31734, "foo": 21943, "Ġcircum": 4456, "Ġmortar": 29871, "amination": 24979, "ĠSinai": 33745, "ĠTOP": 28662, "ĠLA": 9131, "Ġappe": 35787, "ĠCer": 17419, "Ġsomebody": 8276, "stop": 11338, "Ġbreach": 13694, "ĠSirius": 21795, "ĠWORLD": 29564, "Ġprivilege": 11941, "Ġalthough": 3584, "Ġanch": 12619, "flag": 32109, "Ġbounded": 49948, "wm": 26377, "ĠINST": 40589, "Ġsuburban": 20154, "Ġheadphones": 22537, "Ġsignificantly": 5566, "Ġplains": 36149, "Tour": 39152, "Bitcoin": 22614, "Ġturning": 6225, "irmation": 36241, "ABC": 24694, "/*": 15211, "ĠRage": 21663, "usalem": 10555, "ĠMongol": 42188, "Ġveteran": 9298, "ĠRutgers": 30595, "nington": 48405, "edes": 37507, "263": 29558, "Ġlawyer": 6853, "ä¹ĭ": 45298, "anium": 15776, "ĠSquirrel": 44259, "Ġhandshake": 42231, "2004": 15724, "Ġrole": 2597, "Ġpromul": 38040, "INTON": 46812, "Ġatheists": 28473, "Ġaccompanied": 11791, "ĠMoody": 32136, "Ġliter": 4187, "Ġsidebar": 40217, "Ġkey": 1994, "algia": 47111, "Ġelectric": 5186, "zi": 17027, "Ġirritated": 38635, "Ġhalftime": 35185, "Ġconcept": 3721, "Ġlas": 39990, "WIND": 28929, "anc": 1192, "uddle": 24500, "Ġwages": 9400, "orp": 16300, "gotten": 21646, "ĠOre": 22452, "Ġinland": 37874, "Ġ227": 30989, "ĠBarack": 8732, "Ġcartoon": 16251, "viron": 2268, "during": 42122, "ĠPacers": 31637, "MAS": 31180, "HTTP": 40717, "Bound": 49646, "Philadelphia": 42349, "ĠOmar": 24980, "Ġspeaks": 9209, "aster": 1603, "ĠLuxembourg": 31864, "DC": 9697, "Ġvolatility": 30772, "Ġcrack": 8469, "Ġcontributors": 20420, "ĠFortress": 25213, "endi": 43109, "Ġundo": 23981, "Ġsubur": 13150, "Ġinterns": 47266, "Ġdiscredited": 41882, "Ġ(#": 17426, "OG": 7730, "Golden": 32378, "Ġstandings": 33864, "Ġplummet": 28940, "ĠSki": 38809, "Design": 23067, "Ġswallowed": 27961, "ĠPoster": 44996, "Ġdecode": 36899, "bags": 34005, "Ġ//[": 31161, "ensitive": 18464, "CH": 3398, "avering": 42610, "Ġdedication": 22445, "ĠYugoslavia": 37777, "Ġpublication": 9207, "ĠMillions": 39830, "Ġpeak": 9103, "Ġarenas": 46168, "ĠCreation": 21582, "Crunch": 49384, "Ġpursued": 19189, "Ġsubs": 6352, "ĠexternalTo": 30208, "Ġknowledge": 3725, "ĠRecent": 22926, "Ġphenomenon": 10733, "ĠSpani": 37506, "ĠSpeed": 8729, "ĠPAX": 49742, "ĠHole": 24478, "\"}],\"": 42785, "ĠVerd": 42270, "blue": 17585, "Secret": 23725, "roximately": 24378, "ĠSTUD": 49348, "atography": 45501, "ĠNeuroscience": 38917, "oglobin": 49835, "Language": 32065, "ĠBoulevard": 23889, "estones": 30637, "Ġcommunicating": 22889, "Ġantibiotic": 29883, "Ġchill": 20493, "ĠRd": 20769, "1016": 27956, "ĠLifetime": 40870, "ĠDis": 3167, "modified": 41771, "Ear": 8419, "Ġtrusting": 33914, "Ġdesper": 8029, "ĠComments": 19502, "Ġmayors": 44660, "eping": 7213, "Ġpersuaded": 25562, "Ġfolklore": 46623, "LOCK": 36840, "Ġcod": 14873, "ĠSiege": 30207, "Ġanten": 16943, "Ġironically": 32532, "Ġdanced": 39480, "Learn": 20238, "Ġfi": 25912, "Ġtranscript": 14687, "ĠMVP": 12742, "ebin": 23497, "var": 7785, "Ġportals": 42604, "Ġprecaution": 32992, "roller": 10646, "Ġvillagers": 25263, "ĠALEC": 44946, "ĠRefuge": 22433, "bearing": 28655, "Else": 40674, "Ġnotable": 12411, "ĠPars": 23042, "ĠArrest": 35080, "Ġpitchers": 25259, "akening": 18800, "Ġtraveling": 11300, "ĠFace": 15399, "?),": 33924, "pty": 5835, "osp": 2117, "ĠCGI": 36378, "ength": 3286, "ested": 7287, "Summer": 33560, "etheless": 12845, "Ġribs": 27105, "Ġfranchises": 28088, "Ġinsurgency": 35121, "ĠHuma": 49387, "ĠForge": 24855, "Ġdiagnosed": 14641, "Ġlights": 7588, "Ġworkload": 26211, "Ġstirred": 33091, "Ġceasefire": 29717, "ĠXXX": 27713, "ĠFav": 34395, "ĠFoot": 7870, "5000": 27641, "ĠLarge": 13601, "Ġlocally": 15726, ")âĢĶ": 27920, "Ġlegend": 8177, "DEP": 46162, "ĠConservative": 11132, "ãĥ¬": 24186, "ĠProced": 23652, "ĠRegina": 38739, "ĠMolecular": 38275, "Ġsimulator": 35375, "isd": 9409, "parency": 11944, "practice": 39541, "Ġbut": 475, "Ġneedless": 44658, "ĠDifference": 43795, "Ġequations": 27490, "Ġpedal": 26667, "ĠJustin": 10799, "Ġcollabor": 6967, "linear": 29127, "oid": 1868, "Ġsixth": 11695, "ĠGermans": 16064, "AV": 10116, "ardi": 22490, "ifa": 19215, "urrency": 13382, "bands": 21397, "zza": 34443, "Ġflashback": 41963, "berus": 39192, "ĠWheat": 34744, "Ġhect": 35246, "Ġsevere": 6049, "ĠLeo": 19632, "Ġcheap": 7026, "523": 49803, "Ġconstrued": 30816, "Ġclassmates": 28999, "olve": 6442, "Ġomega": 37615, "476": 35435, "Ġproceeding": 18788, "Ġintrinsically": 48676, "echo": 30328, "Ġnun": 48157, "Ġcigarettes": 17626, "free": 5787, "ĠHimal": 42438, "Ġartery": 37646, "ĠTell": 14026, "thening": 20563, "ĠPredict": 49461, "Ġinterpreting": 35391, "Bur": 22991, "ĠWax": 42656, "kinson": 26030, "Ġpension": 13553, "ĠRail": 12950, "iden": 14029, "Ġneon": 25988, "Ġdecentralized": 26512, "Ġluck": 8458, "ĠOrth": 47664, "Ġconfront": 7239, "Ġadmitting": 22688, "ĠAlliance": 10302, "Ġdos": 23430, "Ë": 135, "Cond": 25559, "HHHH": 41100, "opathic": 44650, "đ": 205, ",.": 38508, "estation": 27364, "Ġbraces": 47241, "ĠWing": 13405, "payers": 45773, "err": 8056, "Ġjaws": 39940, "Ġ1897": 49429, "yden": 43955, "Ġhomosexuality": 19822, "Ġfountain": 29420, "Ġcamoufl": 31962, "Ġaddiction": 13230, "ĠPeaks": 38051, "ĠDickinson": 47485, "Ġpanties": 31571, "Ġfestive": 43856, "ĠUnicorn": 39481, "ĠStay": 16160, "ĠGand": 17727, "pire": 5111, "Ġinquest": 48314, "Ġoccupant": 47742, "Ġimprovement": 9025, "ĠMorse": 44049, "Ġclassroom": 15806, "Ġsizes": 10620, "Starting": 22851, "aya": 11729, "Ġveil": 30615, "Ġale": 31341, "Ġcanon": 18061, "Ġrealized": 6939, "Ġprophecy": 28322, "ĠGardens": 29330, "ĠNvidia": 27699, "Ġleans": 39416, "Ġdebugging": 28769, "Refer": 46238, "ĠNag": 15196, "ĠSetTextColor": 45003, "uka": 14852, "hs": 11994, "Weiss": 48760, "Ġfilters": 16628, "Alert": 36420, "Ġsolic": 25806, "ĠViper": 34517, "erman": 2224, "udos": 42418, "Ġcel": 18725, "Ġorganization": 4009, "ĠDID": 35697, "Ġhatred": 13763, "Ġtongues": 39413, "bon": 4189, "ebra": 37052, "Ġgrenades": 28850, "Ġagreeable": 49534, "Ġice": 4771, "Ġdetectable": 44187, "pill": 27215, "Ġknack": 47868, "ĠConcord": 34732, "ĠMedline": 34582, "auga": 44718, "Ġoffline": 18043, "Ġsubsequent": 8840, "oyal": 4815, "dir": 15908, "Ġmini": 9927, "Ġprotein": 7532, "Ġ\"+": 43825, "ĠCycling": 25550, "Ġstrives": 37873, "Ġcycling": 16259, "ĠSonia": 20733, "ĠTorch": 34868, "Ġabbrevi": 37640, "Phill": 41970, "Ġordeal": 30600, "ĠVancouver": 10930, "Firstly": 49709, "Usage": 28350, "102": 15377, "ĠBard": 25654, "ĠAWS": 30865, "luster": 48375, "becca": 20627, "Ġstunts": 49772, "pired": 6474, "ophers": 20856, "Ġbureau": 10583, "Ġcatching": 16508, "Ġeligible": 8867, "Ġ31": 3261, "Ġgrapes": 36656, "Ġconnecting": 14320, "Ġmashed": 49159, "utf": 40477, "Ġpotentially": 6196, "Äĩ": 38325, "Ġmush": 15026, "ĠMason": 14737, "Ġcontract": 2775, "OURCE": 31033, "Ġtire": 15867, "defined": 23211, "ĠArk": 9128, "ĠPriebus": 37486, "ĠConserv": 7162, "ocobo": 37642, "Ġclash": 19122, "Ġ1915": 32062, "Meet": 29318, "ĠOperator": 35946, "Ġcrib": 48083, "ĠUnderworld": 36198, "Ġreactive": 32242, "ĠFallen": 28693, "Ġ347": 43292, "ĠCT": 16356, "Ġ22": 2534, "gmail": 14816, "ĠJak": 25845, "ĠMT": 19308, "XX": 8051, "1990": 19891, "Ġraw": 8246, "Kn": 25095, "EG": 7156, "ĠLaurent": 39734, "ĠExplan": 50125, "ĠException": 35528, "ASS": 10705, "Slot": 38963, "opa": 26186, "ĠChand": 20631, "akedown": 25817, "ĠPar": 2547, "Ġimpossibility": 50097, "Ġgoogle": 23645, "Ġcasualties": 18499, "Ã§a": 50041, "âĢĵâĢĵ": 25608, "isner": 49861, "ushi": 17731, "Ġshuts": 44854, "Ġdaughter": 4957, "Privacy": 48948, "variable": 45286, "ĠNeighbor": 28708, "ĠRaz": 38058, "ĠErik": 22722, "Ġyearly": 24169, "Ġlarger": 4025, "ĠCut": 9712, "States": 42237, "Ġstroke": 14000, "ĠJew": 3370, "Ġprofiling": 31582, "Ġconscience": 18346, "Ġstranded": 28553, "Ġcelebrities": 21305, "Ġunanimously": 28355, "Ġuniform": 8187, "Ġinstrumental": 21543, "usting": 32620, "Ġpresumably": 14572, "Ġchildbirth": 43886, "ĠHats": 37934, "Ġfamed": 28331, "Correction": 43267, "adj": 41255, "Ġintegral": 19287, "Ġloser": 30256, "Ġartist": 6802, "cised": 37168, "Ġgroundwork": 40641, "ĠKushner": 24743, "Ġdashboard": 30415, "Ġlabeling": 27393, "Ġresistor": 45032, "Ġeither": 2035, "ĠMosque": 42825, "double": 23352, "OSH": 45704, "Ġbutterfly": 35113, "Ġcommunication": 6946, "Ġreconnect": 37671, "Ġmanage": 6687, "Ġwouldn": 3636, "ĠLuke": 11336, "ĠWriting": 22183, "Ġcontradicts": 40081, "ĠTWO": 35288, "Ġgore": 46835, "antry": 21238, "itored": 20026, "Ġpent": 28145, "Ġdivine": 11871, "archy": 9282, "Ġchecked": 10667, "707": 24038, "Ġfought": 8350, "Ġclar": 10212, "Ġunite": 24558, "Ġtoxin": 43026, "ĠHobby": 44327, "Ă": 190, "Ġmodification": 17613, "Ġ1863": 47072, "2019": 23344, "ivo": 23593, "Ġfoolish": 19538, "ĠTrap": 21914, "Ġgrinning": 45702, "Ġrenal": 44375, "Ġexalted": 46683, "Ġconceal": 21363, "ĠScouts": 30456, "ĠMagnetic": 44629, "1963": 45192, "outside": 43435, "Ġ???": 34913, "Ġunleashed": 28136, "ĠCast": 5833, "onz": 13569, "Ġcultivation": 23089, "college": 44107, "Ġembody": 48061, "anco": 47699, "ĠRog": 8041, "Ġens": 3140, "Ġcouldn": 3521, "ĠEPA": 10193, "translation": 41519, "Ġengines": 11874, "Ġmalls": 43890, "Bah": 47514, "ĠMelvin": 48834, "Ġdevelopmental": 23456, "Ġdismiss": 6735, "ĠKiller": 19900, "ĠBowman": 38774, "Ġintrinsic": 28327, "ced": 771, "ĠMontreal": 12871, "ĠPul": 21624, "ĠHumane": 45936, "Ġrecon": 8195, "zynski": 47143, "Ġhiking": 24522, "Ġinsects": 19435, "ĠNick": 8047, "ĠChallenger": 39221, "Ġcapsule": 27855, "Ġrealistically": 39659, "ĠPl": 1345, "Ġthoughtful": 22677, "Ġhobbies": 45578, "Ġcyclists": 23390, "Ġphysicists": 37898, "ĠDiplom": 34905, "å®": 22522, "aganda": 43589, "ĠRao": 48395, "Ġfps": 32977, "ĠSpecific": 17377, "Chain": 35491, "103": 15197, "Ġgearing": 40592, "morrow": 9201, "ĠMovies": 27151, "Console": 47581, "Ġrepresent": 2380, "Ġdistinction": 12941, "ĠOutput": 25235, "ĠJungle": 26411, "ĠCel": 15248, "enaries": 30216, "ĠexternalToEVA": 30212, "ĠImpl": 34347, "Ġuphold": 24963, "Ġmist": 4020, "reshold": 10126, "é¾įå¥ĳå£«": 39821, "Check": 9787, "ĠAssociation": 5396, "Ġeject": 22189, "Shift": 33377, "Ġfinest": 18822, "Ġhighlights": 11330, "ĠVolcano": 48380, "ĠDhabi": 43941, "ray": 2433, "Ġexploited": 21514, "ember": 1491, "342": 31575, "Ġcapac": 18457, "Ġmocking": 31202, "Ġportray": 10993, "hee": 21067, "Ġslur": 40066, "Ġeconomies": 16533, "Ġmot": 2369, "Ġheat": 4894, "illary": 15856, "Analy": 37702, "Ġscreamed": 25421, "Ġtightening": 36040, "agic": 9083, "thought": 28895, "********************************": 17174, "lat": 15460, "ĠWagner": 26451, "beat": 12945, "ling": 1359, "ĠDraw": 15315, "Ġfailures": 15536, "Ġdiagonal": 40039, "Ġseventh": 14024, "ĠTransition": 40658, "Ġoffending": 30810, "594": 46438, "oing": 40519, "vell": 29333, "Mind": 28478, "Ġinvolved": 2950, "Tokens": 22906, "ĠRare": 14423, "Ġnominate": 40376, "Ġshowcasing": 40318, "ĠAthletics": 32646, "ĠPorter": 20890, "Ġautop": 22320, "ĠYin": 37201, "Ġvitri": 48950, "ĠPadres": 40188, "Ġ'/": 31051, "Ġbonding": 37228, "ĠDaniel": 7806, "Lib": 25835, "Ro": 15450, "basketball": 21265, "ĠCLE": 30301, "ics": 873, "Ġ279": 39466, "Skip": 50232, "Ġthought": 1807, "Ġgif": 9381, "ĠSocket": 47068, "ĠBT": 22205, "guns": 44265, "Ġbudgetary": 47560, "ĠCoul": 27854, "ablished": 22555, "Ġhall": 6899, "Ġalongside": 7848, "Ġdisclosure": 13019, "ĠCle": 3779, "phal": 27451, "ĠRocks": 34243, "ĠStars": 10271, "Ġaccuracy": 9922, "Ġcontractors": 17736, "Ġearns": 29339, "jiang": 39598, "New": 3791, "Ġsupporting": 6493, "ĠNSW": 23438, "Ġambush": 34298, "ĠKorra": 38463, "amily": 5993, "ĠTerrit": 18968, "les": 829, "Ġremembering": 24865, "Ġguest": 8319, "October": 18517, "Allen": 39989, "Ġbuyers": 14456, "ĠICC": 32300, "Ġimplied": 17142, "Ġratio": 8064, "Ġsitu": 34074, "036": 48597, "uba": 22013, "nen": 38572, "Ġem": 795, "Ġsoak": 33182, "Ġfate": 10030, "ĠFT": 19446, "Ġpowered": 13232, "ĠRoad": 5567, "Ġpensions": 27581, "Ġlawyers": 9326, "ĠWinged": 40668, "tion": 5378, "anse": 40054, "ĠMSG": 49064, "ĠSaddam": 24277, "erer": 11882, "\"},": 25719, "ĠAlgeria": 36498, "Ġcolor": 3124, "ormon": 10615, "Gs": 33884, "Ġrecordings": 18813, "Ġmarkets": 5939, "Ġcreatures": 8109, "ĠJupiter": 22721, "enser": 45268, "icut": 13554, "ĠTinker": 46316, "side": 1589, "Ġlicenses": 16625, "Ġshores": 29963, "ension": 3004, "Ġbamboo": 37252, "ip": 541, "Ġtr": 491, "amsung": 30136, "Ġheed": 32420, "Ġprobabilities": 39522, "Ġinvoking": 39744, "ĠSTATS": 37889, "Ġwetlands": 49297, "ĠMane": 42736, "poon": 26743, "ĠShine": 41249, "OU": 2606, "Rah": 47135, "ĠRevis": 46146, "tnc": 26642, "OOOO": 23803, "ĠAlbert": 9966, "Narr": 45750, "Ġrecourse": 38424, "Liberal": 46650, "Ġlasting": 15727, "Ġwatch": 2342, "Ġascert": 48818, "Ġeast": 7627, "ĠMah": 8882, "employment": 28812, "ĠRespons": 20549, "Ġcritic": 4014, "priv": 13776, "sighted": 44068, "Ġhostility": 23594, "mer": 647, "ĠCart": 13690, "Ġassassins": 44454, "Ġrelevant": 5981, "ĠunfocusedRange": 30209, "ĠRitual": 35179, "Ġbride": 26619, "Ġarousal": 36894, "ĠLonely": 46501, "ĠBri": 25866, "Ġplagiar": 42054, "Ġcampaign": 1923, "Ġunaware": 17261, "ĠPor": 20139, "Ġview": 1570, "ĠMilitary": 12842, "ĠMerge": 39407, "aclysm": 40605, "Ġstreamed": 35377, "Ġadded": 2087, "cosystem": 12541, "ĠHar": 2113, "Ġtabs": 22524, "377": 26514, "Ġescalate": 38302, "ą": 193, "Ġletter": 3850, "otrop": 34248, "emale": 10144, "Ġfinite": 27454, "verbs": 46211, "Ġconstit": 7892, "ĠPompe": 36103, "assetsadobe": 41383, "Ġlever": 17124, "ĠFellowship": 36293, "Ġconstituted": 27276, "ĠIll": 5821, "Ġupfront": 36562, "PB": 49079, "Ġcommittee": 5583, "ĠSyn": 16065, "atures": 6691, "ĠMotorola": 31351, "Ġstabilize": 32411, "ĠCurse": 19739, "Ġeas": 1396, "Fif": 44403, "Files": 25876, "940": 46899, "Ġstrive": 22076, "Ġ680": 40554, "panel": 35330, "Certain": 26469, "ction": 596, "arre": 9624, "luaj": 36473, "yers": 21200, "Ġpont": 45443, "Ġtube": 12403, "Ġremains": 3793, "ĠUnd": 13794, "ĠRoche": 47765, "wings": 48819, "Ġquadru": 40977, "OME": 13649, "Ġbrainstorm": 48733, "Ġinexper": 31830, "Frank": 17439, "ĠRIGHT": 33621, "quick": 24209, "ĠHipp": 33812, "annabin": 43655, "ogun": 39918, "Ã¼": 9116, "Tyler": 46807, "eren": 14226, "else": 17772, "Ġtorches": 49497, "Ġunamb": 42053, "Ġinhibitor": 41704, "idently": 46046, "GOP": 44962, "Ġparent": 2560, "iop": 14922, "Ġgrants": 11455, "Ġtrousers": 37191, "519": 47785, "Ġattained": 28681, "download": 15002, "isman": 23845, "Ġundersc": 27840, "ĠGeneration": 16588, "sized": 13982, "esi": 46551, "ĠYemen": 12492, "Ġ1927": 36565, "Ġprotecting": 10192, "Ġimmediately": 3393, "Ġtyped": 25683, "Ġnetworking": 19140, "Ġbillionaires": 34740, "Ġfiled": 5717, "etsk": 29515, "Ġrevealed": 4602, "Ġhistory": 2106, "chrome": 46659, "Ġbounds": 22303, "ĠCompare": 27814, "ossal": 33582, "ĠLikewise": 22660, "Ġrestoring": 25646, "ĠFarmer": 37755, "tur": 36590, "Ġaccelerated": 23312, "Bob": 18861, "ankind": 28066, "Ġaux": 27506, "Ġbourgeois": 19749, "ĠKlan": 31151, "ĠSov": 6917, "ĠEmily": 17608, "Ġuns": 5576, "gie": 22699, "mage": 25561, "rypted": 15109, "Ġwiping": 36906, "Ġcurv": 46171, "automatic": 37800, "ĠElizabeth": 10674, "Ġmacros": 34749, "ĠOz": 18024, "ĠRobo": 39702, "Ġconfigure": 17425, "riet": 42098, "Ġundertaking": 25971, "Ġopportunities": 6443, "ok": 482, "ĠGamergate": 37337, "ĠConsortium": 42727, "Ġhang": 8181, "Ġwarships": 44304, "ylene": 37880, "Released": 45037, "Ġnodes": 13760, "Ġcomplicate": 45058, "Ku": 41733, "ual": 723, "Adds": 46245, "ÃĥÃĤÃĥÃĤÃĥÃĤÃĥÃĤÃĥÃĤÃĥÃĤÃĥÃĤÃĥÃĤÃĥÃĤÃĥÃĤÃĥÃĤÃĥÃĤÃĥÃĤÃĥÃĤÃĥÃĤÃĥÃĤÃĥÃĤÃĥÃĤÃĥÃĤÃĥÃĤÃĥÃĤÃĥÃĤÃĥÃĤÃĥÃĤÃĥÃĤÃĥÃĤÃĥÃĤÃĥÃĤÃĥÃĤÃĥÃĤÃĥÃĤÃĥÃĤ": 35496, "food": 19425, "286": 27033, "rompt": 45700, "Ġcreamy": 27892, "Ġneat": 15049, "lections": 26448, "arrass": 9187, "ĠMisc": 29882, "Ġtrumpet": 40334, "Ġpooled": 44762, "ĠPulitzer": 44127, "legraph": 16606, "iated": 12931, "Ġdeserved": 20143, "ĠUW": 33436, "Ġstrongh": 26733, "Ġcapacitor": 43212, "ĠShirley": 40902, "ĠIntelligence": 9345, "Ġfav": 2090, "ha": 3099, "ĠJames": 3700, "550": 22730, "ceptive": 25867, "'m": 1101, "lip": 40712, "ĠShares": 23997, ":'": 32105, "ĠVoters": 35689, "Ġpilgrims": 42408, "644": 29173, "Ġcontemplate": 39248, "back": 1891, "Ġindicated": 8203, "footed": 43127, "ĠAutism": 39875, "xs": 34223, "ĠNietzsche": 40258, "Ġrighteousness": 33738, "Array": 19182, "ĠBounty": 38166, "aware": 9685, "ĠPu": 11634, "Ġslaughtered": 33850, "commit": 41509, "Ġpetroleum": 30918, "OTT": 29089, "Campaign": 46102, "Ġschools": 4266, "Ġawaiting": 21859, "Ġminers": 18295, "ĠClause": 28081, "Ġpits": 29699, "ĠAo": 27378, "Ġvigilant": 30257, "Ġmasculinity": 32690, "Star": 8248, "letter": 9291, "Ġinitialization": 37588, "dale": 14597, "ĠNative": 12547, "Ale": 37474, "auntlet": 32633, "ĠCroatian": 48853, "Ġresolves": 38709, "Ġ1956": 25190, "Ġpossibility": 5885, "adish": 48563, "ĠDinner": 34584, "Ġfelony": 14544, "avage": 33757, "ĠNDP": 20392, "Ġstriving": 34260, "adden": 38014, "dam": 11043, "ĠCarlos": 17409, "ight": 432, "Ġfruit": 8234, "ustain": 19542, "ĠDecoder": 34580, "Ther": 35048, "Ġcombined": 5929, "ĠPascal": 35163, "ĠFISA": 44073, "Your": 7120, "ãĥī": 13765, "Tang": 43909, "ĠHope": 13408, "Ġwarriors": 17119, "olo": 14057, "Ġh": 289, "Ġquar": 36343, "ĠCOUNTY": 41012, "azine": 4994, "Ġliking": 24976, "Ġcompet": 2307, "Ġ104": 14436, "Ġkind": 1611, "Ġdismant": 27038, "Ġflesh": 11222, "Ġfatal": 10800, "atra": 26066, "Ġcoll": 2927, "ĠKlux": 45092, "Ġattractiveness": 43325, "Paris": 40313, "Ġpredictable": 20039, "Ġcarriage": 25739, "Ġbenchmark": 18335, "ĠKuh": 46035, "uton": 32894, "Ġdinner": 8073, "Ġsecurities": 16145, "Ġquestionnaire": 28301, "ĠInnocent": 44778, "ĠEssence": 36152, "ĠMuk": 31509, "Ġcrocod": 37565, "ĠSonny": 46227, "oun": 977, "Ġcamping": 22498, "ĠPoor": 23676, "Ġdeprive": 41613, "ĠElect": 5903, "Ġpower": 1176, "made": 9727, "prototype": 38124, "Ġgiveaways": 50020, "Ġbury": 30033, "ĠSatisf": 48168, "Ġdiagnose": 37489, "Ġcaptive": 25798, "ĠApostles": 43331, "Ġsocieties": 14515, "Ġindefinite": 35639, "Ġshit": 7510, "Ġsurf": 9053, "Ġranging": 12897, "ini": 5362, "ä": 160, "Ġimm": 2296, "opher": 8803, "Ġpersona": 27822, "Yu": 40728, "Ġlightweight": 18700, "Ġbrightest": 33871, "Ġcolonies": 20848, "ville": 4244, "adi": 9189, "ld": 335, "stre": 22853, "Ġhandwriting": 44396, "Ġinsisting": 23630, "Ġlac": 31123, "ĠTCU": 44914, "ĠBeyon": 37361, "Ġpsychology": 15119, "rich": 7527, "Ġroof": 9753, "Ġineffective": 23693, "ghazi": 21775, "okane": 41776, "etry": 11973, "olk": 13597, "Ġembassy": 18613, "Ġsv": 38487, "Ġauthorised": 39019, "casting": 19913, "Ġlava": 28856, "ĠCollector": 17573, "Ġphysic": 22270, "intend": 7315, "Ġdispleasure": 47313, "ĠQiao": 45724, "Ġadmirable": 37959, "ĠHarvey": 14943, "ĠJavaScript": 11933, "Lago": 48694, "ĠOscar": 15694, "ĠDeb": 8965, "Ġunex": 8522, "ĠApostle": 29748, "Ġspreading": 14342, "answered": 31966, "zinski": 46394, "Ġquantify": 36336, "Ġblocker": 38731, "ileged": 48446, "ĠLiberty": 14734, "Ġpharmacies": 49661, "Ġcontended": 42397, "atus": 7240, "ĠDOM": 24121, "lder": 6499, "character": 22769, "ĠD": 360, "Ġmost": 749, "ĠMuhammad": 15870, "Ġfoc": 2133, "ANG": 15567, "ominium": 46134, "Ġsomewhat": 6454, "condition": 31448, "Rec": 6690, "Ġartillery": 20381, "Ġextraord": 9946, "Ġmisinformation": 32805, "Ġrecovery": 7628, "terness": 34697, "Ġcowardly": 47687, "ĠUSS": 23116, "ĠPvP": 25576, "Ġchaired": 44170, "Ġmice": 10693, "Ġcafes": 46221, "Ġovercrowd": 38080, "born": 6286, "Ġimagin": 25007, "attacks": 38458, "ĠChall": 10772, "iatric": 11439, "ĠBars": 39924, "ritz": 29574, "Living": 36376, "Ġwelcomes": 35481, "ĠRebecca": 23489, "ĠIon": 36404, "Second": 12211, "ĠNorthern": 8342, "ĠCrimes": 32655, "Ġpuzzled": 36907, "Ġboot": 6297, "Ġslog": 25801, "Ġimpact": 2928, "Ġbool": 20512, "Ġsnowball": 46275, "boat": 24482, "citizens": 46801, "ĠâĢĶ": 851, "ĠQuint": 33405, "ĠStartup": 40472, "Ġforeskin": 49877, "ĠDepression": 22483, "Ġbuffs": 34636, "urger": 32650, "Ġflagship": 21336, "Ġreversible": 48287, "Ġstirring": 26547, "Ġillustrating": 44000, "massive": 49777, "apa": 32678, ").": 737, "Ġrab": 27998, "Ġdh": 34590, "Ġdetailed": 6496, "rahim": 26922, "ĠNigel": 28772, "ĠAcademic": 31421, "aund": 14677, "ĠTopic": 47373, "Ġcause": 2728, "Ag": 10262, "ĠMcD": 23394, "Armor": 31512, "Ġsurrounds": 36550, "ribed": 8725, "YC": 44816, "Ġsizable": 34282, "Comm": 6935, "Ġgarnered": 29588, "Ġinsure": 38976, "ness": 1108, "ĠChill": 38290, "Ġdisciples": 23351, "lett": 15503, "Ġfrown": 22002, "Oper": 18843, "ĠPenet": 46975, "mic": 9383, "ETF": 22274, "Ġrenowned": 22140, "ĠNorman": 19636, "weights": 43775, "Ġ1945": 15761, "cup": 25244, "ibia": 41145, "Ġweld": 26650, "ĠSchneider": 26039, "âĺħ": 15583, "rely": 38015, "ĠMÃ¼": 40790, "Ġfirearms": 12594, "Ġprocesses": 7767, "Ġleverage": 16094, "eco": 47704, "604": 31916, "ĠHatt": 48509, "ĠPAN": 40468, "resp": 4363, "Ġvirt": 4118, "cius": 28599, "ires": 2387, "Ġwat": 4383, "ernels": 44930, "Ġnonsensical": 49569, "Ġbrim": 49943, "leasing": 48764, "Ġramps": 42097, "ĠSunday": 3502, "Ġsidewalk": 24058, "ounded": 6302, "arton": 41328, "byss": 15040, "unk": 2954, "ĠAurora": 22218, "lda": 18986, "ĠDestroy": 19448, "ãĤ¨ãĥ«": 46948, "Soviet": 40408, "ĠMcCoy": 28901, "Ġhuge": 3236, "Ġtransf": 13501, "Ġmarks": 8849, "istant": 10167, "Ġdishonest": 30549, "ĠKen": 7148, "Ġhaven": 4398, "borough": 17913, "Ġwritten": 3194, "08": 2919, "ĠSomeone": 17877, "Ġassail": 29886, "Ġdart": 35970, "ampire": 13577, "patch": 17147, "ĠJose": 5264, "Ġext": 1070, "Ġparadigm": 23457, "Ġimplication": 26863, "Ġundesirable": 38117, "pattern": 33279, "Ġpigment": 43385, "Ġdimension": 15793, "ĠAim": 36223, "Earth": 22840, "ĠLuis": 20894, "root": 15763, "ĠBakr": 47121, "Ġjoked": 27582, ".'\"": 11496, "Ġdefect": 11855, "BW": 48802, "ĠScale": 21589, "lu": 2290, "Ġblacklist": 38810, "ĠWHERE": 33411, "ðĿ": 47728, "hack": 31153, "taining": 7339, "Ġdeterior": 17975, "mal": 7617, "Ġlinger": 31402, "Ġconclud": 5392, "ĠWarriors": 12090, "Ġultras": 32866, "embed": 20521, "rg": 41345, "Ġdoor": 3420, "Ġsettled": 10282, "ĠBerserker": 43971, "Ġ($": 7198, "Ġoh": 11752, "facebook": 19024, "ĠFell": 21710, "Ġtariff": 36427, "Patch": 33952, "resist": 35119, "igon": 37107, "Ġcannabis": 9499, "Ġmedi": 16957, "Ġchemically": 49966, "Ġmoth": 44400, "rine": 7640, "route": 38629, "ĠBelgium": 15664, "Father": 34823, "ãĤ¶": 48458, "cheon": 40556, "ĠSurgery": 39037, "562": 43918, "Decre": 43198, "ãĥ£": 23131, "Ġcohorts": 40182, "Ġantagonists": 50178, "ĠEach": 5501, "Ġpace": 8761, "ĠRobinson": 12652, "Ġremorse": 34081, "ĠBerg": 24626, "Builder": 32875, "Ġenlarge": 27475, "Ġmeditation": 16901, "ĠLady": 11182, "ĠVij": 49219, "ĠExt": 5683, "Ġboxed": 46069, "Ġgoat": 26917, "Ġownership": 9238, "Ġcheat": 22705, "ĠManager": 9142, "Ġtreasury": 38115, "Tab": 33349, "Ġdiscovering": 21611, "ĠOpera": 26049, "Ġinhibit": 26776, "ĠTub": 42850, "Ġculp": 21286, "Ġpolicy": 2450, "Ġassist": 3342, "Ġstopping": 12225, "ĠLives": 18965, "icing": 6345, "rill": 20190, "Ġrepent": 28787, "Ġpolicymakers": 29484, "Ġrelatives": 12772, "Ġwr": 1319, "NK": 46888, "Ġclassics": 29039, "ĠCET": 46632, "reset": 42503, "{\"": 4895, "ĠIndustry": 17420, "jobs": 43863, "thren": 25941, "Ġrapes": 37459, "Ġcrept": 47092, "adelphia": 8273, "ĠDawkins": 38922, "Start": 10434, "olithic": 30764, "ĠAND": 5357, "ĠCutler": 37194, "Ġcreat": 1827, "Ġundefeated": 41445, "tml": 20369, "Cont": 4264, "ĠBrenda": 49495, "Ġalk": 32915, "Ġslab": 38677, "Ġpenalties": 12970, "ĠLeave": 17446, "Ġtempted": 26194, "ĠAges": 21449, "ĠVict": 6114, ".\",": 33283, "Ġwrote": 2630, "ĠSpur": 47788, "ĠRGB": 25228, "Ph": 2725, "nin": 35073, "Ġbrewed": 40163, "Ġpriority": 8475, "breaking": 13395, "imposed": 36457, "ĠWolverine": 34307, "Ġdefending": 11749, "Ġworry": 5490, "Legendary": 24524, "ĠBul": 8510, "Ġconfidential": 15279, "ĠDemon": 7814, "Ġcleaned": 20750, "held": 10217, "Ġcalf": 31134, "Ġbarley": 38877, "ĠIncre": 10791, "auri": 35190, "Ġstructural": 13204, "METHOD": 49273, "ĠMetatron": 38894, "ĠOrion": 26153, "Ġlease": 15278, "tainment": 10738, "Ġsinger": 14015, "ĠFoods": 23201, "Ġsailors": 29996, "Usually": 37887, "Ġmammoth": 44268, "ĠRacial": 42318, "Ġemission": 25592, "Ġsher": 15059, "rand": 25192, "Ġperme": 29298, "Â¯Â¯": 5367, "Ġuser": 2836, "Tok": 19042, "ĠImages": 5382, "ĠBowen": 46977, "Ġshown": 3402, "ĠRiverside": 35597, "ĠBain": 33126, "Ġexponent": 28622, "ĠScope": 41063, "Ġouter": 12076, "Ġunlock": 12116, "apolog": 46407, "etta": 15253, "ĠBarclays": 37985, "Ġforgive": 20927, "Ġ2000": 4751, "Ġspree": 37386, "act": 529, "ĠAry": 39477, "faces": 32186, "Pad": 26114, "Ġgifts": 13201, "Susan": 45842, "Ġpixel": 17465, "ĠShirt": 45180, "ĠUng": 44904, "Ġinvincible": 46038, "Ġchopping": 45274, "inen": 42326, "Ġquieter": 43880, "Ġunderscores": 41731, "Redditor": 34832, "ĠZin": 36971, "ular": 934, "Ġresidue": 35186, "bird": 16944, "Originally": 22731, "Ġresistant": 18290, "Senior": 31224, "Ġactually": 1682, "ĠWy": 12958, "Ġdenied": 6699, "Ġsouthwestern": 46065, "Ġshuff": 32299, "Ġ2050": 32215, "Ġexamining": 17247, "brid": 10236, "ules": 5028, "ĠNeeds": 36557, "Eva": 44239, "irteen": 22530, "Ġ1960": 9507, "Ġelect": 1742, "Ġvacant": 23957, "ĠPosted": 12918, "Abstract": 23839, "ĠRising": 17658, "ĠAntar": 20290, "ĠNewfoundland": 43867, "Stan": 32140, "Ġ425": 36959, "asting": 9222, "ĠBren": 20465, "dy": 9892, "ĠHarley": 27440, "Credits": 42855, "Ġstain": 18746, "Ġhumane": 31533, "claw": 43143, "Danny": 45478, "Ġgloves": 18051, "Ġpara": 31215, "Ġkidnap": 49679, "ĠBreed": 45958, "amo": 18811, "ĠPikachu": 38755, "ĠLOOK": 48045, "Ġdrills": 26721, "png": 11134, "Ġpersist": 21160, "Ġconfronted": 16675, "Ġglory": 13476, "ĠCube": 23315, "Ġhotter": 37546, "icket": 9715, "Ġconsolidation": 31941, "Ġindict": 16056, "Ġtcp": 48265, "âĤ¬": 26391, "opter": 32563, "Eastern": 46109, "ĠStanford": 13863, "Ã´": 27083, "ĠJere": 10272, "peace": 22988, "ede": 18654, "Ġ__": 11593, "RAM": 24115, "Ġauthor": 1772, "Ġobe": 45653, "Ġencourage": 7898, "izz": 6457, "Ġinvolves": 9018, "1970": 30986, "conv": 42946, "ruciating": 48404, "ĠHull": 28238, "Ġdefenseman": 32246, "KEN": 43959, "Ġox": 12018, "Ġenvironmental": 6142, "Don": 3987, "Ġlux": 10632, "ĠBeer": 16971, "ther": 490, "Ġflagged": 34060, "RAG": 33202, "Ġobstacles": 17648, "Ġdiscriminatory": 27200, "STD": 32147, "India": 21569, "Ø¨": 39848, "Bind": 36180, "iterranean": 19012, "Ġadequ": 9939, "REL": 16448, "ĠEnterprises": 41253, "Ġty": 1259, "Ġcoer": 31255, "Ġflap": 37699, "457": 33032, "Ġleast": 1551, "Ġshortly": 8972, "ĠReturn": 8229, "Ġbeliefs": 9056, "cific": 7790, "Ġdense": 15715, "Ġexce": 43748, "Ġgate": 8946, "Ġoutings": 47280, "Ġliteracy": 31231, "Ġundeniable": 36332, "Äģ": 10235, "ĠFish": 13388, "ĠCrab": 32379, "abal": 44349, "Ġratified": 39067, "Parser": 46677, "Ġapple": 17180, "ĠGateway": 29916, "Christ": 10684, "Ġ1950": 11445, "Ġ640": 33759, "Ġaccounts": 5504, "ossibility": 43691, "Ġjoined": 5399, "Ġsearched": 16499, "ĠLevine": 38294, "Ġjammed": 45479, "ient": 1153, "ĠProtocol": 20497, "Ġderail": 33749, "Ġstairs": 16046, "ĠHandle": 33141, "Ġstated": 5081, "ĠMud": 32878, "Ġanimations": 22407, "ĠCalendar": 26506, "Ġarts": 10848, "ifully": 17049, "Ġcaptured": 7907, "gettable": 42182, "ĠQi": 21924, "Ġconce": 8571, "å°Ĩ": 49546, "Upload": 41592, "ĠTimothy": 22283, "ĠCaleb": 40777, "Ġtam": 21885, "Wik": 33010, "Options": 29046, "Ġundrafted": 44178, "ouble": 15270, "Lic": 26656, "onom": 6326, "Ġsubsistence": 48042, "HK": 38730, "Ġsue": 20889, "ĠKare": 49396, "endant": 23048, "157": 18458, "rifice": 31932, "Ġrequirements": 5359, "Ġlegislator": 44840, "Ġstrongest": 12841, "Ġlockdown": 47955, "imil": 26641, "Ġintraven": 45840, "ĠHair": 23102, "Ġcap": 1451, "Ġeditor": 5464, "Impl": 29710, "Pakistan": 38485, "ĠCourt": 3078, "Ġoppressed": 25765, "ĠHayward": 41960, "yre": 35759, "Ġshots": 6934, "Ġcreation": 6282, "Three": 12510, "loader": 29356, "--------------------": 19351, "ĠSword": 11535, "Ġskeleton": 18328, "straight": 42729, "window": 17497, "ĠFold": 39957, "ĠPE": 18468, "omorph": 25831, "Ġcomplaint": 8224, "OUNT": 28270, "ĠGirls": 12002, "ATIVE": 37045, "ĠConnection": 26923, "Ġblood": 2910, "8000": 33942, "á¸": 41585, "Ġroute": 6339, "Ġescaping": 25071, "Ġbands": 11760, "Ġbombs": 12134, "rises": 26064, "urers": 17496, "alli": 36546, "omers": 21499, "Ġingred": 7677, "ĠOblivion": 34181, "Ġsuicide": 7341, "Ġscam": 19126, "Ġdoping": 42631, "ĠChad": 19800, "Ġrash": 28509, "Ġcumbersome": 44491, "Ġscreen": 3159, "Ġdefin": 2730, "Ġprag": 23864, "ĠNatural": 12068, "Ġrecollection": 41285, "Ġconspiracy": 10086, "Ġoverse": 9125, "Ġexposing": 21294, "Ġplunder": 42996, "ĠCrime": 10003, "Traditional": 48485, "Ġboarded": 35032, "Ġexploration": 13936, "Ġaccompany": 13873, "Ġ?": 5633, "Ġsten": 45219, "vere": 4119, "Ġrusty": 47855, "Ġprocession": 37968, "ighton": 42993, "ĠWaters": 21827, "ĠKob": 23403, "ĠAm": 1703, "Ġturned": 2900, "Ġopponents": 7691, "ĠPW": 44141, "ĠFoundation": 5693, "Ġsignature": 9877, "ĠMb": 40001, "Ġwarranties": 50174, "gradient": 49607, "ONG": 18494, "poll": 30393, "ĠAuburn": 24579, "Ġjargon": 46468, "Ec": 49136, "Ġcourses": 10902, "TOR": 32961, "ĠShawn": 25225, "Ġinternational": 3230, "Policy": 36727, "lime": 27299, "Ġsurname": 40358, "Ġexcuses": 25893, "Ġ373": 47946, "mediately": 23802, "ĠDunham": 44588, "Ġul": 14856, "Ġseeks": 12932, "ĠMoor": 31451, "Ġperiphery": 46628, "Ġinvasive": 27376, "emouth": 46880, "Ġage": 2479, "Ġgift": 6979, "ulner": 5697, "ĠConditions": 27617, "Ġfacilitating": 36045, "Used": 38052, "ĠSatoshi": 40824, "Ġsequencing": 32841, "ĠEck": 45232, "Ġtestified": 15463, "ouched": 30075, "649": 33300, "Ġpeanuts": 45612, "Ġcortisol": 41547, "umblr": 15566, "ĠPlatform": 19193, "ĠNatalie": 35571, "higher": 46503, "Ġoccasionally": 10491, "ĠStre": 9737, "Ġbriefed": 32664, "ien": 2013, "Ġpremise": 18659, "Out": 7975, "INS": 20913, "Ġdividing": 27241, "Ġker": 41927, "312": 27970, "ĠFran": 12323, "Ġschizophrenia": 22794, "ĠMostly": 33495, "iana": 7484, "ĠWhites": 29290, "emade": 21398, "Edited": 45882, "ĠSPEC": 28196, "ĠStarfleet": 43583, "ifty": 24905, "Ġicon": 7196, "este": 29872, "aido": 44354, "Ġdevelopments": 13312, "Pinterest": 35767, "ĠHELL": 47899, "ĠThib": 49486, "ĠTRI": 37679, "ĠFlask": 46947, "Ġivory": 32630, "occupied": 28756, "Ġ200": 939, "612": 43610, "ĠSerie": 41530, "ĠBP": 20997, "ĠPsycho": 38955, "Ġtax": 1687, "here": 1456, "Ġfirepower": 36661, "Ġ1951": 27937, "ĠPortuguese": 21813, "tab": 8658, "Ġscreened": 32862, "lambda": 50033, "erial": 48499, "ĠLaurie": 40811, "Ġdeparted": 24057, "Ġ47": 6298, "ĠBout": 40808, "Ġreconc": 19331, "Ġpolitician": 14971, "Ġunsu": 48092, "Ġtheoret": 12376, "Ġunmarried": 39183, "ĠSSL": 25952, "ted": 1513, "Ġscream": 8196, "ĠCurrent": 9236, "Mar": 7676, "Ġ14": 1478, "ĠMusical": 33375, "ELD": 24639, "Ġinitial": 4238, "renches": 33650, "ĠApost": 19295, "Ġgrievance": 47645, "Ġcompose": 36664, "------": 23031, "acting": 27362, "ĠSTOR": 46366, "cor": 10215, "SW": 17887, "mination": 17928, "ONDON": 47383, "352": 33394, "itchie": 48423, "del": 12381, "ĠConst": 4757, "arity": 6806, "Ġsoothing": 40836, "Ġgelatin": 49084, "Ġsusp": 4012, "Ġoffence": 14148, "ĠUpdates": 28090, "ĠCatholic": 7835, "ĠGalaxy": 9252, "ĠBrig": 16917, "ĠPersons": 32884, "((": 19510, "Ġlabelled": 30538, "ĠVortex": 49790, "ĠAssassin": 21401, "Ġprowess": 30721, "ĠWet": 32930, "ĠRaven": 12552, "cd": 10210, "Ġtherapists": 39395, "odus": 21878, "neck": 27235, "interpret": 27381, "ict": 713, "Ġsporadic": 48172, "Ġinstructional": 48211, "uk": 2724, "ĠOrbit": 38161, "Ġpa": 14187, "ATES": 29462, "ĠMan": 1869, "ĠJanet": 28111, "Ġincredible": 8082, "Ġperverse": 43060, "Morgan": 47184, "Ġ2017": 2177, "budget": 37315, "Ġsushi": 36324, "ĠRaphael": 37464, "ĠObjective": 37092, "egu": 15703, "Ġoverlay": 33345, "Network": 26245, "pour": 48681, "Ġoverhe": 34789, "ĠGT": 7963, "ologically": 13437, "Iss": 27738, "one": 505, "Ġmix": 5022, "Ġenthusiastic": 21848, "Ġfavoring": 43567, "acity": 4355, "iel": 8207, "Ġeverlasting": 45697, "lamm": 11199, "Ġtoilets": 32711, "ĠChim": 28466, "Ġcamer": 3676, "paper": 20189, "Research": 25104, "Ġax": 7877, "ylan": 18554, "LEASE": 22781, "ĠEvan": 21523, "Ġscorn": 40987, "raits": 27554, "Ġ65": 6135, "ĠFern": 38982, "California": 25284, "ĠAuckland": 30422, "Ġ----------------------------------------------------------------": 16529, "ribe": 4892, "Ġexchange": 5163, "lins": 21602, "Ġweights": 19590, "ombat": 41628, "umi": 12994, "Ġdebacle": 40943, "ĠEnvironment": 9344, "pool": 7742, "ĠEvaluation": 34959, "auntlets": 39695, "Ġred": 2266, "Ġexports": 15319, "Ġplumbing": 40199, "ĠDropbox": 38930, "ammad": 26035, "ston": 3743, "Ġolder": 4697, "gui": 48317, "Ġplaythrough": 48938, "055": 47838, "Ġ----------------": 34400, "label": 18242, "ams": 4105, "Ġmaximum": 5415, "ĠLetters": 24501, "Kings": 42912, "Ġobserv": 3799, "Publisher": 46471, "ĠPowerful": 46308, "Ġformerly": 15734, "Ġorganized": 8389, "Ġ257": 36100, "Ġfried": 23018, "Ġfulfil": 32363, "ĠSacrifice": 42036, "ĠDude": 40628, "ospel": 13994, "Ġ1893": 48889, "Ġcompelled": 20232, "471": 38339, "ĠThousand": 39255, "ĠBMC": 40714, "ĠSAM": 28844, "ĠDynamo": 41542, "ist": 396, "Ġavid": 32450, "Beginning": 45198, "Ġlion": 18744, "Ġgasoline": 21408, "Either": 32478, "lli": 15516, "ecycle": 47510, "Ġdevices": 4410, "ĠAR": 5923, "Ġacupuncture": 48647, "buquerque": 36461, "ĠParkinson": 31618, "ventures": 10065, "Ġeventually": 4191, "Ġlying": 9105, "Ġpersuasion": 41784, "ĠResidential": 46388, "Ġtrajectory": 22942, "Ġeastern": 10183, "Ġsou": 24049, "Ġfabrics": 39533, "oths": 27118, "ĠStadium": 10499, "Room": 41178, "Ġexcerpts": 39146, "Ġchallengers": 49112, "Ġrule": 3896, "ĠHispanic": 16949, "Ġcrit": 1955, "format": 18982, "Ġsubsystem": 39335, "ĠAnalog": 50088, "pping": 2105, "Ð¼": 43108, "Ġ512": 22243, "Ġ().": 27972, "oreAnd": 40219, "ĠGeneral": 3611, "Ġinstalls": 42027, "Ġpreced": 8555, "headed": 15353, "Ġacclaim": 21684, "Ġreservoirs": 46637, "makes": 49123, "Ġexcellent": 6275, "ĠBuddha": 19154, "Ġhorrendous": 42613, "Ġbitter": 12922, "ĠSnyder": 22543, "mill": 17805, "rollment": 48108, "Ġisolated": 11557, "Ġsnippet": 39442, "ĠProper": 45989, "Ġcarve": 36717, "ĠBeginning": 25976, "Ġfunky": 42958, "Ġorthodox": 28299, "ĠAreas": 38662, "eger": 11893, "allo": 49457, "ĠCelest": 47245, "etary": 8527, "Ġdwar": 15594, "mag": 19726, "ĠBulls": 18075, "Ġpropositions": 40743, "ĠPhone": 14484, "Ġdefined": 5447, "ĠHos": 30789, "Ġchallenging": 9389, "ĠStockholm": 29679, "Ġstrut": 30577, "ĠPolly": 36898, "en": 268, "Ġdisplayed": 9066, "ĠCaptain": 8599, "Ġsong": 3496, "Ġprivate": 2839, "employ": 7033, "Ġpulse": 19445, "padding": 39231, "ĠAbbas": 28354, "ĠNoir": 36961, "uchin": 43416, "entin": 31371, "ĠNin": 10516, "Ġfinanced": 29768, "cha": 11693, "Ġbureaucr": 13515, "icular": 13174, "Ġaperture": 32729, "ising": 1710, "ĠJS": 26755, "Jewish": 28240, "ft": 701, "Ġsculpture": 26924, "Ġprices": 4536, "Ġnerds": 47088, "Ġsilly": 14397, "Bed": 45896, "amples": 12629, "serial": 46911, "utters": 46973, "ĠHidden": 20458, "ĠBirth": 17647, "ĠTop": 5849, "++++": 14030, "Ġimpl": 4114, "ĠMew": 36010, "Ġoversees": 31806, "ĠHob": 17073, "ĠCunningham": 34325, "Ġchambers": 23204, "ĠGroups": 27441, "ribes": 22090, "ax": 897, "ĠResist": 36136, "acter": 7321, "Please": 5492, "Ġadventurer": 40994, "EB": 30195, "Ġambiguous": 27102, "Ġreproduction": 20728, "ĠCoca": 29803, "Ġresearcher": 13453, "apeshifter": 29554, "Ġgranddaughter": 46458, "venant": 15330, "Ġdisrespectful": 41987, "ĠFerr": 19130, "marks": 14306, "602": 31418, "Ġgenerates": 18616, "eries": 10640, "ĠSecondary": 29521, "Ġ)": 1267, "adies": 50192, "Ġmatte": 36908, "Ġtribes": 15663, "plot": 29487, "ĠBite": 44540, "ĠWikileaks": 35828, "videos": 32861, "thel": 37274, "Ġresin": 36536, "sports": 32945, "char": 10641, "ĠLeigh": 37907, "Ġeh": 32622, "Ġcomm": 725, "hw": 36599, "ĠTreasurer": 45399, "Ġpledge": 13995, "Ġbeacon": 34538, "491": 41289, "ĠBra": 9718, "ĠBeck": 11739, "Ġpainter": 34537, "ĠAssociated": 10575, "Republican": 25777, "Ġinspirational": 40840, "come": 2958, "iety": 1905, "Ġarrives": 14443, "ggies": 33049, "Plan": 20854, "UK": 15039, "ference": 4288, "Ġdeities": 43844, "Ġrefers": 10229, "ĠNeph": 38103, "Amazing": 42770, "fare": 9496, "said": 30079, "ship": 6720, "ĠFashion": 30958, "Ġcareers": 16179, "Bit": 13128, "versely": 21243, "Ġinc": 753, "Ġregist": 4214, "uments": 2886, "Ġcrabs": 49172, "ĠAgent": 15906, "Ġresolve": 10568, "Ġdens": 29509, "ĠPlaying": 23911, "sche": 15952, "ĠAven": 15053, "ĠASP": 34658, "Ġstages": 9539, "Ġ2400": 48548, "package": 26495, "ĠWise": 28908, "erala": 33314, "Ġfluoride": 40311, "iri": 14783, "Ġsingles": 25287, "venient": 48109, "pic": 16564, "MH": 36208, "ĠBust": 36988, "FR": 10913, "ilus": 35815, "Ġenergy": 2568, "Ġgluc": 14182, "ĠHead": 7123, "ĠVec": 38692, "Nap": 49799, "ty": 774, "onson": 36742, "Ġaccus": 10458, "Ġsoluble": 49467, "ĠBaal": 39648, "Ġcalorie": 28740, "ĠBroadcasting": 32250, "eers": 47619, "Ġwithdrawals": 43939, "Ġmarketplace": 17432, "ĠRw": 31641, "ĠUps": 35949, "olith": 21446, "rr": 21062, "UNCH": 47461, "YING": 45761, "ĠCultural": 23897, "ĠNich": 12760, "Value": 11395, "\").": 11074, "Ġshun": 32814, "Ġmotiv": 6556, "Ġ1600": 26143, "Ġvir": 5709, "ĠBlocks": 35111, "flame": 49621, "Ġfrustrated": 14718, "Ġunse": 38478, "Ġdocumentaries": 43014, "ĠDave": 9935, "ĠVs": 31280, "ĠSigma": 31669, "Ġenvis": 45633, "Ġfascination": 35556, "Ġdivisions": 17397, "Goal": 49045, "Ġgateway": 24308, "ĠMadrid": 14708, "ĠCarth": 49268, "reddits": 36581, "Ġprejud": 14696, "Ġwrongdoing": 25013, "ĠCraigslist": 46001, "ĠHero": 8757, "Ġplotting": 29353, "ĠPsychiat": 26357, "Questions": 35741, "ĠSanctuary": 27036, "lif": 36195, "ĠNorse": 38419, "Ġrelease": 2650, "Ġsob": 27355, "Microsoft": 15905, "ĠRams": 16077, "Ġlengthy": 16452, "ements": 3196, "Ġchuckled": 39889, "Ġ401": 22219, "Ġfracking": 25441, "Ġ550": 25240, "ĠDisplay": 16531, "uel": 2731, "earch": 3679, "Ġutilities": 20081, "().": 22446, "Ġstuffed": 22259, "Ġnarrowing": 46426, "ĠBundle": 25282, "20439": 47936, "aila": 39460, "¹": 117, "Ġruled": 8879, "ec": 721, "Ġworld": 995, "Ġresist": 4180, "Ġ388": 43550, "ITT": 22470, "Ġresume": 15294, "onna": 6415, "estead": 37897, "Ġdem": 1357, "template": 28243, "Ġconcede": 33760, "Ġclut": 32170, "ĠEnable": 27882, "Ġofficial": 1743, "ĠHispanics": 30714, "illo": 16111, "ĠMerch": 34414, "Ġamplified": 37479, "ĠMayor": 10106, "ĠRamirez": 34783, "Ġthinner": 30125, "ĠDame": 20377, "Ġconnectivity": 19843, "Ġhung": 9174, "Minnesota": 45670, "ĠApp": 2034, "Ġpose": 12705, "Ġdoll": 3654, "Ġvisceral": 38259, "ĠElectro": 38781, "Ġcharms": 41700, "OH": 12096, "Ġtoxic": 11422, "Ġdissatisfaction": 41393, "Ġmas": 12422, "ĠBattle": 5838, "Ġinsight": 11281, "ĠRT": 11923, "ĠPenalty": 41676, "Ġmanifestation": 30566, "ributes": 7657, "Ġdesigns": 9824, "Ġachie": 3302, "Ġkidn": 12668, "ĠPERSON": 46740, "angle": 9248, "Ġinventive": 47602, "Ġboarding": 25523, "ĠThunderbolt": 39887, "anchez": 20364, "Ġhelps": 5419, "ĠMurder": 23375, "project": 16302, "ĠSmoking": 39801, "Ġdeb": 1915, "Ġoccurrences": 40279, "Ã©t": 25125, "ographical": 17046, "ĠShiny": 39657, "Ġeighteen": 29095, "âĢ¦": 1399, "792": 48156, "Their": 14574, "048": 47202, "Ġminimize": 17775, "Ġtrendy": 44493, "ĠDraft": 13650, "hip": 1056, "ulf": 4754, "Ġcortical": 35001, "Ġenvoy": 39137, "ĠAthlet": 18093, "ĠSag": 25605, "Ġ1280": 37674, "Launch": 38296, "Ġrocking": 38059, "Ġranged": 17929, "pain": 35436, "Ġreports": 3136, "Ġstealing": 16568, "Ġgroup": 1448, "Ġanecdotes": 44662, "Tesla": 41351, "Ġthence": 41952, "ĠOops": 48002, "ĠKickstarter": 14437, "Ġintestinal": 32031, "ram": 859, "ĠConsult": 21651, "Ġ)))": 47282, "ĠRugby": 26244, "ĠEmperor": 10851, "allowed": 40845, "Ġgone": 3750, "Ġanalogous": 34657, "Ġshootings": 17690, "558": 40486, "Ġworlds": 11621, "Ut": 18274, "Ġstarring": 20495, "Ġendeavors": 40273, "ĠHirosh": 35763, "ogh": 46664, "ĠProtesters": 46574, "Ġadvocacy": 15364, "ĠBetty": 29504, "Ġleasing": 42150, "Ġbelievable": 41632, "Reg": 8081, "657": 37680, "Ġparks": 14860, "ĠDestiny": 17886, "Ġgunshots": 46828, "uffy": 15352, "ĠScrew": 42147, "UA": 34970, "ancouver": 10264, "ĠEbola": 15825, "ĠWhitman": 47958, "ĠPas": 17454, "ottest": 24879, "Ġ4000": 30123, "linger": 33550, "blogs": 49096, "Ġcraft": 5977, "Ġunderneath": 14638, "Ġdismissal": 25693, "Ġmap": 3975, "ITCH": 31949, "ĠAlso": 4418, "ĠAle": 9300, "Ġinput": 5128, "Ġventure": 13189, "Ġunidentified": 27022, "ĠJerusalem": 10843, "Ġdisco": 4655, "ĠMormon": 13164, "et": 316, "ĠHit": 7286, "Blu": 38676, "anye": 23495, "ĠFarm": 11272, "rug": 2143, "TO": 10468, "Ġavail": 29107, "Ġbasement": 17012, "abella": 43653, "ĠProbe": 42600, "leaders": 37553, ")/": 20679, "degree": 16863, "Ġrelapse": 47861, "Ġcal": 2386, "Jack": 14295, "Ġ...": 2644, "ĠAc": 4013, "Ġdon": 836, "mmmm": 40133, "ë": 167, "antha": 32589, "Ġcharge": 3877, "Mexico": 33006, "burn": 10899, "Ġdispar": 14455, "ĠPopulation": 20133, "ĠVolkswagen": 32991, "screen": 9612, "Ġextensive": 7667, "ĠBrunswick": 32211, "abi": 17914, "ĠLif": 21073, "ĠNico": 39360, "affe": 21223, "ĠLis": 28546, "Ġconglomerate": 50240, "acket": 8317, "ĠAvg": 33455, "Ġ********************************": 41906, "Mac": 14155, "Ġferal": 43057, "ril": 22379, "ĠPentagon": 12651, "ĠSteam": 9094, "Ġinvade": 30419, "Ġpermanently": 15043, "nw": 47516, "Ent": 14539, "spoken": 19842, "Ġprem": 4199, "raints": 15517, "ebus": 33209, "ĠRai": 42954, "ĠPTSD": 26974, "poral": 35738, "Ġadvising": 30341, "Ġbaseball": 9283, "Ġsolicit": 25063, "802": 30863, "Feb": 15146, "Ġunbeaten": 48798, "ĠLogic": 30146, "uki": 11308, "aku": 8719, "ĠClar": 15420, "Ġpg": 23241, "Far": 21428, "Ġunderestimate": 34994, "ĠRamsey": 30552, "ĠCongress": 3162, "Battery": 47006, "police": 38191, "Ġattraction": 17416, "ĠThree": 7683, "OY": 21414, "ĠOf": 3226, "tor": 13165, "people": 15332, "Ġtart": 35842, "Han": 29919, "Ġmethyl": 27664, "ĠMechdragon": 35579, "Ġ];": 28013, "monds": 42620, "ĠWarehouse": 45927, "Ġmitochond": 25387, "Ġfolk": 15504, "1100": 42060, "Ġultr": 23212, "Ġverifying": 45505, "Ġstd": 14367, "ĠThai": 18933, "Ġchemicals": 12910, "Ġthese": 777, "ĠElectronics": 27828, "âĦ¢:": 41333, "ĠHH": 47138, "Ġdinosaur": 28257, "Ġutilized": 21487, "Ġworker": 8383, "Ġsymp": 10558, "Ġmostly": 4632, "676": 42548, "Ġdistrust": 30086, "ologist": 7451, "Ex": 3109, "Ġemit": 27588, "ĠImm": 9543, "uffle": 18137, "ĠOkin": 41020, "Ġpend": 44017, "opausal": 47637, "direct": 12942, "ĠWhe": 5792, "çĭ": 45379, "itimate": 30233, "444": 30272, "ĠMult": 7854, "Ġreliance": 24126, "Ġsystemic": 21971, "Christian": 20298, "ĠDispatch": 35934, "Close": 26125, "ĠEditors": 48073, "Ġrestart": 15765, "Ġpreferably": 29203, "(_": 28264, "Ġadolesc": 19373, "ĠChan": 18704, "Ġcultural": 6467, "ĠPhillips": 17630, "ĠReverend": 47042, "irez": 31762, "Ġhim": 683, "Ġbrutally": 30040, "Ġgreens": 30966, "intention": 40867, "ĠGoodbye": 44442, "Specific": 32419, "ĠBL": 9878, "ĠProceedings": 30641, "311": 36244, "Ġpars": 13544, "Ġeasily": 3538, "Ġfooting": 32687, "Ġpirate": 25868, "Ġ300": 5867, "ĠShutterstock": 37356, "ĠNature": 10362, "Ġnatural": 3288, "phans": 44464, "former": 16354, "Ġbirths": 27244, "smanship": 49820, "ãĥĩ": 21959, "Ġweb": 3992, "Ġtouches": 18105, "vey": 3304, "Ġfamilial": 48376, "Constructed": 25207, "ĠHampton": 36852, "ĠHaitian": 48723, "ĠBeirut": 40702, "ĠSnape": 31008, "certain": 39239, "ouses": 11370, "ĠMcCabe": 45395, "Ġgoalie": 31071, "ĠLy": 9334, "Ġregion": 3814, "aa": 7252, "ãĥ¥": 24440, "ĠDayton": 24450, "Ġdirectly": 3264, "Ze": 36056, "Ġbogus": 33418, "Ġcustody": 10804, "Ġstatute": 14195, "onement": 49844, "ANS": 15037, "Ġstrengthened": 27324, "ĠKinnikuman": 43010, "ĠPAY": 38444, "NBC": 13175, "olphins": 16547, "Ġpup": 15552, "Ġperpetual": 29079, "Ġtyrann": 44315, "Ġlabou": 45161, "ĠArmory": 45388, "Ġpositional": 45203, "Ġstrictly": 14084, "Ġsecure": 5713, "span": 12626, "Ġhomosexual": 11479, "Ġbrief": 4506, "anasia": 45551, "Ġcaricature": 47346, "ĠHighly": 38254, "Most": 6943, "ictions": 9278, "oult": 25955, "umo": 43712, "cy": 948, "Ġconsists": 10874, "ĠSpecialist": 36816, "Ġministers": 14138, "ACY": 43300, "Ġcredentials": 18031, ">,": 22330, "Ġintimacy": 32699, "ottenham": 21889, "Ġlegislative": 10828, "FX": 17213, "Ġgeological": 41917, "false": 9562, "ĠProspect": 26736, "Ġmirror": 10162, "ĠUnderstand": 45010, "Ġ${": 25597, "Ġshady": 36135, "ĠProb": 30873, "Ġperform": 1620, "ĠPles": 48468, "ĠISIS": 7768, "Ġbegan": 2540, "ĠÂ¯": 49660, "ĠSniper": 24146, "holding": 19216, "Ġresponses": 9109, "ĠKru": 33909, "inian": 24605, "Ġprocessor": 12649, "Ġ_": 4808, "Guest": 42481, "ĠLack": 38289, "page": 7700, "ĠRivera": 31325, "antasy": 34921, "olute": 3552, "ĠAmnesty": 30046, "Ġanger": 8993, "Ġregression": 20683, "oon": 2049, "\"},{\"": 11919, "ĠBeyond": 12197, "ĠRELEASE": 46492, "Food": 24602, "Ġsilver": 8465, "Ġembassies": 49935, "Ġgrandmother": 18410, "Ġ1888": 49584, "Ġbicycles": 35426, "Ġsailing": 28499, "jured": 38608, "ĠYosemite": 43188, "ĠSpray": 43536, "itals": 8321, "::::::::": 43661, "Ġcorruption": 9253, "Ġ172": 23120, "Port": 13924, "cht": 21474, "Ġinvolve": 6211, "ĠHK": 31440, "ĠVel": 17378, "ĠGeoffrey": 42803, "Ġjersey": 22383, "ubi": 29603, "Ġsecond": 1218, "ĠOver": 3827, "allel": 29363, "ĠCarl": 8124, "EEE": 31909, "Multi": 29800, "ĠKard": 37875, "Ġwhichever": 26204, "Ġsheets": 15747, "ĠTanaka": 47825, "Ġthrive": 22191, "ery": 1924, "Ġtourism": 19277, "ĠWEEK": 43765, "Ġstrict": 7646, "Ġ158": 24063, "ophys": 39665, "Ġscra": 19320, "ĠPortug": 12775, "IDENT": 25256, "GV": 37094, "ENG": 26808, "Ġevid": 25568, "ĠRatings": 36826, "anism": 48162, "Ġpresented": 5545, "box": 3524, "raising": 32741, "late": 17660, "Mini": 39234, "ĠStyle": 17738, "igator": 23823, "ĠAbd": 17870, "ĠSpec": 18291, "ĠQatar": 18286, "raphic": 22262, "ĠEncounter": 40998, "inos": 11996, "Ġimminent": 21161, "178": 23188, "Cook": 28937, "TABLE": 38148, "Ġgrabbing": 23256, "stained": 44279, "fre": 19503, ")...": 26513, "ĠEmma": 18966, "ĠSacramento": 19375, "Ġsubstitutes": 44234, "ĠCell": 12440, "ĠReset": 30027, "Ġarguments": 7159, "olving": 10890, "thereal": 37827, "Ġpursuits": 45968, "ĠIntegration": 38410, "Sharp": 44336, "ĠSunset": 28218, "Ġform": 1296, "Ġposit": 46436, "Ġstricter": 36602, "ĠKarl": 15415, "how": 4919, "Ġexaminer": 37240, "ĠTail": 21759, "chest": 46713, "ply": 2145, "ĠBlackhawks": 35663, "selling": 16473, "Ġchim": 18205, "Ġbrutal": 12399, "ĠTul": 30941, "ĠONE": 16329, "),\"": 27267, "Ġminim": 10356, "Ġopioid": 23039, "MODE": 49058, "Ġor": 393, "Ġ289": 38902, "ĠBroadcast": 44244, "ĠTTL": 42654, "Ġcalled": 1444, "Ġhighway": 12763, "ĠAFB": 43827, "ĠSikh": 34629, "Ġexaggeration": 42769, "Data": 6601, "75": 2425, "ĠLizard": 42452, "ĠHelen": 22695, "Ġsubtitles": 44344, "ĠPry": 32500, "Ġexped": 13604, "cycles": 32503, "ĠRockies": 35521, "od": 375, "Ġpenetrating": 41456, "Ġcapitalize": 35160, "ipes": 18636, "ĠHarold": 23987, "ates": 689, "Ġprev": 8654, "Ġundergo": 17777, "820": 41739, "uchs": 37533, "Copy": 29881, "Ġrelentless": 25488, "iths": 47252, "Ġcorrupt": 10622, "ham": 2763, "Ġtf": 48700, "ĠINFO": 24890, "ĠHell": 5783, "Ġclimate": 4258, "rans": 26084, "ĠFifa": 49142, "Ġreflex": 24133, "acey": 25415, "RNA": 27204, "ĠBella": 39304, "Ġhating": 45701, "Ġjunk": 18556, "ady": 4597, "olt": 5978, "ollen": 29952, "ĠYankees": 20082, "Ġleveraging": 42389, "BUG": 12953, "opp": 10365, "ĠSeb": 20639, "ĠLU": 50168, "ĠGoing": 19219, "Ġvirgin": 21772, "Ġundertaken": 21846, "Ġlaure": 34515, "Ġdebt": 5057, "Ġshortcomings": 31731, "ĠPixel": 11349, "Ġdictator": 26671, "Ġtransferred": 11172, "ĠUNDER": 35219, "iership": 36689, "void": 19382, "December": 20588, "Ġrelationship": 2776, "ĠCTRL": 45249, "Ġtechnically": 14497, "vil": 2991, "ĠBud": 10370, "damage": 28735, "either": 31336, "Ġ--": 1377, "Ġhipp": 18568, "tags": 31499, "Ġdetectives": 24304, "ĠTea": 15777, "Ġabsor": 8256, "ederal": 2110, "Ġcomprising": 27918, "ĠAllied": 28234, "ĠGonzalez": 24416, "........": 2109, "Ġperformers": 23827, "ãģ®ç": 17683, "Ġsuck": 10110, "ĠVA": 13753, "Ġworkers": 3259, "iac": 9607, "Ġcorrection": 17137, "Ġcerts": 27802, "Ġphotographers": 26474, "Ġnotably": 14660, "Ġbelievers": 23142, "ĠAmon": 42109, "Intel": 24123, "ried": 2228, "Ġyellow": 7872, "Ġsubjug": 43629, "iggins": 23567, "ÃĽÃĽ": 48396, "Ġfusion": 21748, "consider": 44353, "oard": 11953, "Tenn": 43139, "currency": 34415, "Ġkarma": 31789, "Ġimmortality": 40079, "Ġtwenty": 8208, "ĠTatt": 36711, "lethal": 46480, "Ġsynthesis": 21263, "Ġaugmented": 30259, "ĠDrive": 9974, "Ġtranscend": 26231, "Ġenjoys": 20393, "Platform": 37148, "ĠTradition": 45050, "ĠBrooklyn": 12232, "Ġgrilled": 34240, "brother": 37343, "Ġdigest": 16274, "Ġitiner": 45142, "eworld": 38136, "Trans": 8291, "Ġtriangle": 22950, "Ġsonic": 36220, "Ġlax": 36919, "à¤": 11976, "Ġvariations": 13991, "agen": 11286, "Les": 35882, "ĠFame": 18864, "Ġsurgeon": 23923, "ĠAnother": 6023, "Ġpatri": 12650, "Advertisements": 14592, "059": 46712, "ĠSpl": 13341, "Ġinterior": 11087, "Ġcomp": 552, "ĠGlacier": 49120, "Ġpreviously": 4271, "Ġsunlight": 19606, "hole": 13207, "ĠHTC": 22063, "flying": 45928, "ĠReach": 25146, "ortium": 25182, "ĠPassing": 46389, "ĠExport": 36472, "ream": 1476, "hill": 12639, "ĠDomestic": 29015, "eful": 13839, "ĠDJs": 48644, "imore": 9401, "Ġmathematic": 33161, "Ġshipped": 14338, "osi": 21707, "Ġnovel": 5337, "ĠPett": 35043, "ĠMigration": 36991, "Ġembr": 7726, "ĠHonor": 21071, "Ġbrains": 14290, "ĠDoodle": 45634, "Ġantidote": 50131, "Ġseq": 33756, "Ġcad": 20603, "Ġmyster": 6141, "Da": 26531, "Ġwireless": 12521, "Ġrobberies": 43774, "×¨": 37778, "inct": 4612, "00200000": 36490, "ĠBitcoin": 6185, "Ġmillennia": 38710, "ĠTyp": 17134, "Ġprecedence": 38177, "ĠSchl": 48467, "Ġclubs": 9784, "Zen": 47573, "ĠBalloon": 47821, "ĠAnchorage": 50066, "Ġpackaging": 16846, "Ġbiomass": 42584, "create": 17953, "ĠRender": 46722, "Ġpitched": 21730, "Ġunwittingly": 48726, "Aren": 43199, "ternal": 4358, "Ġendpoint": 36123, "card": 9517, "AB": 6242, "Ġhereafter": 49912, "Maximum": 40541, "MAG": 45820, "Ġfreshmen": 45208, "Michael": 13256, "shot": 9442, "edIn": 20801, "ĠOcean": 10692, "Ġboss": 6478, "Ġpump": 8901, "flo": 48679, "Ġtemperatures": 10101, "Ġspurious": 49062, "Ġhiding": 11816, "Ġsuspects": 11826, "184": 22883, "Ġcigar": 24518, "Ġagents": 6554, "B": 33, "ĠQuÃ©": 46345, "Ġapplic": 2161, "ractive": 35587, "Ġunsett": 29286, "ĠValkyrie": 23620, "ubb": 33670, "Ġhealthcare": 11409, "ĠExperimental": 32286, "flags": 33152, "Ġbadge": 23009, "Ġtherein": 27258, "430": 31794, "Ġyawn": 40908, "ĠCRC": 45623, "Ġcanceled": 19994, "¢": 95, "Ġcounts": 9853, "ĠHonestly": 34173, "Ġperf": 23035, "Ġkiller": 11868, "Ġintervals": 20016, "oks": 28194, "Ġinjust": 19019, "compan": 34390, "ĠLoad": 8778, "vl": 19279, "Russell": 46325, "ĠMN": 29060, "crazy": 50112, "Ġextend": 9117, "Ġ\"{": 45144, "module": 21412, "Ġphilanthrop": 28150, "coded": 40976, "âĢĭâĢĭ": 39009, "arthy": 18270, "Ġmus": 1928, "Ġspecializes": 29786, "Ġalienation": 44984, "Ġcontrasted": 49754, "ĠHC": 27327, "ĠSi": 15638, "Ġinmate": 28414, "Ġawa": 14908, "668": 35809, "Ġstares": 38806, "Four": 15137, "Always": 30374, "neath": 13725, "Ġevolved": 12572, "fp": 46428, "eaturing": 31347, "Ġflex": 7059, "Ġdwind": 30692, "pta": 32283, "Ġtailored": 27571, "Ġresear": 4027, "Ġwig": 45678, "Ġempowerment": 39309, "Ġmicrobiota": 42784, "Dialogue": 41099, "Ġ000": 12877, "Back": 7282, "Ġtitle": 3670, "Ġbutt": 8530, "ĠCarr": 20765, "Ġsummary": 10638, "ĠReduction": 33396, "plet": 37069, "ĠGod": 1793, "Ġshows": 2523, "gments": 11726, "Ġplus": 5556, "Ġvot": 1993, "ĠROS": 48263, "Ġtechnology": 3037, "Ġstrapped": 37625, "Ġconventions": 21396, "ĠXV": 29922, "Ġdigits": 19561, "Ġmanifest": 10561, "ser": 2655, "Ġsomeday": 25580, "Ġoptimum": 39475, "Ġ808": 41241, "Ġlanding": 9581, "Ġ337": 42294, "Ġ??": 19153, "Ġhelicopter": 15392, "ĠExtras": 43620, "ĠButterfly": 39108, "ĠMis": 14136, "Ġabsolute": 4112, "ĊĊ": 628, "ĠMonarch": 41768, "crew": 42276, "oup": 10486, "ĠBuffett": 36611, "ĠLIKE": 34178, "Ġlun": 14678, "ĠVessel": 44734, "Ġsubtly": 37847, "Ġtriumphant": 44005, "Ġdepressed": 19095, "Ġdetachment": 42925, "Ġpossibilities": 12779, "ĠTrash": 48161, "minent": 19669, "Ġident": 1852, "ĠMost": 4042, "ĠTurkish": 9663, "583": 46239, "ĠArcane": 26475, "Ġmicro": 4580, "960": 39277, "Raven": 49098, "Ġrenders": 30111, "GG": 11190, "ĠCipher": 44334, "ocument": 7990, "ĠEmpty": 33523, "Ġaccidental": 23221, "erm": 7780, "ĠIM": 8959, "IT": 2043, "oried": 42058, "ä¼": 27670, "ĠLap": 26944, "ĠHatch": 31537, "Ġscanners": 47059, "Ġtoppled": 48757, "Tro": 44095, "Ġprescriptions": 34092, "ĠHardy": 27583, "phot": 38611, "moving": 31462, "peria": 38032, "Ġmolecular": 18955, "ĠChamber": 15840, "ĠBounce": 41474, "Kar": 37753, "gov": 9567, "Hill": 36369, "urus": 31891, "rior": 7701, "ĠJacobs": 27593, "Ġmd": 45243, "Ġnoticeable": 19787, "Ġburning": 9482, "Ġbidder": 44848, "ĠImmediately": 34528, "ard": 446, "OWN": 14165, "Ġneck": 7393, "behavior": 46571, "ĠHigh": 3334, "Ġblamed": 13772, "andum": 25933, "Ġtrembling": 39228, "bors": 32289, "rom": 398, "ĠHerbert": 28648, "ĠAmtrak": 49145, "Ġreserve": 11515, "ĠTalks": 47595, "erald": 12573, "ĠUnt": 26970, "ĠPigs": 49210, "TEXT": 32541, "ĠWhereas": 28016, "Ġcomplexes": 42665, "Ġlinks": 6117, "udeb": 46092, "ĠSpanish": 7897, "ĠRo": 5564, "ĠDistance": 34600, "ĠCapcom": 35936, "ĠViol": 13085, "ĠReward": 32307, "Ġenthusiasm": 17131, "ĠâĢĵ": 784, "ALSE": 23719, "ĠComponent": 35100, "sql": 25410, "Ġdysfunctional": 38127, "Ġtre": 2054, "amph": 28474, "ĠZionism": 48394, "ĠMazda": 39671, "ĠLET": 37994, "Ġnar": 30083, "Ġaddicts": 32510, "ĠHorror": 22732, "Ġambul": 18907, "ĠElise": 46174, "family": 17989, "ĠSpain": 8602, "Ġwith": 351, "romising": 47112, "Ġbalanced": 12974, "Ġtyre": 48216, "Ġrecount": 16369, "Ġpurposes": 4959, "ĠBelfast": 29713, "Artist": 43020, "Cle": 34349, "Lewis": 40330, "Ġembracing": 26005, "amus": 25509, "Ġimagine": 5967, "ĠReplace": 40177, "requency": 28707, "Ġheals": 38673, "Ġfinan": 17240, "432": 45331, "Ġscreenplay": 39769, "Ġ540": 38190, "270": 20233, "ĠDictionary": 28261, "Ġwriting": 3597, "ipper": 14710, "Ġnobles": 42173, "itable": 4674, "ĠChurchill": 25987, "Ġbrig": 24393, "Ġiceberg": 34849, "ĠDelivery": 28682, "Ġavoiding": 14928, "atham": 37520, "Ohio": 31274, "ĠEnforcement": 19198, "Ġ291": 43336, "ictionary": 14188, "SE": 5188, "Ġendowed": 44134, "bach": 19496, "icably": 41685, "ĠSilva": 23720, "chen": 6607, "Ġclocks": 29906, "soft": 4215, "which": 4758, "Ġ610": 44300, "Ġfertilizer": 37113, "ĠElijah": 38646, "Ġscripted": 37341, "journal": 24891, "Ġwelfare": 9490, "Ġtraject": 20134, "jury": 21871, "ĠXie": 48989, "Ġcock": 7540, "ĠHunters": 31196, "Ġbathing": 39153, "159": 19707, "ĠLobby": 35068, "ĠGuatem": 28171, "Ġlectures": 25917, "Ġprevailed": 34429, "Ġwavelengths": 45656, "ĠEstablishment": 37132, "ĠEst": 10062, "repair": 49932, "ĠPamela": 43341, "Ġcollaborators": 37886, "Ġangry": 7954, "Ġmartyr": 28009, "Ġdinosaurs": 27199, "Ġ!=": 14512, "aren": 5757, "Ġ('": 19203, "Related": 9819, "iler": 5329, "Ġcollusion": 29771, "Ġpedd": 36145, "Ġfeeble": 46299, "ĠJoseph": 7212, "Ġplural": 22801, "Romney": 42184, "rict": 2012, "etically": 16877, "¶æ": 35050, "Ġstew": 20798, "Ġintegrating": 32029, "untled": 46343, "ĠOW": 47210, "uity": 14834, "ĠTravel": 13524, "rets": 8004, "Ġtruce": 39854, "Flag": 34227, "CW": 43538, "Ġleveling": 34661, "ĠLOW": 46663, "ĠCOURT": 46627, "Ġrankings": 16905, "ĠJugg": 39296, "ĠCrypt": 15126, "Ġcontroversial": 8381, "Ġongoing": 7044, "Ġabsorption": 24774, "onse": 2591, "ĠJazeera": 32409, "ĠMining": 29269, "eva": 48855, "Ġval": 1188, "ãĤ°": 26095, "crop": 31476, "ĠGlasgow": 23995, "Shortly": 30513, "Ġhandcuffs": 44473, "ĠWad": 48986, "Ġblasp": 30459, "Ġsod": 32581, "ĠNES": 31925, "esp": 9774, "ĠLimbaugh": 43306, "HOME": 39069, "Ġenrolled": 18724, "Ġdeprivation": 28922, "posal": 40007, "Ġconfessions": 47646, "Gr": 8642, "nance": 41601, "Ġornament": 45618, "ĠEnding": 43626, "Cash": 35361, "Ġcontaminants": 46983, "CRIP": 36584, "Ġmonks": 27646, "iatrics": 36549, "Ġastounding": 34328, "timer": 45016, "happy": 34191, "003": 11245, "ĠLil": 16342, "ĠCrypto": 36579, "ĠCharacters": 26813, "ĠORIG": 43901, "Ġmism": 32691, "Ġtubing": 43128, "Ġdissertation": 46793, "Ġconsiders": 14358, "Remove": 27914, "ugar": 35652, "357": 27277, "Ġuninstall": 43194, "ypes": 9497, "Ġrepairing": 39005, "atio": 39485, "ĠThis": 770, "funded": 18246, "Ġattracts": 33174, "Ġcotton": 15985, "ows": 1666, "ĠCornell": 27119, "Ġobviously": 6189, "Self": 24704, "Ġrotating": 24012, "Favorite": 49434, "formerly": 36234, "ĠWhip": 40930, "Ġsmashed": 23354, "601": 41706, "ĠWORK": 30936, "Ġsays": 1139, "Ġ1896": 46723, "Ġmsg": 31456, "ciples": 6418, "Ġmonitored": 20738, "ĠEz": 21034, "Ġfruits": 15921, "Ġshoppers": 30303, "ĠScientology": 24990, "ĠStage": 15371, "ĠAero": 44720, "ĠAzerbaijan": 33605, "ĠMoments": 45209, "Ġ1947": 21709, "ami": 6277, "ĠHector": 42621, "Ġtranslucent": 45323, "Ġdeadline": 12508, "jam": 39159, "Ġ32": 3933, "Ġparach": 31852, "uttered": 46322, "ĠBag": 20127, "ĠNOR": 25273, "ĠGon": 35371, "ĠguiActiveUn": 29372, "ĠLev": 16042, "Ġflood": 6947, "ĠOwners": 33147, "Ġdiscipline": 12883, "mp": 3149, "ĠHitler": 11908, "ioch": 41097, "Elsa": 49050, "ĠAus": 27545, "ĠBonds": 39161, "Ġstrategist": 25651, "Ġtro": 4161, "ĠSega": 29490, "ĠHof": 37745, "Ġaccomplish": 9989, "Kid": 48374, "Ġni": 37628, "Ġcollide": 46592, "strument": 43872, ".#": 32535, "ĠLiterature": 33818, "Ġmatching": 12336, "Ġtel": 13632, "ĠCanucks": 31252, "Ste": 7447, "Ġ365": 21268, "media": 11431, "factor": 31412, "Ġashes": 29914, "roph": 10051, "arks": 5558, "ĠColiseum": 40846, "widget": 42655, "Ġspecifically": 5734, "Terry": 50241, "cipline": 34647, "ĠPrinciple": 40921, "Ġdetermination": 12123, "ĠPierre": 21204, "ĠHerm": 18113, "Ġrepeated": 5100, "Ġvampire": 23952, "Ġplethora": 35146, "Ġsafest": 33630, "ĠButler": 17389, "ĠCC": 12624, "fits": 21013, "ĠEl": 2574, "ĠMessi": 36128, "ĠðŁĻĤ": 32485, "otti": 26380, "Ġprinciple": 7989, "aly": 3400, "Ġmanaged": 5257, "umbered": 26584, "delete": 33678, "Ġresistance": 6625, "Ġbigger": 5749, "ĠScience": 5800, "999": 17032, "Ġconcert": 10010, "ossus": 36533, "ĠContext": 30532, "Ġcombining": 19771, "ĠONLY": 22224, "Lin": 14993, "Ġintertwined": 45905, "Ġ348": 44084, "Brave": 39787, "ĠTrinity": 22844, "Ġimpuls": 30348, "Located": 43525, "ĠBE": 9348, "Ġfeared": 15240, "148": 18294, "Ġ324": 38595, "oub": 12944, "Ġ107": 16226, "Ġstacked": 24167, "Ġdebugger": 49518, "Ġbreeds": 29580, "Ġadvisors": 32456, "rm": 26224, "ĠBlizzard": 20206, "Ġwavelength": 28400, "ĠDozens": 39672, "Ġstiff": 15175, "sac": 30584, "Ġincest": 35961, "ĠRick": 8759, "Ġdysph": 50111, "folk": 19956, "fox": 12792, "\";": 8172, "ĠStan": 7299, "wright": 29995, "Ġencrypt": 34117, "sweet": 34751, "dain": 27162, "ĠMag": 2944, "ĠHard": 6912, "ART": 7227, "Ġmorality": 18016, "ĠKal": 12612, "ĠTaste": 29633, "ĠChloe": 29476, "icans": 22398, "Ġcellphone": 26346, "Ġhots": 33915, "ania": 5411, "reements": 28919, "ĠPose": 37557, "ĠZIP": 42977, "ĠSubaru": 30471, "Ġrubble": 29632, "Ġdealings": 29043, "charg": 11121, "Ġcancers": 25217, "Ġshelter": 11772, "ĠAston": 33644, "Ġinform": 4175, "Ġgenes": 10812, "bey": 23454, "776": 39509, "Ġmigrant": 23088, "ĠWH": 7655, "olars": 7828, "ĠJoshua": 20700, "Ġinflammation": 20881, "ĠMarks": 27366, "TOP": 35222, "ĠThe": 383, "Ġexpressly": 27462, "safe": 21230, "oodoo": 36038, "Ġuncomp": 34318, "USS": 32835, "isting": 9665, "ãģı": 31917, "Ġresign": 10931, "fing": 28825, "Ġdirectories": 29196, "ĠKernel": 32169, "Ġhauled": 43423, "Ġabrupt": 19363, "Say": 25515, "abouts": 27880, "Ġimpetus": 43007, "Ġgoodwill": 36374, "Ġposterior": 34319, "ĠLoki": 31771, "ĠSalvador": 26482, "Ġattack": 1368, "Ġconfess": 22127, "Ġgates": 17435, "Rose": 31087, "Ġblatant": 29000, "ĠFraz": 36914, "Ġsway": 20009, "chnology": 19587, "Variable": 43015, "ĠScy": 32252, "deb": 11275, "iov": 16664, "index": 9630, "ĠGloss": 45970, "itious": 25253, "Ġscr": 6040, "Ġphysically": 10170, "ĠXia": 22450, "ĠToast": 46831, "Ġshift": 6482, "ĠPacks": 46780, "codes": 40148, "itan": 18642, "rano": 35823, "Offset": 34519, "Ġretail": 6308, "ÃĥÃĤ": 5808, "Ġscrutin": 30441, "GRE": 28934, "Ġnothing": 2147, "Ġ06": 9130, "Assembly": 49670, "Ġintake": 10337, "irts": 9682, "Ġlaunchers": 41065, "Ġfacilitated": 35923, "Ġknitting": 41577, "Ġdepression": 8862, "Ġbackfield": 45747, "Ġprote": 5915, "Ġdraped": 38425, "illy": 6548, "ĠRomanian": 34344, "ining": 3191, "ĠPark": 3250, "Ġlegions": 44395, "Ġroads": 9725, "Ġoptions": 3689, "ĠMurd": 20305, "Both": 10265, "Ġoutburst": 49088, "Ġdoub": 3385, "ĠRena": 27694, "Ġmountains": 12269, "Ġundercut": 43726, "Ġgreatest": 6000, "Ġupheaval": 46907, "tracks": 46074, "ĠFrances": 27025, "Ġworm": 23849, "İ": 236, "ĠProtective": 45004, "ĠJoe": 5689, "ographics": 24188, "Ġregularly": 7987, "ĠBis": 38045, "Ġambassador": 14791, "Ġokay": 8788, "ĠTen": 9368, "ĠChinatown": 47043, "proven": 42874, "rones": 9821, "ĠForward": 19530, "addin": 46782, "rov": 18657, "cf": 12993, "ĠDrac": 35693, "uum": 13814, "Ġestate": 7964, "inho": 20327, "Ġprisons": 19224, "Ġserious": 2726, "ĠLenovo": 40269, "ĠTwice": 41217, "Ġprosecute": 26057, "agements": 38113, "ĠDirty": 32052, "ĠRhodes": 25656, "Ġdazzling": 41535, "Ġconfusing": 15337, "BD": 14529, "ĠScalia": 32575, "Ġdeprecated": 39224, "Ġenhancing": 27496, "ĠShed": 49340, "Ġcertainly": 3729, "Ġsuppress": 18175, "Ġpree": 47488, "Ġdefine": 8160, "ĠMik": 17722, "ĠElections": 24473, "Ġwastewater": 42073, "Oracle": 48625, "ĠJournalists": 45644, "Ġgeek": 27314, "raq": 3766, "ocamp": 26047, "Ġhypocritical": 45259, "ĠTech": 9634, "inent": 7233, "ĠAvery": 29218, "Ġnegotiations": 9825, "ĠPhelps": 40587, "sson": 16528, "ĠAllan": 31908, "ĠMovie": 15875, "haps": 2772, "Ġnegative": 4633, "Shadow": 27447, "Ġtyres": 40498, "ĠShadows": 18037, "Ġfifty": 15334, "ĠAdvis": 17014, "ĠCollabor": 37322, "ĠYan": 10642, "rief": 3796, "Ġventured": 44716, "angible": 39639, "rib": 822, "Ġgenuine": 8768, "ĠChem": 12870, "wk": 43021, "ĠFein": 45711, "ĠâĢº": 37855, "ĠWrong": 28843, "920": 37128, "Ġconsumption": 7327, "ĠDating": 43528, "Ġcalls": 3848, "Ġsmack": 41014, "ĠUse": 5765, "Ġfel": 10756, "Ġdelays": 16119, "itionally": 8736, "ffen": 46985, "Ġspoiled": 34781, "ĠTitle": 11851, "ĠYad": 41449, "ĠSERVICES": 49254, "brook": 19094, "Ġdc": 30736, "ĠDebbie": 31311, "earned": 39123, "ĠOU": 47070, "Ġprivacy": 6782, "ĠCommissioner": 13270, "Shin": 44592, "Ġ702": 43379, "Shell": 23248, "ĠPakistani": 17807, "isions": 3279, "Ġcommunities": 5348, "Ġprops": 25744, "thood": 12951, "layout": 39786, "ĠMick": 32722, "éĩ": 34932, "Ġpaced": 44756, "irc": 1980, "Ġmoon": 8824, "Ġmean": 1612, "},\"": 9063, "ps": 862, "mother": 13552, "Fla": 47487, "Ġundermining": 30340, "ctive": 14070, "ĠAss": 2195, "ĠAp": 5949, "Ġcelebrations": 22861, "Ġwells": 22571, "Ġdefenses": 18370, "Ġbeers": 16800, "ooks": 31085, "Ġinformal": 22176, "Ġadequate": 12872, "Ġterr": 8812, "Ġaltered": 14294, "Ġslot": 10852, "Finally": 11158, "Ġswear": 21192, "Sm": 7556, "ASON": 36033, "cand": 46188, "ĠCarrier": 30252, "2008": 11528, "901": 46815, "Ġlatch": 43140, "ĠWem": 45300, "Corn": 41389, "keep": 14894, "Ġkid": 5141, "ä»": 20015, "Ġwom": 1116, "ĠOttoman": 34158, "Ġbiologist": 35261, "Ġproceedings": 13106, "522": 49542, "Ġmin": 949, "tracking": 36280, "Ġbasic": 4096, "ĠOur": 3954, "ĠChicken": 16405, "ĠGay": 16013, "00007": 44808, "ĠIOC": 48245, "printed": 49695, "Ġdice": 17963, "ountain": 18635, "Ġperiodically": 26034, "oute": 13192, "Ġcriminality": 49950, "issues": 37165, "CBS": 22923, "Preview": 48835, "bike": 32256, "Ġterrifying": 17623, "Ġbarred": 23902, "pletion": 24547, "phen": 31024, "Ġolds": 44979, "Ġtruths": 24279, "Ġerected": 28415, "Ã±a": 30644, "ĠRim": 29542, "ĠReds": 14703, "Ġlogger": 49706, "Ġpts": 43344, "Ġdiet": 5496, "Ġmounting": 17260, "inline": 45145, "GHz": 23741, "Ġdentist": 38408, "NM": 32755, "ĠGaz": 21347, "choes": 23001, "Ġclimbing": 14281, "Ġunaccount": 48422, "Ġevac": 12015, "ĠPsychic": 38874, "2007": 12726, "ravis": 16956, "atory": 2870, "Ġtarg": 2103, "ĠPrice": 7886, "Îµ": 30950, "Ġtrustworthy": 34412, "ĠInstr": 27901, "ĠIrvine": 37277, "ĠRookie": 36595, "ĠPetition": 43723, "Ġcop": 2243, "ESSION": 47621, "Ġ11": 1367, "ĠMessages": 43534, "[_": 29795, "esteem": 31869, "Ġtightened": 37257, "Ġlunar": 25572, "Ġyoungest": 18887, "ĠDebug": 31687, "Ġclimbs": 34332, "ĠSandra": 32464, "Bell": 36488, "Ġspokesman": 6523, "Ġ',": 46083, "Ġrecounts": 39851, "Ġcontact": 2800, "Ġingested": 44694, "ĠDMCA": 49648, "Ġasset": 11171, "Ġstadiums": 37924, "ĠYes": 3363, "Ġresponsibility": 5798, "ĠMid": 7215, "ãĥ¼ãĤ¯": 42869, "Ġthroughout": 3690, "ĠNobel": 20715, "amara": 47848, "Ġprevalence": 16815, "Ġvapor": 20199, "Disable": 48893, "isen": 13254, "ĠPotential": 32480, "ibraries": 11127, "Ġsupporters": 5941, "ĠColomb": 16872, "ĠTNT": 42490, "Ġbenchmarks": 31747, "Ġdefeating": 21320, "Ġpredicament": 44472, "However": 4864, "ĠRequest": 19390, "Ġconferences": 19993, "Ġsplit": 6626, "ĠAmir": 43931, "Write": 16594, "inning": 23062, "Ġbaseman": 35348, "odiac": 40096, "Ġdenial": 14425, "ĠCorona": 44574, "ĠBland": 49524, "Ġlasts": 20374, "ampton": 23427, "ĠMohammed": 19773, "orient": 13989, "Ġabound": 41413, "aks": 4730, "Ġphysicist": 33013, "ĠOriginally": 19486, "ĠAustralians": 24933, "ĠBloom": 11891, "Ġknockout": 35825, "Ġcomposition": 11742, "ĠBinding": 38904, "ĠConsider": 12642, ";\"": 26033, "ĠChapman": 29045, "AU": 26830, "ĠAaron": 12139, "oral": 6864, "Ġelves": 31959, "Ġuncanny": 45244, "igan": 5516, "Ġult": 3789, "ĠStandards": 20130, "ECT": 9782, "Ġrender": 8543, "Meat": 35620, "uint": 28611, "ĠWait": 16314, "Ġretreat": 13703, "ĠBD": 28023, "Ġirritating": 42010, "ç«": 44165, "Ġcloning": 45973, "ĠWor": 16597, "ĠGENERAL": 41877, "astery": 29310, "Ġboring": 14262, "Ġsneaky": 48930, "icate": 5344, "Ġincluded": 3017, "WARD": 39743, "Ġsurviving": 16997, "Ġinspired": 7867, "styles": 47720, "Ġengaging": 11932, "ĠFault": 40050, "essional": 12743, "Ġ($)": 45491, "aler": 36213, "Tank": 32978, "ĠAuth": 26828, "Ġcompressor": 49395, "unique": 34642, "Ġtrailers": 33122, "Church": 46686, "ellation": 28828, "Photo": 6191, "ĠFinder": 42500, "Ġfreedoms": 23841, "Ġspor": 35810, "Ġ327": 36203, "Url": 28165, "Ġrecognise": 21817, "ĠRoland": 29761, "Ġmolecules": 17745, "ĠSDL": 45417, "lia": 24660, "ayan": 22931, "Players": 24860, "ĠFalse": 10352, "Ġlawful": 20785, "Ġfishing": 12478, "Ġamnesty": 33652, "treated": 37182, "Ġscram": 16701, "Ġcontents": 10154, "ĠHand": 7157, "Ġcups": 14180, "269": 26276, "Ġrenewal": 22901, "imilar": 49941, "ĠRobots": 39096, "ĠAttribution": 45336, "Ġdeducted": 48512, "next": 19545, "Ġgasp": 47440, "court": 22230, "plex": 11141, "Ġassailants": 49690, "comment": 23893, "645": 49259, "COL": 25154, "ulate": 5039, "Ġdetails": 3307, "Ġcreative": 7325, "ĠTRA": 29125, "ĠUnsure": 38481, "ips": 2419, "ĠEntity": 20885, "Ġsat": 3332, "ological": 2770, "VI": 12861, "ĠZ": 1168, "Ġ1300": 36058, "hidden": 30342, "Storage": 31425, "ĠMoney": 12911, "otic": 6210, "Ġdop": 22340, "Ġobedient": 41652, "Ref": 8134, "372": 36720, "Ġeffect": 1245, "ĠWTO": 47074, "avour": 29023, "photos": 24729, "Ġ296": 41922, "ovie": 10739, "Ġpund": 24745, "cients": 35611, "Ġdetail": 3703, "Ġsports": 5701, "Ġworked": 3111, "axies": 25472, "ĠMAN": 17254, "Ġplace": 1295, "Ġconcess": 18806, "ented": 4714, "itably": 14829, "Ġasync": 30351, "Ġrobes": 32970, "ittered": 36613, "ĠMack": 16640, "ĠSamp": 42168, "ĠThin": 40487, "anne": 21952, "Ġcompounds": 16439, "Ġawakening": 33971, "als": 874, "VILLE": 38526, "ĠFlat": 21939, "Ġspray": 11662, "wic": 22664, "19": 1129, "Ġaccredited": 37237, "ã": 159, "cies": 3171, "Ġfills": 23816, "16": 1433, "Ġcontent": 2695, "NR": 24723, "Ġprematurely": 41370, "ĠDud": 30673, "ĠConfig": 17056, "powder": 45855, "ĠCompar": 22565, "ĠLaksh": 47382, "ursions": 42394, "Improve": 47531, "Ġmarital": 29555, "scientific": 41355, "lations": 49905, "ĠWithout": 9170, "Ġrebel": 14034, "Ġnot": 407, "old": 727, "Ġvillage": 7404, "Ġ286": 39697, "Ġenclosure": 30685, "èª": 45739, "?\",": 35379, "Ġpeg": 41350, "Ġrecycled": 32099, "Ġdisparity": 30137, "Ġladder": 18002, "Ġreferees": 42692, "ĠBabel": 50175, "ĠShant": 49892, "nil": 45991, "âĢł": 33912, "ĠBr": 1709, "ĠUnfortunately": 8989, "ĠStats": 20595, "Ġsurveys": 16255, "Ġdensely": 42255, "Ġnightclub": 26617, "Ġconstant": 6937, "ennis": 10679, "Ġbackground": 4469, "ĠThings": 11597, "Ġmaking": 1642, "Ġbranches": 13737, "Ġhost": 2583, "Ġpupp": 13595, "ĠMuch": 13111, "Ġparity": 34383, "apo": 41817, "Ġformer": 1966, "ĠIraq": 3908, "Ġfury": 26206, "ovo": 18768, "Ġswallow": 26633, "Ġgam": 9106, "Ġnearly": 3016, "hent": 6925, "ĠShows": 25156, "Touch": 35211, "pu": 19944, "Ġalarmed": 32064, "ĠUs": 4021, "ė": 211, "eling": 10809, "ĠOct": 2556, "ĠIrish": 8685, "Ġadditional": 3224, "ĠAwards": 15434, "Ġyacht": 43207, "ĠFresh": 20138, "Hung": 39505, "Ġunder": 739, "cfg": 37581, "ĠSQU": 45880, "Ġavalanche": 44128, "ĠHighlander": 24567, "Ġinvestigative": 19384, "alogy": 48909, "igham": 34000, "Ġtown": 3240, "ĠMiss": 4544, "Ġold": 1468, "Gil": 40747, "ĠKirin": 40262, "Ġkneeling": 42687, "reporting": 49914, "Kids": 40229, "ĠMurdoch": 30370, "Ġexplorers": 45531, "Ġtroubling": 20294, "ĠKing": 2677, "Ġhonorary": 44358, "ĠOEM": 29671, "ĠNeander": 38752, "Ġconsec": 42938, "Ġsharks": 27476, "Ġwrapper": 29908, "ĠClare": 22736, "492": 40256, "ke": 365, "Ġleaders": 2766, "Ġhij": 16836, "Ġshepherd": 46721, "Ġharassing": 34110, "Ġpopul": 16595, "Lev": 32163, "ĠFlying": 19903, "Ġanomalies": 35907, "helm": 33485, "ĠSDK": 26144, "Ġengineered": 23371, "Ġserotonin": 32236, "ĠPiper": 33503, "lay": 10724, "cuts": 23779, "Ġconfidently": 37891, "Ġhereditary": 49718, "188": 20356, "Ġjudicial": 13657, "sters": 5937, "ĠFiesta": 49839, "Ġoutline": 19001, "Ġclarity": 16287, "Ġadop": 4344, "Ġintim": 10683, "Ġalter": 8343, "Ġbarg": 12828, "Ġurgently": 37788, "ĠDisorders": 37966, "ĠCopenhagen": 31104, "Ġwritings": 19336, "Ġremarkable": 11004, "Larry": 42918, "ĠAutomatic": 30199, "ĠTimberwolves": 48983, "Education": 41183, "matter": 47635, "techn": 23873, "Ġunbiased": 46735, "Ġvul": 24477, "Ġwhispers": 37806, "Ġlots": 6041, "Ġtechnical": 6276, "Bright": 41267, "ĠPy": 9485, "Ġinnocuous": 45427, "Ġslowed": 20955, "ĠArchbishop": 36746, "Ġm": 285, "ossier": 30087, "ACTION": 44710, "Ġperv": 48435, "Ġhappiness": 12157, "ĠSurveillance": 34818, "Ġstandoff": 33379, "ĠAxe": 28570, "Ġfu": 14035, "Ġarising": 21539, "ĠMueller": 17768, ";}": 46956, "Due": 22229, "ĠShogun": 46775, "Ġremoves": 20694, "ĠCron": 31683, "ĠHour": 19123, "Ġnotion": 9495, "ĠRoundup": 49310, "ĠNK": 46465, "Ġinstallment": 25168, "Ġaccuser": 43738, "Ġideally": 30274, "Ġ());": 38377, "verb": 19011, "Ġ//": 3373, "UE": 8924, "Ġrepeatedly": 7830, "ĠHandling": 49500, "Ġbicycle": 17026, "ĠUniform": 35712, "RS": 6998, "Ġwhales": 24635, "Ġtrance": 43618, "ĠLund": 33609, "Ġwhen": 618, "REE": 11587, "ĠKilling": 25536, "Ġshouted": 17293, "model": 19849, "DERR": 49643, "Ġmainline": 50114, "Ġhonored": 21014, "iv": 452, "Ġdisagreed": 27884, "ĠShin": 11466, "Ġdistricts": 12815, "stretched": 49729, "ĠConspiracy": 38786, "éŃĶ": 20804, "mania": 45733, "Ġcherish": 48303, "Ġdeem": 32435, "ĠFrom": 3574, "Guy": 31080, "Ġminiature": 28685, "Ġportraying": 42458, "Ġdaunting": 30496, "ĠCarmen": 46137, "Ġunus": 7242, "ĠCuban": 18147, "Ġvisibly": 30544, "ĠIslands": 12010, "Ġclarification": 31321, "ĠShaw": 18193, "ĠLeaders": 19658, "ĠStreet": 3530, "Ġble": 7245, "iversary": 9023, "py": 9078, "itutes": 16845, "Ġbless": 12012, "CF": 22495, "Ġfloods": 27283, "ĠGov": 10964, "Her": 9360, "ĠThem": 26460, "ĠJedi": 16147, "Grid": 41339, "ĠGordon": 11646, "ĠFrame": 25184, "Ġinsulting": 27899, "Ġdistributions": 24570, "-$": 22799, "off": 2364, "Thu": 39902, "Ġtracking": 9646, "istical": 19929, "leneck": 43163, "com": 785, "ĠLeading": 43225, "Ġbehind": 2157, "Ġshorth": 39147, "Ġpropose": 18077, "||": 15886, "awaru": 39008, "Ġâī¥": 26870, "owler": 30014, "ĠCab": 15976, "Ġdrivers": 6643, "jet": 31173, "ĠHunting": 22059, "Ġscreens": 8947, "Ġex": 409, "legates": 37061, "Ġappointing": 47680, "Engineers": 28620, "elines": 20655, "aterasu": 45335, "ĠClone": 30698, "idelines": 7984, "bidden": 37978, "ĠSettings": 16163, "orthodox": 42539, "RELATED": 20112, "Ġreminder": 15438, "Ġquietly": 12703, "azel": 41319, "Ġpipeline": 11523, "ĠWillie": 28623, "avin": 20637, "Ġstreak": 15113, "ĠIndustrial": 19034, "Ġuint": 20398, "Ġdirectors": 13445, "Ġrose": 8278, "ĠRegistered": 27049, "Com": 5377, "ĠFoss": 40515, "ĠTrog": 35791, "ĠInternet": 4455, "Ġdies": 10564, "vg": 45119, "ĠCoco": 48222, "ĠMust": 12039, "ĠSpark": 17732, "eper": 5723, "Ġswell": 36214, "Â·": 9129, "ĠSS": 6723, "Ġseparate": 4553, "cl": 565, "von": 26982, "ĠAke": 45296, "Ġhandmade": 40973, "ĠTelecommunications": 48667, "Ġoriginating": 37962, "imate": 1920, "ĠLavrov": 43991, "Ġâī¤": 41305, "Ġlocale": 36693, "op": 404, "ĠGuang": 36980, "lift": 26282, "esian": 35610, "ĠProto": 45783, "183": 24839, "Ġmaximize": 20487, "Ġaccomplishments": 26516, "ĠImproved": 24125, "ersion": 6900, "VERT": 15858, "Ġhassle": 32721, "Ġtimed": 28805, "ĠSalam": 38170, "Ġarticle": 2708, "Ġspectrum": 10958, "Ġattractive": 10966, ")),": 36911, "/\"": 30487, "'.\"": 30827, "ĠRuns": 44743, "Ġfloppy": 49415, "Ġventures": 33787, "Ġhandful": 10089, "ERE": 9338, "Ġfinger": 7660, "ðŁ": 8582, "wd": 16993, "keeping": 19934, "itors": 6742, "ĠIRS": 14440, "ĠNBA": 7403, "ĠScholarship": 38178, "iation": 3920, "ĠBuckley": 41493, "bec": 9423, "Ġimmersed": 37970, "Ġhouses": 7777, "utz": 27839, "Ġproblem": 1917, "ĠAdidas": 48976, "aching": 8103, "Ġset": 900, "acky": 36053, "ĠNa": 11013, "ĠPret": 37123, "ales": 2040, "ĠBarg": 50062, "Ġsquarely": 38590, "ĠExpo": 32330, "ĠLost": 9164, "ainment": 37091, "Ġfif": 5515, "ĠFord": 8092, "Lt": 49578, "Ġfant": 5113, "Ġroad": 2975, "Fighting": 46375, "ESPN": 31730, "chi": 11072, "coord": 37652, "Ġpublish": 7715, "icide": 5285, "Ġmourning": 33404, ".</": 25970, "Ġ530": 40585, "Ġduration": 9478, "Ġlandfall": 43682, "ĠFinger": 39454, "agn": 4660, "eeee": 41591, "Ġassistants": 29488, "Main": 13383, "Ġabroad": 10522, "Ġbould": 47069, "ĠSoci": 31339, "icularly": 22585, "DEBUG": 30531, "Ġincentives": 16538, "Within": 22005, "owder": 34656, "Ġearthquake": 16295, "Ġusername": 20579, "Ġenorm": 8885, "?).": 29865, "Ġrefinement": 47517, "Ġtaunt": 48146, "ĠMinotaur": 40558, "only": 8807, "ĠTinder": 44043, "Ġsequence": 8379, "visory": 41783, "ĠStall": 35719, "KR": 30758, "Ġprism": 46475, "ĠSales": 17329, "Ġlik": 4300, "phthal": 48118, "Ġsum": 2160, "Ġwhereabouts": 33035, "amm": 6475, "Following": 14291, "ĠThat": 1320, "Ġimproper": 18992, "Ġ81": 9773, "Ġretro": 12175, "Ġtigers": 43114, "Ġtainted": 36912, "belt": 37976, "ĠEco": 38719, "Likewise": 45872, "Ġimbalance": 32556, "Ġconvince": 11508, "Ġadmired": 29382, "Ġminorities": 15557, "Ġpackaged": 25555, "ĠWhoever": 37807, "Spell": 31221, "Ġcorrespond": 6053, "ĠLeilan": 50216, "Ġracist": 9811, "Ġdiagrams": 37067, "Ġgarment": 30594, "ĠVive": 29237, "ends": 2412, "Hmm": 44217, "aed": 8432, "Ġmisinterpret": 40882, "ĠReserved": 33876, "Ġmeasles": 30862, "rounder": 45788, "Ġminimizing": 41366, "ript": 1968, "ĠKrishna": 38594, "Ġbronze": 22101, "ĠIncreases": 23920, "ĠFebruary": 3945, "azon": 5168, "ĠEntertainment": 11058, "igg": 6950, "ourses": 39975, "src": 10677, "Ġcaptures": 23007, "ĠVim": 36645, "Sche": 27054, "reader": 46862, "App": 4677, "Neil": 29354, "Ġsoundtrack": 21751, "Marc": 22697, "Ġunderpin": 42185, "ĠAOL": 46101, "Ġavatar": 30919, "ortal": 16906, "Ġcondo": 32119, "Seven": 31334, "ĠZed": 46159, "Ġsuing": 28941, "ĠRockets": 23328, "Object": 10267, "VE": 6089, "Ġproliferation": 25068, "Detect": 47504, "Ġengagements": 40588, "Ġpeaks": 25740, "ague": 2064, "Ġpromised": 8072, "Ġcul": 10845, "Ġfilesystem": 29905, "lesi": 36027, "ĠAj": 22028, "ĠAN": 3537, "Ġwasn": 2492, "Ġtits": 33789, "Ġsexy": 17144, "Ġscaling": 20796, "Ġbi": 3182, "Ģ": 222, "meet": 47745, "Ġkale": 43497, "Ġpicked": 6497, "Ġdefendant": 11304, "DA": 5631, "Ġ978": 41417, "ĠOne": 1881, "wcsstore": 12781, "Ġmaze": 31237, "Investigators": 33528, "Ġbeneath": 11061, "ishi": 21644, "edo": 24757, "Ġpeers": 14495, "Ġdiarrhea": 36004, "Ġnarration": 45127, "Ġtowels": 38494, "Ġstrikes": 8956, "ĠSuns": 29139, "Ġlimitation": 17385, "ĠFlan": 39016, "Ġpunishment": 9837, "Ġgotten": 7891, "Ġregress": 50252, "Ġicons": 17149, "Ġunanim": 17452, "ĠHindus": 33735, "adding": 26872, "BILITIES": 49516, "Random": 29531, "figured": 46296, "ĠExtra": 17221, "Ġcounters": 21154, "Ġsl": 1017, "ĠCount": 2764, "significant": 36591, "over": 2502, "Þ": 154, "Ġpayable": 28538, "Ġagent": 5797, "ursed": 17539, "Ġcomposure": 49994, "Ġincidence": 18349, "Ġcollege": 4152, "Ġtomatoes": 23972, "ĠGupta": 42095, "ĠBean": 26510, "ĠErdogan": 20065, "ĠSpringfield": 27874, "tool": 25981, "sten": 26400, "ĠBur": 5481, "liner": 24683, "ĠLyon": 35193, "ĠMF": 32850, "sov": 47272, "ieval": 14671, "Ġnavigating": 35210, "ĠConstruct": 28407, "rations": 9143, "Ġclassical": 15993, "Ġexecutives": 12353, "Esc": 47051, "ocious": 32346, "BUT": 47526, "excluding": 42218, "ĠShields": 30512, "ctors": 5217, "Ġbelieving": 14773, "Ġunable": 5906, "Ġkindness": 23887, "Ġcreatively": 48707, "ĠChester": 26943, "xious": 48392, "ains": 1299, "Built": 39582, "phas": 5902, "Ġscience": 3783, "ĠPlayed": 33101, "Ctrl": 40069, "âĸ¬": 47530, "ĠHarrison": 17281, "Ġconfrontation": 19207, "ĠSeat": 26682, "ĠSure": 10889, "Ġoriginals": 47324, "bodied": 45190, "ĠMim": 39312, "Ġvariables": 9633, "Ġderogatory": 44094, "Ġrefres": 17434, "Ġendanger": 35276, "Ġsleeper": 46594, "Ġscored": 7781, "ĠGrad": 17701, "Ġcatcher": 32408, "ĠWant": 16168, "ĠBus": 5869, "fighting": 26594, "helial": 35566, "Ġmad": 8805, "ĠWouldn": 43048, "ĠManz": 37734, "uke": 4649, "ub": 549, "imet": 38813, "423": 43356, "Ġsurgeons": 38479, "ults": 8376, "margin": 36153, "listed": 17935, "Ġdenounced": 26443, "woman": 8580, "Ġgrew": 6348, "ĠADS": 44784, "689": 40523, "Ġcorrectness": 29409, "ĠScroll": 17428, "ĠCPUs": 32340, "Ġsensibilities": 50222, "Ġwhisky": 39501, "ĠBerger": 33337, "actory": 9548, "Ġmemorandum": 34911, "Ġ601": 49231, "x": 87, "ĠUnlock": 39626, "ĠFt": 45231, "yet": 25907, "ĠKNOW": 35876, "By": 3886, "Ġgetting": 1972, "Ġambiguity": 33985, "Ġexempted": 48521, "iffe": 22391, "Ġendorsing": 38379, "Ġblat": 21451, "Ġchic": 47180, "Ġreptiles": 46617, "ĠArcher": 19333, "Ġ=================================================================": 38093, "okÃ©": 35861, "Ġfundraiser": 27639, "Ġperched": 49264, "ĠRose": 8049, "Ġimprisoned": 21125, "Ġdistinguish": 15714, "Ġensu": 29084, "Ġintertw": 39458, "wagen": 29160, "Ġresources": 4133, "Ġelectricity": 8744, "ĠChrom": 18255, "'\"": 29653, "dl": 25404, "ĠFairy": 17746, "agna": 48669, "399": 28771, "onsequ": 40819, "âĹ": 15926, "nick": 17172, "ĠDream": 7610, "Ġbacklog": 38780, "Ġexposed": 7362, "Ġundergrad": 43485, "ĠRepublic": 2066, "ĠSEM": 48603, "ĠLSD": 27483, "ĠSep": 8621, "cross": 19692, "Ġinstruments": 12834, "Ġcurrents": 28629, "Ġexc": 2859, "stand": 1481, "Ġpleased": 10607, "AAA": 29697, "Ġdues": 40789, "Ġmentors": 44691, "Veh": 37870, "Ġprohib": 6221, "Ġaspirin": 49550, "ocumented": 17664, "ĠHang": 24300, "Ġassigning": 38875, "ĠTracker": 26885, "Ġocean": 9151, "Ġsummoned": 20056, "Ġfireplace": 44250, "nn": 20471, "ĠLaura": 16753, "Ġestimate": 8636, "Ġscenes": 8188, "Ġcertified": 15704, "nown": 3408, "YES": 43335, "Ġ1949": 24977, "astic": 3477, "ĠCirc": 7672, "GGGGGGGG": 40415, "Under": 9203, "Ġpremiere": 19245, "section": 5458, "cknow": 5319, "Ġblaze": 31259, "endment": 5904, "Ġairstrikes": 26665, "Ġinsofar": 44061, "yss": 33968, "Ġtabl": 36148, "Ġnoting": 10820, "Ġwra": 7917, "Ġpione": 15272, "ĠFeminist": 46259, "Ġabsorb": 17565, "ĠMur": 5921, "Ġfilms": 7328, "Ġdoom": 27666, "Ġï": 27332, "uno": 36909, "ĠFP": 31459, "Ġremote": 6569, "Ġfriendships": 34596, "ised": 1417, "ĠWish": 23447, "Ġ1969": 16450, "arrison": 22472, "Minecraft": 39194, "Ġnumbered": 25840, "phones": 9708, "Ġkne": 24813, "Ġconcentrations": 14587, "uc": 1229, "ĠResources": 13864, "0002": 34215, "ĠGems": 30196, "eners": 36014, "Ġnaming": 19264, "Ġharvested": 34262, "Ġpenalty": 7389, "ĠSOU": 30065, "ĠDoom": 18688, "ĠCyprus": 27885, "IN": 1268, "Ġsmile": 8212, "Ġwearable": 39092, "Ġjacket": 15224, "Ġslips": 33841, "Ĕ": 208, "estern": 3330, "Sarah": 29284, "Struct": 44909, "Notable": 45533, "Ġmodernization": 49400, "ĠAgents": 28295, "ĠSwansea": 36019, "gamer": 36515, "oola": 10513, "Ġconfronting": 31291, "Ġsells": 16015, "Ġrain": 6290, "mates": 7300, "Ġdocuments": 4963, "mittedly": 43011, "Ġmultiplication": 48473, "Ġdelivering": 13630, "ĠStates": 1829, "kr": 38584, "Ġslump": 37758, "Ġnurses": 20669, "Ġdisparities": 35797, "eral": 1691, "ĠCrafting": 44450, "atown": 41079, "yards": 33750, "med": 1150, "Ġcontra": 25736, "cache": 23870, "ĠRussell": 11563, "ĠIslamist": 17780, "Ġexam": 2814, "Ġcalam": 35765, ",,": 9832, "Ġtiming": 10576, "ĠBrah": 36415, "Ġdumped": 24105, "Ġchast": 30819, "Ġpick": 2298, "south": 35782, "Ġteleport": 32713, "Ġissues": 2428, "ĠTransgender": 44002, "ĠWheeler": 27512, "Ġexporting": 39133, "Nit": 33772, "Ġdoi": 23899, "Ġprolet": 22758, "ĠNit": 24282, "Ġanother": 1194, "Ġmethane": 25006, "ĠCameron": 10821, "ĠPatterson": 27042, "Ġbarbar": 24837, "kamp": 40899, "ĠJab": 24404, "Ġpolarization": 42704, "Ġdiscriminate": 28433, "perties": 18200, "Ġagree": 4236, "Wal": 21902, "ritic": 46015, "ĠTHANK": 49360, "ĠSwamp": 29114, "controller": 36500, "ĠSeg": 31220, "Ġjson": 33918, "Everything": 19693, "Ġtip": 8171, "Ġhop": 1725, "Ġellipt": 48804, "ainted": 14215, "Syria": 40029, "mosp": 6384, "Ġreduces": 12850, "Ġdiversion": 34851, "ĠCrazy": 19932, "Ġsche": 3897, "âĢ": 447, "Ġbattling": 20581, "Ġradioactive": 25521, "ĠPs": 33610, "Ġtransm": 21595, "Ġrestraint": 24596, "pace": 10223, "ĠNapoleon": 28283, ".'": 2637, "Ġdrastic": 27069, "ĠPCs": 21869, "Ġgreedy": 31828, "ĠNissan": 28190, "Ġheight": 6001, "ans": 504, "changing": 22954, "Ġproto": 44876, "Ġdeprived": 26215, "Ġstaying": 10589, "eanor": 17663, "pause": 32125, "Ġchildish": 39765, "Ġpeach": 47565, "_(": 41052, "nces": 3179, "gence": 12745, "pton": 10972, "cko": 37549, "Ġcondolences": 38671, "ĠReaper": 29245, "ĠAw": 5851, "ĠOnes": 32606, "Ġsubter": 43148, "Rep": 6207, "Ġmess": 2085, "Ġ5000": 23336, "sided": 22339, "Asset": 45869, "senal": 10298, "rawn": 5791, "Ġexceeded": 20672, "most": 1712, "ĠAlien": 17610, "Ġseeing": 4379, "ĠTibet": 18910, "Ġphysique": 48226, "Ġalign": 10548, "Ġblazing": 37019, "Ġcontrace": 17473, "Ġcaps": 11022, "Form": 8479, "ĠMagic": 6139, "Ġtuition": 18385, "ĠUniversal": 14499, "OP": 3185, "416": 35218, "Ġwww": 7324, "Ġhero": 4293, "Ġ311": 35592, "IAN": 16868, "ĠSana": 44500, "ĠISIL": 26854, "Ġreopened": 37415, "Version": 14815, "Ġsrc": 12351, "Ġdrip": 36296, "ĠEnough": 31779, "ĠPear": 11830, "Ġsurrendered": 29209, "Ġtransporting": 32331, "Ġunequ": 21149, "ELS": 37142, "je": 18015, "'re": 821, "Ġpurposely": 39033, "Ġcountry": 1499, "804": 36088, "Ġoffsets": 49005, "Ġelectr": 30880, "297": 26561, "ĠMormonism": 49342, "esity": 11924, "FINEST": 40236, "Ġpulled": 5954, "analysis": 20930, "Ġdefinitive": 17347, "Ġmodelling": 38591, "ĠCumm": 30316, "ĠCalls": 27592, "Ġlegitimately": 36491, "ĠFrozen": 23673, "cases": 33964, "ĠWarcraft": 26952, "Ġmagn": 7842, "IE": 10008, "ĠDublin": 18220, "Ġvideos": 5861, "Ġ244": 35264, "spring": 16469, "ĠCongressman": 30700, "zen": 4801, "based": 3106, "ĠGow": 41396, "ĠCOMPLE": 49269, "ĠMat": 6550, "Ġcurl": 29249, "Such": 16678, "Ġenshr": 46919, "Ġtatt": 14399, "ĠMinneapolis": 20455, "Ġproceeds": 15740, "Ġorganizer": 26311, "ETH": 20702, "Ġcompleting": 14339, "ãĥķ": 17681, "ĠãĤµ": 38390, "ris": 2442, "Then": 6423, "ĠGuinea": 22777, "ĠSchwarzenegger": 47507, "facts": 37473, "ĠFD": 30002, "Ġmanga": 15911, "Type": 6030, "aton": 13951, "inant": 42483, "ival": 2473, "Ġdiscl": 5862, "Ġgrievances": 36121, "Ġwebpage": 35699, "ĠYork": 1971, "ĠFaw": 46081, "Stars": 29366, "Ġimperial": 14312, "Ġfortunes": 27806, "ĠYorkshire": 31157, "Ġunreasonable": 24673, "Ġbelong": 5594, "Ġcumbers": 44392, "ĠGates": 15953, "Ġfur": 9230, "ĠJavier": 44492, "ĠBray": 43050, "ĠDouglas": 15796, "ilings": 43271, "Ġcosmos": 39385, "Ġpiercing": 30662, "cultural": 30844, "Ġlongtime": 15076, "Qaeda": 19058, "etrical": 34546, "ĠInnov": 43405, "Ġyielding": 39127, "Ġwar": 1175, "Ġmetal": 6147, "Ġfuelled": 49425, "613": 47512, "Indeed": 17854, "Ġrisking": 37234, "Ġoperation": 4905, "Ġfurious": 21799, "ĠForms": 39196, "ĠREC": 19644, "amide": 37905, "Vis": 15854, "Ġbargain": 22803, "Ġrefriger": 19866, "Ġcontrasts": 39469, "Ġsensible": 20586, "Ġdefend": 4404, "Ġutilize": 17624, "ilty": 6267, "ĠNashville": 19250, "ĠRecreation": 34285, "Bl": 3629, "Ġinterchangeable": 43615, "het": 3202, "Ġanarchism": 41661, "hei": 27392, "Ġarena": 13478, "Strange": 38114, "Ġpatience": 16336, "L": 43, "Ġdogs": 6844, "Try": 23433, "ĠNate": 23486, "Ġfeast": 26951, "ĠAnderson": 9918, "sam": 37687, "Ġmet": 1138, "...)": 23029, "Ġcoincides": 47387, "ogen": 6644, "ĠHoover": 31865, "FIL": 46700, "ĠLorenzo": 41721, "Broad": 30507, "Ġego": 19225, "ombie": 9081, "Ġchannel": 6518, "Ġexposures": 32185, "ĠTDs": 42873, "jay": 33708, "ĠStein": 15215, "Ġunhealthy": 27942, "wh": 1929, "Ġmurdering": 33217, "ĠWHY": 44463, "Ġsoon": 2582, "ĠMidlands": 47989, "ĠParallel": 42945, "ĠJournal": 4913, "Ġiod": 41080, "Washington": 17402, "Ġseven": 3598, "ĠPerez": 23058, "Ġdescriptions": 16969, "Ġcomponent": 7515, "Ġsandbox": 35204, "consumer": 49827, "Ġvolcan": 17516, "Ġchimpan": 36064, "Ä": 128, "WR": 18564, "Ġbout": 18222, "ĠUtility": 34030, "Ġmental": 5110, "Ġbecame": 2627, "Ġurge": 14960, "Ġcomplying": 39076, "Ġpredominantly": 20736, "Ġearnest": 23176, "Ġdistingu": 9418, "Scotland": 47230, "asca": 42688, "Ġaccepting": 12598, "ĠJR": 32598, "Âł": 1849, "PDF": 20456, "Ġdocumentation": 10314, "lish": 1836, "Ġadvertising": 8560, "Ġonto": 4291, "224": 24137, "Ġdynamic": 8925, "Ġprovince": 8473, "ĠInv": 10001, "-[": 49146, "ĠAbu": 13098, "ĠPension": 46391, "kai": 32765, "Ġmenace": 36292, "Ġinquiry": 12069, "PLE": 16437, "??": 3548, "negative": 31591, "arbon": 42084, "Ġgraphics": 9382, "Ġpurity": 25590, "metics": 27757, "Race": 35157, "DeliveryDate": 39749, "ruary": 3728, "ĠRoads": 40065, "DOWN": 41925, "ojure": 32511, "Ġdocumenting": 33045, "ĠDig": 7367, "ĠLog": 5972, "ĠSO": 12809, "Ġjavascript": 44575, "Ġ501": 24555, "Ġcome": 1282, "ĠHann": 14353, "÷": 179, "Queen": 32466, "ctuary": 15258, "Ġdeterrence": 49272, "ĠFlav": 33026, "Ġfacilit": 10410, "ĠHalifax": 34438, "annis": 45017, "ĠTruck": 24892, "ĠJah": 48984, "spir": 45564, "ĠTwelve": 30775, "ĠDenmark": 16490, "Ġopacity": 45912, "Ġclothing": 9528, "Ġapply": 4174, "Ġpessimistic": 46392, "ĠWinds": 22608, "Ġemotions": 10825, "Ġstreets": 6483, "ĠSaturn": 23135, "Ġretract": 34449, "161": 25948, "ĠPink": 14657, "ĠCheryl": 37958, "ille": 8270, "itational": 22181, "ĠBeard": 41698, "Ġimitation": 40260, "ultan": 30454, "ets": 1039, "Ġindicate": 7603, "Ġdistract": 11786, "GER": 30373, "doc": 15390, "Ē": 206, "Ġraping": 34638, "Ġbill": 2855, "Ġpsychiatrist": 31207, "ĠHind": 17099, "Ġ445": 48655, "itles": 30540, "ĠRaj": 13308, "Ġpinnacle": 45985, "sembly": 5997, "ĠTravis": 19804, "Ġadditives": 48348, "lightly": 30945, "Ġmisfortune": 41600, "ĠDevices": 29362, "Ġtradition": 6761, "ologue": 39795, "Ġrobotic": 25810, "Ġshadow": 9082, "Ġoriented": 25921, "ĠTrailer": 36923, "Ġunderestimated": 36190, "ĠØ§ÙĦ": 28981, "ocyte": 43320, "ĠRobin": 12325, "div": 7146, "Ġunbearable": 45253, "ĠInvestigations": 38111, "Ġmurderers": 38313, "kefeller": 31424, "ĠKGB": 40785, "ĠKodi": 44129, "Ġfortune": 15807, "ĠLumin": 43496, "ZE": 21211, "Ġ201": 580, "ĠWraith": 40106, "Ġ427": 45345, "ĠTsu": 23459, "ĠHarm": 17925, "ĠAfrican": 5510, "Really": 26392, "Commun": 30813, "Ġintel": 33649, "Ġdisadvantaged": 36327, "ĠExp": 5518, "ĠAlto": 34317, "Ġacne": 32877, "Ġoval": 41186, "ĠTW": 17306, "Ġlob": 6804, "784": 37688, "ĸļå£«": 33434, "phase": 40715, "Ġbreaks": 9457, "aneers": 33547, "ĠDuck": 21867, "ĠReboot": 50204, "ĠLinkedIn": 27133, "racuse": 28268, "ĠChe": 2580, "ĠCode": 6127, "\"></": 23984, "ANCE": 19240, "Ġoccurs": 8833, "Ġspanning": 32557, "Ġmeasure": 3953, "iring": 3428, "Ġdignity": 16247, "ĠCapacity": 29765, "Ġdispos": 12483, "Ġfollowers": 10569, "Ġpersecut": 32072, "Cu": 46141, "Nation": 46108, "Ġsrf": 27924, "loe": 24617, "ulse": 9615, "ĠDisk": 31664, "-)": 25106, "Ġjungle": 20712, "Michelle": 48736, "ritis": 27398, "Ġincapable": 23402, "ĠFO": 11895, "Ġneuro": 7669, "Ġsprink": 27562, "Ġlest": 27380, "Ġheadlights": 46783, "ï¿½ï¿½ï¿½ï¿½": 12100, "ĠPaddock": 49762, "Ã¡s": 40138, "Ġwarp": 25825, "Ġsufficiently": 17338, "ĠOdyssey": 28032, "Ġdressing": 18544, "%]": 39850, "pressed": 45477, "ĠInterest": 12033, "ĠFra": 39313, "Ġdemocrat": 43268, "Jean": 38248, "quiet": 39624, "resses": 16746, "ciplinary": 29386, "ribut": 2455, "Ġcleansing": 32784, "ĠHAM": 48079, "´": 112, "ĠTownship": 32115, "iza": 23638, "ĠBerman": 43859, "ĠPennsylvania": 9589, "ĠPatch": 17106, "Ġeuph": 40381, "Ġlegalization": 23050, "Official": 28529, "ĠCollective": 29128, "isphere": 22833, "Temp": 30782, "@@@@": 22675, "icons": 34280, "custom": 23144, "Ġjudgments": 24195, "ĠWalters": 43287, "ĠModule": 19937, "Ġcollection": 4947, "ĠVIDEO": 35507, "Ġcumulative": 23818, "vis": 4703, "Ġgul": 47161, "about": 10755, "ĠHydra": 31613, "Suggest": 43857, "ĠEur": 36554, "St": 1273, "Ġhazardous": 26082, "TAG": 42197, "Ġcollision": 17661, "ĠSociety": 7023, "Ġceremonial": 39490, "394": 34626, "ĠBro": 2806, "need": 31227, "riage": 4087, "925": 46351, "Conservative": 42039, "Ġpip": 7347, "Ġ411": 43184, "Ġupstairs": 26148, "please": 29688, "ĠPass": 6251, "])": 12962, "tackle": 36346, "election": 14300, "ĠSTAR": 25424, "visible": 23504, "Ġmis": 2984, "cia": 33743, "oming": 3383, "although": 16670, "Ġanswered": 9373, "ĠFior": 40040, "Es": 23041, "Ġpreferable": 33887, ")))": 22305, "icago": 4549, "iced": 3711, "Ġcloves": 45025, "Ġripe": 29036, "Ġ768": 46720, "ĠSalmon": 43956, "Ġsorcery": 47815, "ĠFiorina": 49028, "Move": 21774, "olan": 16617, "Ġrespons": 2424, "ring": 1806, "Ġbeginnings": 33875, "592": 45839, "Ġtotally": 6635, "ĠCN": 31171, "ĠPedro": 28855, "Ġmankind": 18019, "ãĤ»": 47271, "Ġdisapprove": 48866, "ĠParas": 45020, "Ġmaneuvers": 38974, "Ġnumerical": 29052, "Ġgenome": 19270, "Ġsofa": 34902, "Ġbizarre": 13699, "HC": 16045, "Ġerect": 16417, "ĠEden": 23369, "long": 6511, "ĠMichelle": 16738, "ĠRoyals": 30245, "ĠJul": 5979, "Ġ570": 44626, "level": 5715, "Ġreconsider": 26540, "ĠCLASS": 42715, "ĠBillion": 37085, "Ġbiologists": 43149, "ĠCeltics": 24116, "ĠNig": 13732, "Ġminimal": 10926, "Clar": 48035, "im": 320, "ĠBCC": 49577, "onis": 43524, "ĠOman": 41782, "Ġaggravated": 25890, "Summary": 22093, "Ġencryption": 15835, "illance": 7682, "Ġcleaning": 12724, "jug": 31761, "Ġswept": 17676, "ĠShop": 13705, "Ġsister": 6621, "Ġwindows": 9168, "ĠSochi": 37126, "Ġresurrection": 27556, "essert": 20335, "ĠIo": 27853, "Hal": 40202, "ulp": 29528, "Ġany": 597, "ĠApprentice": 31581, "ĠBattles": 25467, "ĠRosenstein": 41916, "Ġreform": 4975, "Ġsearching": 10342, "ĠBast": 17520, "Ġpc": 40653, "Ġunlawfully": 48843, "Ġnegotiation": 24462, "\"?": 13984, "Ġrelated": 3519, "pled": 10137, "Ġagric": 8986, "Ġment": 6229, "rent": 1156, "ĠMelbourne": 14819, "ĠStyles": 44963, "Ġindividuals": 3925, "ĠTele": 14318, "ATS": 33586, "Ġfirefighters": 22611, "VB": 44526, "ĠArchae": 32187, "Ġ361": 47744, "Ġcryptoc": 15149, "Ġevolutionary": 16673, "irgin": 4672, "Ġstamp": 17977, ".$": 48082, "Ġhitting": 9008, "ĠSon": 6295, "GoldMagikarp": 42202, "Ġ218": 29217, "Ġvigorous": 31543, "ĠPlanet": 11397, "Poll": 39176, "SY": 23060, "Ġcorrecting": 39038, "çīĪ": 48304, "aments": 12604, "Ġnurturing": 47416, "AI": 20185, "Ġtreasures": 29561, "Ġconfir": 4322, "ĠUncle": 23169, "Ġtreasurer": 43428, "Ġprepares": 25978, "ĠLeg": 3564, "Ġliteral": 18875, "ĠBalls": 39332, "ĠDefendant": 43402, "ĠNeuro": 13782, "Ġmultic": 47368, "CR": 9419, "Ġcurtains": 41160, "ĠAttributes": 49213, "Ġpeculiar": 19501, "ĠBach": 25332, "Ġweave": 37982, "ĠCos": 10437, "ĠMEM": 35153, "âĸĪâĸĪâĸĪâĸĪ": 20503, "Ġcarcin": 28164, "Ġreimburse": 25903, "Ġ237": 34385, "ĠDragon": 2851, "ĠMustang": 31163, "ĠTimbers": 40200, "ently": 1473, "ĠAvailable": 14898, "ĠNikki": 34108, "Ġcomma": 39650, "Ġmound": 31446, "Z": 57, "ĠMeredith": 40378, "Ġprocedural": 27931, "PI": 11901, "Coll": 22667, "eki": 39548, "ĠEdit": 5312, "Ġmargin": 10330, "ĠMSM": 44401, "Ġant": 1885, "Ġ25": 1679, "bah": 47041, "Spanish": 43584, "ĠModel": 9104, "\\\\\\\\": 13426, "Ġlistings": 26890, "Ġgospel": 21443, "Tea": 49770, "Ġcontamination": 22733, "Ġfigures": 5538, "ĠYa": 26421, "Ġthug": 47641, "Ġfilmmaker": 26479, "uebl": 45749, "iamond": 8446, "fter": 637, "Ġintelligence": 4430, "ĠFINAL": 25261, "Ġculturally": 30573, "ĠHash": 21059, "ĠFal": 9596, "oiler": 20837, "ĠLauderdale": 45577, "Ġrap": 4095, "ĠXperia": 41710, "Ġcontemplation": 50152, "DON": 41173, "medi": 2379, "Ġ())": 32865, "ĠBEFORE": 38331, "ĠSharia": 38627, "Ġentertainment": 9739, "Ġpickup": 19422, "ĠTelesc": 34495, "ĠCOR": 23929, "163": 24136, "Ġshrine": 29981, "Ġencode": 37773, "ĠTraditional": 29065, "abul": 16665, "Ġindo": 23046, "Eat": 47659, "Ġconformity": 39974, "availability": 47274, "Ġdoes": 857, "inki": 38799, "ĠDuke": 11083, "Pl": 3646, "Ġfarther": 18485, "Ġeasing": 33672, "Ġespresso": 48247, "æĹ": 33768, "pering": 21255, "517": 48170, "ĠAsgard": 41008, "Ġcomrades": 24863, "ĠOverall": 14674, "ãĤ½": 47559, "Ġbr": 865, "Ġrespects": 19410, "yrics": 14279, "management": 27604, "ISTORY": 42480, "ĠThy": 31468, "Gl": 9861, "Take": 12322, "Ä«": 18962, "419": 45068, "FP": 5837, "Ġcrystall": 31578, "state": 5219, "Ġbytes": 9881, "ĠRusty": 47449, "ispers": 27148, "ĠDespite": 7945, "til": 47163, "ĠGerr": 45140, "ĠHouse": 2097, "onymous": 6704, "Ġhospitality": 33362, "ento": 50217, "Ġworldwide": 8688, "Ġthriving": 27723, "ĠGO": 10351, "ibo": 26762, "lore": 31131, "fters": 47131, "Ġ53": 7192, "ĠIT": 7283, "Ġcountless": 12925, "ĠEston": 24633, "Ġethnicity": 26289, "Ġmildly": 33544, "ĠReceiver": 39106, "Ġteaser": 38388, "ounge": 20891, "ĠFresno": 39927, "Ġmixing": 17090, "ĠPublishing": 23499, "Putting": 46399, "333": 20370, "Ġrevol": 35891, "Ġtoler": 8214, "Ġcommunists": 40938, "ĠVerb": 49973, "Ġinitiation": 30122, "Ġsubsection": 8371, "Ġnortheastern": 38131, "ĠCompass": 46175, "Ġintriguing": 19827, "Ġblues": 25570, "ĠInstead": 5455, "Ġinterval": 16654, "Ġoverfl": 32876, "ADS": 47149, "Ġhidden": 7104, "Ġ185": 22855, "Ġtowards": 3371, "Ġher": 607, "Roaming": 27352, "ovan": 22590, "Ġwelf": 9468, "ĠCable": 20249, "Beta": 43303, "Ġgonna": 8066, "Ġmuttered": 34042, "Ann": 18858, "ĠBritons": 43310, "Ġgarg": 44671, "Ġsched": 6038, "val": 2100, "âĢĵ": 1906, "iltration": 36055, "ĠBinary": 45755, "Ġprintln": 44872, "Ġpeeled": 42617, "ĠMountain": 9638, "Ġdelusional": 45935, "Ġcla": 26435, "Ġblames": 34061, "ARDS": 48294, "ĠRather": 11317, "Ġmalfunction": 35654, "Ġsock": 32263, "Rail": 44631, "Ġservic": 37756, "Ġtides": 46128, "Ġaffects": 10975, "ggle": 16444, "Ġbarric": 31853, "ignant": 25114, "president": 22540, "ĠFrequency": 31902, "ĠAdmir": 21177, "Ġamended": 11412, "ĠÂ·": 14128, "Ġhybrid": 14554, "Ġhabit": 7947, "Ġlazy": 16931, "Ġbiomark": 49951, "speak": 47350, "Ġmidfielder": 18707, "Ġsimpl": 7106, "ĠFlint": 21660, ">>>": 33409, "Ġmerchant": 20729, "ĠPilgrim": 46440, "ERN": 28778, "Ġadult": 4044, "ĠSuperintendent": 34058, "Ġbackwards": 16196, "Ġstands": 6296, "Ġscrib": 44661, "usra": 28352, "ĠStrong": 13535, "Ġformulate": 46418, "ĠPatel": 33110, "alien": 42690, "Ġsque": 35776, "Ġawarding": 46116, "Ġlit": 6578, "480": 22148, "Ġpasture": 46753, "ĠParts": 22349, "stay": 31712, "ĠMedium": 13398, "Ġbud": 3600, "ĠCologne": 34923, "Ġsimilarities": 20594, "Ġsidelines": 29394, "Ġthrows": 12542, "ĠAud": 7591, "ĠFIRST": 31328, "Ġpowers": 5635, "Ġspecializing": 40847, "Ġcliffs": 41724, "ĠObviously": 16263, "fighter": 24733, "apache": 43073, "OE": 27799, "Police": 9039, "Cop": 13379, "ĠToro": 42952, "Ġtry": 1949, "Ġcarbohyd": 19476, "ĠTrick": 30028, "Ġphase": 7108, "French": 24111, "ĠLethal": 47281, "Ġstarship": 48744, "Ġdangerously": 33247, "ĠISI": 22048, "Ġeyes": 2951, "apters": 12126, "Ġconsumers": 7008, "Ġ355": 36561, "Ġaffecting": 13891, "Ġlanguages": 8950, "Ġimpover": 30956, "ieved": 39591, "estate": 44146, "Ġrename": 36265, "Ġenslaved": 39216, "Ġ502": 47233, "Ġabsent": 13717, "Î½": 26180, "ĠCongo": 25935, "agi": 18013, "ĠInvestigative": 43965, "oses": 4629, "ĠCurrency": 20113, "rc": 6015, "?]": 26398, "iron": 1934, "Ġstations": 8985, "ĠAds": 47442, "iannopoulos": 36408, "aud": 3885, "ĠSense": 24956, "ĠMorsi": 41842, "017": 29326, "ĠSWAT": 36272, "credit": 43082, "âĢ¦âĢ¦": 7398, "ĠMaze": 33412, "Ġrealizes": 23660, "Ġtakeoff": 45306, "Ġcran": 41286, "ranging": 32319, "Ġcompanion": 15185, "bra": 16057, "ĠObj": 38764, "Ġstal": 29049, "Ġ109": 16003, "ĠProxy": 38027, "OTA": 29009, "Ġwing": 8539, "ĠTou": 23359, "Ġuncons": 13962, "Ġdespised": 44990, "Ġbalk": 48776, "Ġninth": 19646, "ĠFriends": 14213, "uction": 8110, "ĠRights": 6923, "Ġobsession": 22286, "alin": 14414, "Ġwrink": 34866, "olog": 928, "oll": 692, "Ġenerg": 19647, "110": 11442, "nea": 39718, "ĠNerd": 44031, "csv": 40664, "Ġpsy": 17331, "ĠDriver": 12434, "ĠHeat": 12308, "informed": 35698, "Ġ251": 34489, "ĠTrends": 34308, "Ġrequests": 7007, "black": 13424, "Nature": 46934, "ĠWhit": 13183, "Ġconcepts": 10838, "Ġdestiny": 22701, "ĠWeekend": 30537, "Ġreconcile": 33570, "ĠAlphabet": 45695, "Ġstat": 1185, "7601": 42752, "ĠTeaching": 38094, "Ġdug": 18735, "ĠClimate": 13963, "Ġchallenger": 32127, "bridge": 9458, "ĠLic": 10483, "ĠWill": 2561, "Ġascending": 41988, "Ġexperiments": 10256, "ĠBench": 25187, "Ġfacebook": 23960, "ĠBlockchain": 29724, "Ġsuperiors": 41557, "Package": 27813, "ĠThought": 27522, "Boot": 36476, "ĠAgg": 19015, "MENTS": 28957, "Ġnoteworthy": 30902, "Ġfrustrations": 40447, "ĠSY": 19704, "Appearances": 47569, "Ġelse": 2073, "ĠBALL": 46433, "Medic": 39112, "Ġdeck": 6203, "ĠWarp": 31382, "ĠDefenders": 26983, "ernand": 13023, "ĠFTA": 48076, "Ġplayers": 1938, "Ġcrossing": 12538, "Ġthreatening": 11123, "Ġmuted": 38952, "Ġnewspaper": 7533, "Ġassortment": 36168, "Ġstrikeouts": 36431, "ĠSeriously": 27777, "Ġarming": 44306, "Results": 25468, "Ġtyph": 37428, "building": 16894, "Ġbroadcasters": 38716, "ĠDMV": 49887, "ĠJenn": 9777, "Cong": 18649, "Ġlucid": 45464, "Ġhob": 32724, "Ġbirth": 4082, "Joshua": 47740, "ĠCompet": 38558, "ulated": 4817, "PO": 16402, "Call": 14134, "Ġunveiled": 18475, "Ġsubclass": 47611, "Ġrupture": 46836, "Ġfaculties": 47126, "Ġhi": 23105, "Ġshuttle": 20992, "æĸ¹": 43095, "Ġhierarchy": 18911, "ĠWee": 48643, "orig": 11612, "Scot": 37559, "ĠMac": 4100, "ĠCommunity": 8108, "1979": 33581, "Ġquot": 23611, "orney": 4195, "ract": 974, "ĠHuss": 35085, "Ġdistribut": 11309, "ĠAlexandria": 27872, "ĠCalder": 36468, "ĠLua": 43316, "445": 43489, "ĠMartial": 28526, "ĠMed": 2019, "ĠTory": 19037, "Ġsignings": 42113, "adjusted": 29117, "Ġconspic": 30034, "ĠDE": 5550, "selection": 49283, "Ġgrat": 14586, "ĠCatalog": 44515, "ĠDays": 12579, "hide": 24717, "UTF": 48504, "secution": 9534, "Ġdefenders": 16355, "untary": 26468, "ml": 4029, "clip": 15036, "bourne": 12544, "Ġentit": 26189, "ĠPelicans": 48206, "Ġchip": 11594, "Jordan": 34522, "Ġhash": 12234, "ĠFOX": 19912, "ĠSeas": 32306, "ĠJelly": 37152, "isle": 20919, "Ġadmission": 13938, "ews": 15515, "ĠHeb": 27030, "ĠRecre": 30009, "chal": 38009, "ĠAmong": 9754, "OTH": 26946, "ĠBowser": 36925, "Ġlesbians": 34210, "Ġcerebral": 31169, "Ġnutrients": 20901, "Ġinterpret": 6179, "christ": 43533, "Ġsurveillance": 8452, "washer": 45146, "upload": 25850, "ĠMorg": 37417, "Ġvictim": 3117, "och": 5374, "Ġplausible": 19756, "ĠGPA": 45283, "AMD": 28075, "look": 5460, "warm": 31975, "Mobile": 17066, "Ġdehuman": 48772, "ĠBA": 23715, "ĠPLA": 45838, ")-": 13219, "ĠRefer": 33973, "ĠPatt": 24682, "ĠDrone": 38959, "1978": 37950, "ĠInstruction": 46486, "uit": 5013, "Ġtimes": 1661, "rived": 36207, "Dec": 10707, "WHERE": 47357, "adv": 32225, "ĠExclusive": 35651, "Ġretire": 8058, "Ġpetition": 8853, "ĠWinn": 19454, "Names": 36690, "\"]=>": 23785, "ritch": 46510, "hoe": 38979, "ĠTurks": 28448, "Ġauthored": 33941, "ĠDeveloper": 23836, "\",\"": 2430, "Ġmute": 38723, "ĠNiÃ±o": 47931, "ĠTues": 48496, "ĠJaguars": 28392, "ĠAboriginal": 26432, "arth": 11999, "Ġunemployment": 10681, "Ġcryptocurrencies": 29760, "ĠGovern": 3948, "Ġsector": 6567, "ĠUz": 40919, "IER": 38311, "ĠDisable": 31529, "Ġreperc": 32846, "Ġprovides": 3769, "Ġconsolidated": 27890, "ĠMove": 10028, "ailed": 6255, "enery": 24156, "294": 27696, "ãģķ": 43357, "ĠShould": 10358, "Ġtame": 37812, "heid": 28420, "ĠAthens": 21891, "Ĭ": 232, "ĠExtended": 24204, "ĠGain": 21686, "Ġreservations": 24722, "Ġfinals": 18576, "Ġgives": 3607, "Ġsubmarines": 34031, "Ġspoof": 42078, "ĠHass": 20300, "uto": 9390, "ĠLegend": 9883, "Ġ1024": 28119, "ĠSPECIAL": 38846, "Ġsubconscious": 30931, "Ġimagination": 13843, "Ġprocessing": 7587, "ĠBihar": 45301, "osures": 16091, "OTS": 33472, "overed": 2557, "aney": 22297, "ĠHOUSE": 46586, "Ġinspect": 10104, "Ġhig": 1880, "ivating": 39438, "ĠDARK": 46455, "cost": 15805, "HAM": 33363, "ĠNero": 46810, "Ġmag": 2153, "ĠEdition": 5061, "Ġdragons": 20308, "Ġdiffers": 24242, "ĠGingrich": 29855, "ĠBesides": 16238, "ĠBirds": 27124, "ELL": 23304, "ĠFishing": 28944, "Ġtest": 1332, "ĠCCTV": 36983, "Ġgrade": 9559, "Leader": 45009, "ĠUNC": 39151, "Ġgruesome": 34557, "Ġsubpoena": 33262, "dor": 40180, "___": 17569, "ĠNewark": 30970, "ĠEVE": 32356, "!!": 3228, "Ġavert": 45347, "ĠASC": 25400, "activation": 48545, "ĠNetanyahu": 17104, "Reader": 33634, "ãģ¦": 28134, "ĠCV": 26196, "eer": 28153, "arte": 32074, "ĠSheet": 21616, "Ġgu": 915, "ĠKessler": 46474, "Ġtowel": 24808, "Ġhordes": 41872, "Ġeerie": 41128, "Ġdirecting": 21024, "ĠSack": 49175, "ĠHes": 44773, "ĠZig": 24992, "Si": 42801, "Ġcarriers": 16651, "Ġprofessionally": 28049, "Ġmortgages": 30401, "onen": 34481, "asma": 11797, "Ġhilar": 17570, "ĠRecording": 43905, "weeney": 41681, "Ġplagued": 27909, "Sat": 20245, "æľ": 17312, "Ġintegrated": 11521, "Ġdiscern": 22024, "fam": 44769, "Ġpadded": 44582, "Ġbeach": 10481, "jp": 34523, "dh": 34985, "Ġdeliberate": 18988, "ĠSapphire": 35718, "redo": 48454, "Ġploy": 46945, "Ġimporting": 33332, "Ġlicences": 45475, "ĠColeman": 22687, "Ġstabbed": 21512, "ĠLockheed": 34238, "ĠHF": 42253, "Ġglaring": 29097, "ĠStam": 30097, "iqu": 1557, "Ġproceeded": 18814, "plement": 26908, "Ġmiscon": 27849, "Ġimpartial": 32521, "ĠJamie": 17826, "Ġpublishers": 17604, "Ġbackbone": 32774, "oros": 40877, "quel": 31735, "Ġlawsuit": 8087, "ĠFloyd": 21150, "Ġtrump": 19997, "trust": 38087, "ĠCaval": 21753, "Ġprosperous": 32757, "Ġbreeze": 28633, "ĠSessions": 15184, "Ġstyl": 22152, "ãĤ¨": 23544, "Hom": 28718, "ĠQuant": 16972, "uri": 9900, "ĠBerkshire": 49927, "Ġgrill": 29901, "ĠMaul": 40580, "Ġimpression": 10647, "ĠTopics": 34440, "ĠMald": 37490, "GT": 19555, "Ġmanag": 2358, "Ġinherited": 19552, "FER": 24302, "parable": 37064, "ĠLiberal": 12266, "colo": 45745, "Ġhors": 45334, "ĠCrossRef": 42750, "ugi": 45659, "Ġcardiovascular": 21134, "inois": 8981, "verts": 24040, "ĠLook": 6803, "views": 33571, "Ġembod": 13968, "Ġcog": 43072, "ĠPoison": 19357, "Ġhandwritten": 45916, "Ġamput": 40338, "ificantly": 42491, "Ġtutorial": 11808, "Ġhue": 37409, "âĢ¦)": 38418, "Ġovert": 9929, "Domain": 43961, "ĠChannel": 11102, "idelity": 23091, "ĠMobil": 45951, "Ġcapsules": 43882, "Ġdiscount": 9780, "ĠRegulations": 26108, "keye": 34929, "ĠRunner": 21529, "Ġfor": 329, "iesel": 29893, "ĠBahamas": 45726, "Ġexcessively": 40437, "Ġcondemned": 15006, "Ġsouth": 5366, "Ġdescend": 15350, "Ġproficiency": 32102, "Ġintervene": 22432, "================================": 10052, "ĠSaskatchewan": 31346, "Ġkilomet": 11866, "ĠPierce": 23023, "ĠRIS": 45698, "ape": 1758, "Ġsk": 1341, "bender": 45666, "Ġones": 3392, "Ġdiscarded": 25148, "ĠZone": 13035, "nu": 28803, "Ġops": 39628, "fg": 40616, "ĠVenom": 33284, "m": 76, "Ġshorter": 12238, "brates": 44835, "Ġinhibits": 49543, "Ġattackers": 16391, "supp": 18608, "otally": 38908, "ĠALP": 42674, "Ġbuzzing": 41719, "008": 25257, "mentioned": 17181, "Ġnested": 28376, "ĠYemeni": 38534, "Ġdesignate": 32781, "Ġcircumcised": 45522, "ĠGi": 8118, "our": 454, "ĠPapua": 46117, "Ġway": 835, "Steve": 19206, "ILL": 8267, "Ġhumble": 19695, "ILS": 45484, "Fre": 20366, "isk": 1984, "Ġcompetent": 19701, "ob": 672, "inc": 1939, "Honest": 37411, "ĠDrink": 32906, "ĠNATO": 11332, "isal": 28456, "Ġfallout": 27707, "ĠLounge": 36333, "rs": 3808, "ĠTales": 15214, "ĠVampire": 21463, "Ġtraced": 23246, "Here": 4342, "Ġweakened": 24135, "aqu": 36129, "ad": 324, "Ġsubsidies": 16230, "ĠChart": 22086, "Ġhep": 47585, "Ġinval": 29712, "ickson": 46381, "Ġargument": 4578, "iseum": 38277, "Ġresponsibilities": 15171, "projects": 42068, "Ġcombine": 12082, "Ġgladly": 35092, "ĠMidnight": 27960, "989": 42520, "NVIDIA": 38021, "Ġphenomen": 7581, "Ġundecided": 39511, "Ġcrowd": 4315, "Ġyogurt": 32132, "lov": 27086, "Ġcoron": 26920, "ĠHealth": 3893, "ruction": 2762, "Ġpatient": 5827, "ĠSpotlight": 49014, "ĠBrav": 32780, "Ġunaff": 25312, "VAL": 23428, "Ġinconsistency": 43831, "Ġskulls": 38556, "ĠPrompt": 45965, "Ġbosses": 17317, "digit": 27003, "assing": 19696, "ĠVent": 15716, "ĠLiberties": 34226, "Ġhaw": 23185, "Ġincentive": 15660, "pec": 43106, "Ġcommemor": 28723, "Ġ205": 22538, "ĠBacon": 28548, "GROUND": 46025, "pecially": 2333, "ENE": 39267, "Draw": 25302, "ĠJohn": 1757, "CAST": 44647, "Ġdeductible": 42161, "Ġmembership": 9931, "quist": 30062, "ĠDomin": 11817, "ĠErin": 28894, "Ġkios": 46739, "ARP": 36035, "estyle": 10992, "ĠPlayStation": 14047, "Factory": 22810, "Ġconception": 19759, "arching": 38270, "Ġhardness": 49604, "Ġenemy": 4472, "rav": 4108, "Ġcous": 13233, "ĠSunderland": 35706, "Ġdonated": 15863, "ĠLeaves": 46597, "Ġclashed": 37003, "ĠNinth": 32547, "Ġreasons": 3840, "Ġoverdose": 27357, "Ġbere": 45303, "Ġ([": 29565, "Hour": 43223, "Ġairst": 20253, "Ġrecommended": 7151, "Ġdurable": 20923, "chairs": 49655, "ĩ": 229, "Ġbrightness": 22204, "ĠMalcolm": 20002, "__": 834, "ĠPeer": 41139, "Ġpocket": 10000, "addy": 13218, "Ġpaws": 49193, "ursday": 3479, "Ġcommissions": 30421, "Ġcontainers": 16472, "Ġvalidate": 26571, "Ġmurdered": 12864, "ĠEuropean": 3427, "Ġcontro": 1246, "Ġauthenticated": 44529, "ĠIndeed": 9676, "ĠYuri": 38450, "entity": 26858, "SK": 18831, "Ġfatalities": 30091, "Ġmerging": 35981, "Ġpartisans": 39959, "Ġ2009": 3717, "Ġtwisting": 36373, "Ġprototype": 14879, "LY": 11319, "Ġaccompl": 6424, "Ġrooms": 9519, "Street": 34356, "ĠPanther": 30364, "Ġfeminism": 19394, "Ang": 13450, "Ġ><": 28725, "Mis": 31281, "Ġdrinking": 7722, "Ġ2018": 2864, "bow": 8176, "¶ħ": 41678, "Ġbuilder": 27098, "Ġsuspicion": 15123, "Ġunavoidable": 37645, "ĠBurnett": 46039, "Ġhawk": 48710, "ĠHemisphere": 42811, "Ġclerics": 47964, "ĠAcc": 6366, "ĠAUT": 47044, "ĠDimension": 34024, "Ġlay": 3830, "ĠElite": 16158, "Ġreasoned": 37857, "ĠAge": 7129, "ĠBlacks": 27875, "Ġviewing": 11681, "ĠGl": 2671, "ensive": 2021, "ĠHunger": 32367, "Ġterror": 3246, "Ġbypass": 17286, "ĠJar": 15374, "ichita": 41940, "evil": 23542, "Ġskate": 22647, "KT": 42176, "Ġaust": 38132, "nova": 38438, "Ġinsert": 7550, "ĠProgramming": 30297, "Ġdj": 42625, "efully": 7549, "CBC": 29208, "Ġhacking": 15656, "Ġvicinity": 25980, "760": 40761, "Ġsquadron": 40733, "exc": 41194, "Ġcommented": 16476, "Ġmerchants": 21779, "æĺ¯": 42468, "Ġreception": 16307, "Ġremembers": 18140, "Ġfather": 2988, "ĠDisabled": 43201, "Ġgit": 17606, "Ġarchetype": 37942, "education": 40796, "ĠStudent": 13613, "Ġboldly": 42831, "Newsletter": 33031, "tal": 39240, "ãĥĭ": 30165, "Ġfinance": 9604, "Ġvinegar": 26600, "ĠSuperman": 14951, "redit": 7470, "...": 986, "©¶æ": 47490, "Ġchat": 8537, "ep": 538, "Ġconfined": 19733, "results": 43420, "210": 21536, "Ġamusement": 30184, "Ġmilit": 2036, "Ġhypocr": 25258, "ĠBoom": 31824, "Ġhamb": 41478, "lit": 18250, "ĠFreud": 33430, "ttes": 13036, "ldon": 25900, "Ġcorrelated": 23551, "Asked": 18932, "cli": 44506, "ĠIzzy": 46359, "Big": 12804, "ĠTake": 7214, "develop": 16244, "Ġrabid": 49666, "Ġavenues": 34265, "inst": 8625, "Ġexpression": 5408, "Ġholistic": 42923, "Ġpin": 6757, "arez": 19655, "Ġtier": 14249, "communications": 20860, "Ġvaguely": 29627, "Ġintermedi": 30127, "InstoreAndOnline": 40241, "uph": 25689, "Ġpecul": 18699, "ĠSeeds": 41833, "ĠGut": 27549, "ĠDollars": 45792, "66": 2791, "Ġredress": 48586, "Ġprinting": 13570, "Ġtast": 14854, "iasis": 48455, "Ġnut": 6701, "799": 45455, "fitting": 32232, "Ġwaterfall": 42467, "Ġsweats": 39387, "Ġessentially": 6986, "Ġmessaging": 19925, "ocide": 16207, "Ġguard": 4860, "Ġschemes": 16546, "Ġpretended": 36766, "Ġwaving": 25849, "iao": 13481, "Ġfoster": 17016, "Ġrods": 32858, "25": 1495, "ULL": 9994, "ĠWalking": 21276, "Ġhumorous": 36102, "doing": 19631, "ivalent": 29540, "ĠHook": 18531, "Ġunab": 40986, "Ġwaivers": 35633, "tr": 2213, "339": 29626, "ĠElvis": 35169, "Ġppm": 39719, "Attach": 33296, "Ġprosperity": 19519, "ĠJarvis": 46595, "Ġtremendous": 12465, "mone": 47122, "oted": 5191, "ĠStrateg": 17611, "ĠRestrict": 37163, "ournament": 5138, "phia": 8193, "wered": 8279, "Ġsed": 10081, "ĠShield": 10022, "ĠKee": 19799, "ĠXX": 21044, "rollers": 36667, "ĠDynamic": 26977, "ĠMUS": 39484, "ateful": 11850, "ĠOlympia": 45760, "ĠPLUS": 48635, "ĠCoff": 28584, "oman": 5185, "ĠMacintosh": 48087, "ĠSecond": 5498, "ĠHermes": 41167, "ĠCreep": 41682, "ĠCup": 5454, "ITIES": 30383, "Ġtemplates": 24019, "Ġyielded": 26403, "Ġlamb": 19343, "ĠBald": 17048, "ĠShiv": 43305, "Ġled": 2957, "ĠJeremiah": 40192, "dig": 12894, "Cod": 43806, "Ġbuy": 2822, "unte": 6311, "ĠVanilla": 33897, "querade": 33357, "nant": 22057, "keepers": 24952, "Ġoffshore": 18479, "ĠRX": 24202, "Ġpaper": 3348, "Ġmunitions": 39586, "Ġhavoc": 29860, "Ġlifes": 25622, "Ġdecisive": 21112, "Sh": 2484, "265": 22980, "ĠSERV": 42887, "Palestinian": 35969, "Ġstunt": 25756, "bis": 41907, "oley": 48437, "Ġchore": 30569, "Ġdowngrade": 48514, "ĠMexico": 5828, "Ġconstituency": 28280, "Ġrecons": 23898, "Ġscarcity": 35501, "ĠBrist": 23072, "ĠComparison": 34420, "Ġsynopsis": 48830, "515": 45969, "Ġelegance": 49198, "ĠAST": 29273, "Press": 13800, "Ġblow": 6611, "Ġwel": 5029, "Ġ<!--": 37922, "Ġpersonal": 2614, "Ġgib": 46795, "perate": 30052, "ĠAttorney": 8123, "Sean": 26408, "Ġexhibits": 27508, "hal": 14201, "chedel": 24015, "Ġmeta": 13634, "Ġactively": 10630, "ĠCarrie": 32462, "ĠSexy": 49131, "ĠUnc": 28304, "ĠCrusader": 33765, "prem": 31605, "Ġacceler": 8320, "us": 385, "ĠLocations": 41277, "ĠWilderness": 40432, "ĠMethodist": 38029, "Ġ1440": 49557, "Rad": 15546, "multipl": 47945, "ĠRAM": 13931, "Ġobservable": 42550, "Ġwhats": 45038, "MpServer": 31765, "Ġfloral": 38838, "Ġslower": 13611, "Until": 18273, "Ġsurgeries": 33624, "Ġsexual": 3206, "ĠPeriod": 18581, "Ġnond": 30745, "Ġchewing": 36615, "Ġreprodu": 8186, "Ġhints": 20269, "RW": 46747, "Ġentrusted": 37984, "Ġedible": 35988, "Mer": 13102, "leted": 33342, "Ġeditions": 23713, "Ġsmallest": 18197, "ĠAad": 38746, "ĠWaterloo": 36782, "Ġdodged": 49392, "Ġdivisive": 29656, "Ġawkwardly": 43622, "ĠRally": 27752, "outine": 28399, "ä½¿": 45635, "thodox": 12836, "Ġcharcoal": 33512, "Chest": 45170, "Ġcartel": 34430, "Ġplays": 5341, "ĠBelg": 10952, "Ġproposal": 6961, "ĠEvans": 13922, "Ġother": 584, "ĠSomehow": 36651, "wife": 22095, "Delivery": 33129, "Ġshri": 35064, "stick": 13915, "worker": 28816, "Ġkcal": 49504, "Ġsupplies": 9416, "Ġitem": 2378, "ĠFEMA": 43575, "ĠMissing": 25639, "ĠVall": 46929, "ĠViet": 8730, "inators": 47721, "Ġpremiums": 21884, "\"))": 48774, "ĠExpand": 49368, "ĠMechanical": 19663, "Ġphilos": 5622, "ĠRey": 24448, "Ġplugin": 13877, "ifact": 29660, "ĠBucket": 48353, "ĠArticle": 10172, "ĠCt": 43166, "ĠShaun": 35188, "ĠMissions": 46006, "Ġnurse": 15849, "Ġexisting": 4683, "ĠDomain": 20021, "Ġchapel": 43398, "ĠByron": 36719, "Ġconjecture": 46768, "ĠShipping": 24147, "Ġcompatibility": 17764, "ĠPastebin": 29582, "Ġbisexual": 24249, "oliath": 43009, "arg": 853, "Select": 17563, "Ġrocket": 10701, "Ġhelmets": 28359, "ĠGAM": 49965, "Ġcore": 4755, "handler": 30281, "ĠToyota": 20182, "ĠCompact": 37904, "Ġimplicated": 28344, "Ġstoring": 23069, "fortable": 12065, "WER": 45532, "ĠPlayer": 7853, "Ġcoffee": 6891, "ãĥĵ": 36922, "Ġrooft": 27291, "agon": 1840, "Ġ[+]": 47175, "ARA": 24401, "Ġ#####": 46424, "Opp": 27524, "Ġservants": 17523, "Ġanimated": 15108, "Ġscorer": 30664, "Ġcompositions": 33543, "Ġmercenaries": 37569, "Closure": 45398, "BOX": 39758, "ĠKING": 32957, "emy": 3065, "Ġver": 3326, "Ġtold": 1297, "Ġfeds": 43646, "March": 16192, "IST": 8808, "Ġnation": 3277, "ĠPsychological": 30583, "ĠPradesh": 25945, "ĠAnkara": 28760, "Ġdiminishing": 35197, "Ġpolymorph": 34196, "ĠSV": 20546, "ĠBoxing": 35921, "Ġconstants": 38491, "ppo": 16634, "spl": 22018, "rex": 21510, "Whatever": 21875, "sequence": 43167, "jump": 43327, "ĠHalf": 13139, "docker": 45986, "BLIC": 32936, "aska": 8480, "ariat": 21621, "ĠSomers": 39879, "Ġtool": 2891, "nv": 48005, ")=": 47505, "Ġcarry": 3283, "nan": 12647, "ĠBlossom": 35544, "weapon": 28741, "Ġborrowers": 31617, "tek": 35424, "Ġsan": 5336, "ĠIndo": 40136, "qua": 39566, "Ġcategor": 17851, "679": 37601, "Ã©": 2634, "ants": 1187, "Ġdefe": 7503, "Ġepis": 48177, "ĠGlover": 43487, "mberg": 47369, "ĠPolit": 7793, "letico": 47286, "izers": 11341, "Ġsprite": 33810, "onnaissance": 31539, "Ġnutrition": 16633, "\\\\": 6852, "ĠMulti": 15237, "Ġstemmed": 44997, "Ġtampering": 42471, "Ġlake": 13546, "Ġ.": 764, "ĠHannibal": 41949, "rieve": 30227, "ĠThose": 5845, "662": 39380, "Nine": 37603, "aciously": 45289, "UD": 8322, "Ġtens": 11192, "been": 47436, "Ġastroph": 48782, "national": 14648, "ĠCopy": 17393, "Winner": 48056, "Ship": 25586, "Angelo": 45585, "Ġgrammar": 23491, "Ġendorsed": 17441, "PAR": 27082, "string": 8841, "Ġunsure": 22147, "Tur": 17483, "ĠBasic": 14392, "ipation": 25857, "Ġcommissioned": 20462, "skip": 48267, "ĠEven": 3412, "Ġneurological": 30232, "ĠVirtual": 15595, "pter": 42104, "ĠBrain": 14842, "Ġdrink": 4144, "400": 7029, "Ġmirrored": 40070, "HO": 32298, "ĠTemplate": 37350, "Ġbank": 3331, "ĠTip": 23095, "vity": 21319, "Site": 29123, "âķ": 22880, "Ġthreatens": 20201, "ĠIdeally": 40067, "Ġportions": 16690, "ĠMA": 8779, "endif": 32088, "ĠSummit": 20014, "ĠAmar": 44291, "Ġobser": 7961, "Ġ(!": 22759, "Ġasteroid": 27460, "ning": 768, "Ġcue": 28381, "zin": 42140, "ournaments": 16950, "hani": 29839, "ĠCAR": 17368, "Ġknew": 2993, "Ġanticipating": 40807, "apixel": 48633, "Ġfreezes": 44389, "ĠBrittany": 48773, "he": 258, "ĠSlaughter": 41148, "berra": 31358, "CEO": 46691, "slaught": 30929, "Ġhid": 24519, "ĠKills": 23478, "atern": 9205, "Ġsaliva": 40333, "ĠPACs": 43838, "Ġbulldo": 44767, "INGS": 20754, "eight": 26022, "Trade": 35965, "Ġstr": 965, "pherd": 23111, "Ġstimuli": 25973, "lag": 30909, "ĠParent": 16774, "Ġunfor": 28371, "Whether": 15354, "ĠMexicans": 36783, "ĠIce": 6663, "92": 5892, "ĠDill": 44322, "UGE": 41251, "Ġ41": 6073, "Ġspikes": 27198, "Ġtraged": 12208, "Ġteens": 15508, "Ġlearnt": 26338, "USB": 27155, "ĠHG": 48698, "chan": 3147, "ĠManga": 27024, "Ġpitch": 7078, "ads": 5643, "amp": 696, "grand": 23936, "ĠMerlin": 32918, "ĠHi": 15902, "ceive": 15164, "ĠSev": 37918, "ĠStellar": 39336, "Ġoppression": 18345, "Ġ372": 46633, "Ġrepo": 29924, "Increased": 40281, "ĠSerial": 23283, "Numbers": 49601, "Ġcitation": 27860, "358": 31128, "ple": 1154, "ĠColony": 34480, "Ġsorry": 7926, "ĠStead": 45445, "Ġpicnic": 35715, "ĠDevelopers": 34152, "DCS": 49513, "intuitive": 42105, "Ġcitizen": 9511, "Ġunman": 29389, "Ġblasphemy": 41933, "ĠFinch": 45277, "community": 28158, "762": 48194, "Iter": 29993, "olina": 47196, "Ġseparation": 14139, "Ġ}}": 34949, "?": 30, "Ġmint": 21043, "Ġstri": 2338, "Ġlingu": 20280, "ĠBrussels": 16445, "Ġpoisons": 49121, "Interview": 39945, "ModLoader": 24847, "Ġ++": 19969, "ĠBraun": 34492, "Ġpaired": 20312, "ĠiT": 4748, "water": 7050, "INAL": 17961, "cient": 3456, "Ġrife": 43273, "Ġsupplemented": 41610, "Ġbottled": 34123, "initely": 12998, "Ġuter": 31500, "Winter": 35376, "Ġmaple": 31377, "packed": 34860, "ĠSweep": 42818, "Ġspecimen": 31674, "Ġtheor": 18765, "bler": 43400, "ĠDesigns": 49282, "Ġbased": 1912, "Ġspicy": 26880, "rotein": 35574, "hound": 39047, "reference": 35790, "Ġrumor": 24989, "Ġcylinders": 43386, "Ġauditory": 38949, "ĠCompl": 20011, "Ġaspire": 42926, "Ġcoating": 26749, "sed": 36622, "Ġdeploy": 6061, "Ġwon": 1839, "ogram": 21857, "Ġ02": 7816, "ĠLore": 15639, "Ġants": 27842, "gression": 32383, "igrants": 5663, "Ġinhabited": 30671, "Ġarranging": 41878, "ĠBasil": 32520, "Ġhay": 27678, "ĠSingapore": 12551, "Ġclinics": 21434, "Ġvigorously": 31609, "reach": 16250, "ĠWorm": 28505, "Ġnylon": 36104, "ĠMare": 36989, "Ġunintentional": 48398, "ĠPhen": 34828, "Ġairlines": 26225, "Ġnetwork": 3127, "ĠBreach": 46148, "Ġfalling": 7463, "reads": 40779, "Ġwinding": 28967, "ĠGuru": 38749, "Ġelders": 27495, "Ġbil": 47027, "Ġnominated": 19332, "ĠSang": 30043, "ĠReview": 6602, "Ġerrors": 8563, "Ġpackage": 5301, "Ġtrusts": 31976, "ĠSyria": 4392, "ĠHawth": 41457, "ĠBradford": 28199, "Ġsquad": 8244, "ĠMel": 5616, "Richard": 22245, "ĠBehavior": 20181, "Ġsymbolic": 18975, "ĠMus": 2629, "irk": 14232, "Ġsap": 31841, "Ġriding": 10311, "ecake": 46557, "itative": 12464, "Ġrush": 10484, "ĠSiber": 28394, "INA": 28893, "Ġvacancy": 39836, "lection": 1564, "Ġ396": 48758, "ĠAngela": 17799, "Ġcele": 3879, "ctic": 11048, "Ġvoices": 10839, "Ġtossing": 37432, "Ġantenna": 20509, "Ġè£ı": 6438, "ĠHealthy": 30840, "ĠBugs": 44991, "ĠYong": 40633, "Ġseaw": 32085, "ĠTrin": 33822, "Ġcells": 4778, "Ġprevent": 2948, "list": 4868, "Ġinternet": 5230, "Ġaddr": 37817, "255": 13381, "Ġstump": 42497, "Ġpromise": 6991, "ĠFast": 12549, "ulation": 1741, "rates": 9700, "oshi": 13704, "chemical": 31379, "avored": 48275, "ĠDocker": 25716, "Ġwatered": 48024, "ĠScout": 22529, "Ġbelow": 2174, "Ġpreventive": 37197, "ieg": 15702, "Ġvoted": 7052, "umbai": 21645, "Ġsatur": 17373, "Ġanalogue": 45304, "Ġowners": 4393, "kward": 12378, "Ġfitting": 15830, "Ġingredients": 9391, "Personal": 30228, "iate": 9386, "ĠESL": 34084, "Ġbarren": 39497, "Ġrebuild": 17884, "ĠHEL": 36255, "Ġlevied": 43383, "ĠTransparency": 49165, "Ġmake": 787, "founded": 27060, "Ġunexplained": 43286, "Ġkitten": 42143, "Ġ234": 34323, "Ġbear": 6842, "law": 6270, "isol": 30152, "Ġencaps": 32652, "Ġcursor": 23493, "cot": 25557, "ye": 5948, "Ġdet": 1062, "ĠCue": 40568, "ĠKathleen": 31275, "Ġgenerated": 7560, "ĠAmbro": 43233, "Resource": 26198, "ĠReflect": 36901, "Sec": 6558, "Ġfinale": 19523, "DR": 7707, "Ġdisorder": 8967, "gets": 11407, "Ġoverrun": 33713, "ĠKeep": 9175, "Ġinsin": 43553, "Ġbrass": 20422, "Ġlia": 35388, "ug": 1018, "Ġprototypes": 32338, "Ġnegate": 44328, "CU": 43633, "ĠZimbabwe": 28589, "olar": 6192, "ĠShak": 35274, "Ġbusinessmen": 34643, "ĠVP": 23342, "rossover": 23954, "Ġether": 28475, "ĠPortable": 44685, "Ġchampagne": 37392, "Ad": 2782, "Ġunfold": 16631, "Female": 27273, "Ġmate": 16133, "Ã¸": 24172, "ĠHeidi": 45518, "Ġinvestigator": 20725, "ov": 709, "Ġdetrim": 22316, "ĠGU": 19348, "ĠSynt": 26375, "hesis": 8497, "Ġsentient": 36834, "ĠSiem": 45196, "igion": 17035, "ĠDo": 2141, "Ġgasped": 45236, "ĠKier": 39717, "Ġcomprehensive": 9815, "Ġdavidjl": 23282, "onential": 35470, "Ġbeverage": 24968, "Ġdisl": 19621, "Ġstraightforward": 15836, "Ġdispatcher": 49952, "ĠDress": 33611, "Ġassociations": 15814, "Ġdenominations": 49735, "Ġaeros": 41376, "Ġfairness": 22692, "ĠAin": 31899, "Ġ349": 44367, "Ġcomplains": 41165, "Ġlogs": 17259, "Ġende": 15535, "iam": 1789, "dr": 7109, "II": 3978, "ĠATK": 24526, "FF": 5777, "ĠMeier": 40860, "Ġtet": 28408, "-+-+": 27097, "IVE": 9306, "Ġculprit": 26581, "Ġundercover": 23557, "asking": 30463, "Ġtemples": 27081, "002": 21601, "ĠJes": 4804, "verting": 48820, "Ġcomplete": 1844, "Ġjurisdictions": 25281, "microsoft": 40485, "¥": 98, "arde": 45093, "Ġmarried": 6405, "Ġhosted": 12007, "Chief": 23675, "ĠHannity": 35368, "lect": 801, "Ġsmart": 4451, "ĠAlright": 40967, "Compat": 40073, "Pak": 29675, "mortem": 46515, "ĠCynthia": 40897, "ĠHopkins": 21183, "Ġways": 2842, "Ġfilmmaking": 49291, "ĠDT": 24311, "Ġpacing": 37572, "ĠDaily": 6714, "Ġciv": 36317, "ombs": 33273, "Ġagreeing": 24093, "ĠBeau": 32831, "aut": 2306, "olean": 21052, "detail": 49170, ")}": 38165, "ĠCHRIST": 48354, "asured": 34006, "ilyn": 38020, "ãĥ´ãĤ¡": 44444, "ĠBarnett": 38174, "Ġhide": 7808, "aste": 4594, "ĠAlaska": 12926, "Gov": 23774, "Filename": 35063, "Ġbras": 48029, "Ġbroke": 6265, "Lv": 29507, "=~=~": 33813, "ĠNetworks": 27862, "Ġinvestigates": 44846, "Ġmeme": 25336, "Alexander": 38708, "ĠVoting": 30061, "An": 2025, "Ġmand": 6855, "Ġlubric": 33211, "mx": 36802, "ĠâĪ": 18872, "Ġ[]": 17635, "Ġplayback": 16388, "Ġclerks": 44115, "ĠBat": 6577, "ĠCOMM": 22240, "Ġmodify": 13096, "Ġ{}": 23884, "Ġinsights": 17218, "doms": 23686, "Ġgown": 33323, "ĠMcM": 15359, "ifferent": 17125, "ĠSe": 1001, "ĠMouth": 44764, "mun": 6199, "ĠInstruct": 20689, "ĠPrimary": 21087, "Ġ555": 44717, "Ġcollisions": 31998, "Ġactual": 4036, "edi": 13740, "visor": 13131, "Ġchose": 7690, "Own": 23858, "Ġeleven": 22216, "wy": 21768, "Ġversion": 2196, "Ġparanormal": 47525, "Ġindist": 37665, "ĠMakoto": 40627, "ĠMember": 10239, "Hello": 15496, "503": 31938, "ĠLent": 43751, "cooked": 46591, "inder": 5540, "urally": 20221, "Ġmaterial": 2587, "Ġcomprom": 8382, "Ġrecession": 16457, "Ġcelebration": 14395, "Ġrehab": 14321, "ĠKeynes": 33531, "Ġsurn": 33113, "Ġsweetness": 32073, "Ġrapp": 29106, "Ġbiomedical": 48730, "Ġ05": 8870, "ä½": 19526, "Double": 25628, "ament": 3263, "Ġtractor": 38278, "ANN": 22846, "Integ": 34500, "etz": 23773, "Ġsimulation": 18640, "Ġtray": 26473, "matically": 49454, "750": 15426, "ĠDash": 16189, "EF": 25425, "ĠOrganisation": 30801, "ĠMister": 43438, "Ġrude": 22066, "icky": 17479, "ĠSeth": 20194, "ĠBoth": 5747, "ĠFE": 18630, "ĠDesktop": 27850, "Ġbur": 4356, "ĠVAT": 32313, "ĠMate": 24787, "Ġnos": 43630, "Ġicy": 30284, "ĠLeader": 10540, "Ġsupers": 22754, "ĠNotice": 17641, "Ġdistributed": 9387, "ricane": 11551, "Ġcandles": 32268, "Ġimmedi": 2729, "Ġverdict": 15593, "Ġtolerate": 21923, "Ġ352": 44063, "nut": 14930, "acists": 33194, "Ġbaked": 22979, "ysics": 23154, "ĠGors": 34926, "etooth": 16271, "ĠHaj": 29399, "oston": 5744, "din": 25194, "might": 44092, "Ġrushes": 38596, "omp": 3361, "tarian": 14012, "ĠAudit": 46450, "ĠMoines": 36576, "ictional": 47273, "Ġsac": 5360, "mile": 18085, "Ġprized": 37768, "573": 48638, "Ġembed": 11525, "ĠProfit": 42886, "ĠBorn": 18889, "Ġ415": 40643, "brids": 40637, "412": 39226, "ĠBlackwell": 40622, "undred": 3229, "Ġlaunches": 18617, "Ġcard": 2657, "Ġflame": 16506, "ĠLOVE": 27889, "ibu": 33828, "Ġwelcome": 7062, "Ġembarrassing": 18997, "Ġdement": 24251, "-,": 20995, "clear": 20063, "Ġcalendar": 11845, "ĠNorn": 34121, "Ġnoise": 7838, "zees": 43727, "Ġobservations": 13050, "ĠKemp": 44198, "acles": 9928, "Ġelaborated": 45934, "Ġmajesty": 48565, "Ġcirculate": 49306, "ĠClapper": 44834, "Ġacknowledgment": 48182, "ĠBrew": 9702, "ãģĭ": 27370, "Ġheated": 16968, "Ġdissolved": 26306, "ĠObi": 46662, "ÄŁ": 33133, "¦": 99, "Ġscholar": 15606, "pretty": 37784, "Dep": 12156, "ĠPatton": 40929, "455": 30505, "ĠLeaving": 38068, "Ġpharmacy": 32763, "Ġbrighter": 26083, "ĠCoverage": 33998, "Ġmentions": 15802, "uss": 1046, "!,": 28265, "Ġsir": 15967, "Ġgum": 27142, "dogs": 22242, "Ġforeign": 3215, "ĠSP": 6226, "Ġneighbour": 12250, "Ġintelligent": 12661, "Rain": 31443, "Base": 14881, "floor": 28300, "Ġuncon": 21254, "Ġilluminating": 46717, "ĠHolder": 24210, "UV": 31667, "ĠSens": 14173, "rowd": 3986, "Scott": 19040, "ĠTher": 12634, "Ġsidelined": 39632, "Ġunits": 4991, "Async": 42367, "irl": 1901, "ĠStruggle": 49460, "ĠAccounts": 35584, "Ġadversely": 34079, "ĠCARD": 48731, "Staff": 31449, "Ġsoy": 17797, "ĠSpeak": 40802, "Ġemph": 33595, "osity": 16579, "itiz": 3029, "Ġsustainable": 13347, "dos": 37427, "ressing": 11697, "ĠMOT": 42982, "steam": 21465, "argon": 37920, "UTERS": 14974, "ĠCorridor": 48994, "ĠBar": 2409, "Ġannouncement": 8009, "JC": 34382, "Ġalum": 46518, "Ġmil": 1465, "Ġproxies": 41775, "Ġwiser": 47897, "ult": 586, "asant": 8775, "Ġathletic": 15177, "Ġsession": 6246, "Ġspawns": 44632, "ĠDartmouth": 47888, "except": 16341, "being": 11873, "Ġcryptic": 47774, "ĠGenocide": 48721, "Ġpriceless": 49083, "Ġagricultural": 14240, "Ġdescriptive": 35644, "ĠPAGE": 48488, "ĠBorder": 15443, "ivas": 38630, "Ġfiat": 36984, "äº": 12859, "Ġtrout": 49411, "Ġfloat": 12178, "pine": 23908, "ĠBuchanan": 36358, "ĠNets": 27811, "Ġthrill": 28576, "Ġhates": 24702, "ĠQuake": 42901, "ĠHarry": 5850, "371": 38056, "ĠSteele": 28549, "Ġcater": 20825, "Ġtedious": 32460, "West": 15045, "Ġpermanent": 7748, "andro": 28092, "ĠProcess": 10854, "notice": 42138, "usually": 23073, "Ġvantage": 47929, "Ġbruising": 45468, "Ġhours": 2250, "Ġtermination": 19883, "OLOG": 33462, "Ġstunned": 19987, "Ġdogged": 44443, "ĠRoy": 9817, "ĠBourbon": 41638, "ĠBal": 8528, "icester": 26382, "Ġmagnetic": 14091, "ĠDAM": 29506, "CENT": 43960, "Ġmilitia": 21085, "ĠUSA": 4916, "erity": 32821, "Ġcompleted": 5668, "Ġ315": 32647, "801": 41531, "ĠGCC": 42362, "ugs": 10339, "ĠFM": 18695, "ĠAccessories": 44171, "ĠCM": 16477, "allic": 18196, "Ġrunning": 2491, "Ġsupposed": 4385, "ruff": 30622, "Ġline": 1627, "Ġcompetitions": 24174, "ĠLambert": 36978, "Ġbail": 12274, "Ġcatch": 4929, "Ġprotesters": 9584, "helle": 34454, "ĠBlanc": 37544, "ĠGall": 7096, "chanted": 28923, "ural": 1523, "Ġshortage": 18772, "ĠApplication": 15678, "ĠProgramme": 35232, "ando": 25440, "Ġgal": 9426, "Equ": 23588, "ĠPh": 1380, "tein": 22006, "249": 21626, "Ġmarkup": 41485, "ourced": 30555, "%%": 16626, "Ġenhancement": 28554, "300": 6200, "Ġseparates": 31555, "ANE": 30525, "ĠMoroccan": 49323, "Ġbetting": 22908, "Ġpor": 16964, "*/(": 40278, "Ġnucle": 17751, "Ġaz": 35560, "Ġmany": 867, "airs": 3468, "1980": 23664, "Ġ389": 49633, "Ġappellant": 44975, "Ġresurrect": 27603, "finder": 22805, "alth": 1094, "ouri": 10300, "ĠYs": 43740, "ĠBernardino": 35680, "ĠPale": 21706, "Ġbirds": 10087, "ĠFine": 17867, "sf": 28202, "CI": 25690, "inational": 26201, "steps": 20214, "ĠRagnar": 32797, "Ġdrained": 29738, "Ġdepreciation": 45980, "Credit": 23690, "Ġceiling": 13387, "series": 25076, "ĠTarget": 12744, "Ġstemming": 34807, "Ġemulator": 38274, "Chapter": 14126, "ĠHum": 11054, "CC": 4093, "CHA": 49285, "ĠMichael": 3899, "ECK": 25171, "Ġsequ": 4726, "oided": 13780, "coin": 3630, "thing": 1197, "ĠBowie": 29989, "Ġanthrop": 17911, "ĠArsenal": 13837, "Ġlurking": 36105, "Ġmanipulated": 25036, "Ġray": 26842, "Market": 27470, "ĠLerner": 49750, "Ġusefulness": 37496, "ĠPhysics": 23123, "Ġtopp": 23126, "Ġinsufficient": 19022, "emption": 11221, "Ġestablished": 4920, "Ġadmit": 9159, "Ġmythology": 25871, "utsche": 30433, "Ġhere": 994, "isSpecial": 39714, "ĠFrey": 35086, "Cho": 22164, "Ġrelied": 17498, "ĠSUPER": 33088, "VA": 11731, "hog": 31897, "Ġbone": 9970, "Ġlock": 5793, "Ġupload": 9516, "Ġbolstered": 48677, "Percent": 31905, "171": 27192, "Ġignoring": 15482, "PokÃ©": 41386, "Ġsurvived": 11803, "ĠISO": 19694, "ĠPoo": 41778, "Le": 3123, "ĠNY": 6645, "Ġreliever": 48460, "ĠCurry": 20920, "ĠWichita": 45526, "ĠShi": 16380, "Ġclaim": 1624, "Ġfec": 27685, "trl": 14859, "Ġdrugs": 5010, "Ġ44": 5846, "Ġprofession": 7573, "Ġspun": 26843, "Ġjelly": 27644, "ĠElliott": 22386, "uitous": 42412, "mur": 28582, "Ġdiscusses": 19451, "426": 42780, "ĠFant": 8751, "York": 49278, "????????": 35709, "Ġ303": 30727, "ä¸Ĭ": 41468, "TeX": 49568, "Ġfarmland": 45723, "ificant": 17294, "Ġrelaxed": 18397, "vez": 33425, "Ġfunctions": 5499, "Ġphrase": 9546, "Ġworried": 7960, "Ġinefficient": 30904, "ĠTactical": 26984, "ĠPorn": 29629, "Ġteacher": 4701, "Ġfinish": 5461, "ENN": 34571, "ĠMariners": 35109, "Ġcomedic": 42047, "iera": 41976, "Ġdefeats": 29234, "ĠAAC": 47943, "Ġ38": 4353, "opy": 11081, "Ġautism": 15998, "Prosecut": 34301, "full": 12853, "ĥ": 225, "ĠRailroad": 36289, "ĠSigns": 37027, "ĠLeap": 33927, "erential": 33369, "Ġidea": 2126, "ĠMeal": 49636, "Rogue": 48163, "igators": 25975, "ellectual": 29706, "Ġpsychologist": 23540, "ĠJudiciary": 22351, "ĠHDD": 43601, "Ġvessel": 8837, "Ġpoppy": 47867, "Health": 18081, "ĠYus": 41749, "YE": 48743, "ĠGomez": 33231, "Ġestablishments": 33228, "Ġincub": 25543, "Storm": 32173, "Ġassess": 4659, "Ġdeparture": 12928, "ĠUpdated": 19433, "ĠNigeria": 19398, "itech": 45396, "ĠEmergency": 18154, "Ġfore": 1674, "Force": 10292, "iry": 9045, "gd": 21287, "ĠBarrett": 26971, "Ġal": 435, "Ġexpansion": 7118, "rolling": 18886, "ĠSporting": 31790, "ĠRespond": 33556, "ĠHorde": 31838, "Ġcriterion": 34054, "uge": 2217, "ĠPartial": 43689, "includes": 42813, "Ġtruck": 7779, "Ġect": 46080, "Ġliquid": 8122, "head": 2256, "Ġfault": 8046, "Ġstartups": 21685, "Ġdipping": 43144, "Ġlaunching": 13925, "Ġunknown": 6439, "Ġnour": 31219, "Ġarisen": 42091, "Ġvocal": 12435, "Ġstrip": 10283, "Ġsignatures": 17239, "ĠTraffic": 23624, "Ġcourage": 11917, "reatment": 21731, "Ġobsc": 10666, "Ġdistinguishes": 45482, "Ġvigilance": 49202, "ĠLean": 45661, "Ġsanctions": 9388, "Ġkeeping": 5291, "Ġround": 2835, "zanne": 38395, "Ġelectroly": 39450, "Ġyour": 534, "Ġleash": 40529, "Ġvisiting": 10013, "ĠLur": 47851, "ĠPenguin": 34424, "Tweet": 47845, "tan": 38006, "ĠNewspaper": 49598, "Ġpredicted": 11001, "Ġsnacks": 28487, "Ġstocks": 14420, "Ġpractices": 6593, "ĠEqu": 7889, "ĠPS": 6599, "ĠChapters": 42448, "Ġpure": 5899, "ĠRepl": 18407, "ĠHolt": 28330, "52": 4309, "ĠStaff": 9983, "izoph": 18115, "ĠPrevious": 21801, "sta": 38031, "iations": 40356, "ĠPill": 19770, "opath": 18569, "Ġtherapies": 29596, "Ġper": 583, "Ġtestim": 8844, "Ġtooth": 16162, "Ġvel": 11555, "aylor": 7167, "ĠEminem": 49428, "Ġtreaties": 30734, "éĹ": 29785, "Ġallerg": 30975, "ĠBas": 6455, "eq": 27363, "Ġcavalry": 30891, "Ġowes": 29264, "Ġanew": 44951, "Ġmethamphetamine": 39278, "nik": 17187, "ĠExit": 29739, "Ġcoincide": 37319, "ĠPlot": 28114, "AGE": 11879, "ĠParliament": 8411, "Ġbum": 39564, "ĠTomas": 42884, "Ġramp": 10454, "Op": 18257, "Ġplan": 1410, "á¹": 26292, "ymph": 20896, "system": 10057, "ĠTED": 38436, "Marco": 37179, "Ġdeny": 10129, "ĠNCT": 40119, "corn": 20772, "Ġcabin": 9351, "Ġracks": 39843, "699": 47325, "Ġtried": 3088, "Ġdiscrimination": 8839, "rooms": 9649, "Ġendogenous": 47064, "Henry": 32476, "ynski": 40008, "ĠFuel": 25483, "Ġenforce": 4605, "space": 13200, "ĠBeach": 8511, "ĠGulf": 12108, "Ġelaborate": 15962, "itars": 27745, "Ġtremendously": 34355, "Ġcheering": 29732, "Ġformatted": 39559, "Ġacid": 7408, "ĠRain": 10301, "ĠAgricultural": 36694, "Adams": 47462, "Ġconstitutes": 19300, "ĠStephan": 20800, "ĠBeir": 38693, "375": 22318, "469": 42947, "Å«": 20317, "Ġtones": 23755, "ĠKers": 49521, "Ġevidently": 27450, "Money": 26788, "Ġstones": 14966, "Ġ3": 513, "ĠAmount": 26308, "Ġheavyweight": 32489, "Ġ350": 13803, "Ġinvoked": 24399, "ĠHappy": 14628, "Ġjails": 39435, "aptic": 32963, "Ġcrackdown": 22671, "Server": 10697, "ention": 1463, "ĠUSL": 44072, "azard": 26267, "ĠPaper": 14962, "ont": 756, "Ġcomedians": 43520, "ĠEric": 7651, "ĠHarper": 12686, "Ġpeaceful": 12309, "hazard": 37598, "fish": 11084, "Ġderiv": 16124, "'ve": 1053, "Often": 37288, "Ġ802": 33121, "hift": 29323, "pson": 8430, "Ġvalue": 1988, "200000": 33470, "Ġviewpoint": 28953, "Ġquite": 2407, "Ġlaugh": 6487, "Ġanalytical": 30063, "Ġtraits": 12796, "Ġcave": 11527, "1000": 12825, "motion": 38714, "ĠLynch": 16093, "Ġhammered": 41223, "ĠCommunications": 14620, "Ġcheerful": 37999, "Ġ346": 44729, "Third": 22747, "Columb": 36063, "911": 35549, "Ġexecut": 3121, "ĠApplications": 26622, "ochemistry": 37074, "ĠNan": 18008, "ĠAadhaar": 47727, "ĠFuck": 25617, "Ġabsentee": 40153, "Ġsanity": 34182, "ĠEconomic": 11279, "Saint": 48615, "Ġpiece": 3704, "ĠAve": 12761, "Cast": 19248, "Ġfearing": 33188, "uca": 43120, "Ġdigestive": 34616, "ploma": 35728, "Ġ154": 24235, "Ġsafeguard": 30925, "347": 30995, "¨": 101, "Ġsolving": 18120, "Ġinsulation": 32806, "Ġextracted": 21242, "Focus": 34888, "utan": 37878, "Sky": 22308, "Ġmantle": 32107, "Ġexecution": 9706, "obb": 21963, "âĸĪâĸĪâĸĪâĸĪâĸĪâĸĪâĸĪâĸĪ": 49527, "PA": 4537, "aldi": 37566, "Ġcomplement": 16829, "ĠAlthough": 4900, "Ġlength": 4129, "ĠFiscal": 33522, "ĠPlayoffs": 42361, "ĠStatement": 21983, "Ġwaterfront": 40250, "Ġtheoretically": 26787, "angled": 22393, "Ġdissatisfied": 44455, "Ġforeigners": 19670, "Ġcommenter": 46914, "Ġpresentations": 27709, "Experts": 38897, "ĠSounders": 42795, "stant": 18797, "Ġclosing": 9605, "ĠHawk": 26698, "ĠOwens": 31005, "aiden": 17538, "ĠWeak": 28788, "Ġsimilarly": 12470, "ĠParables": 49409, "ĠHancock": 39261, "uzz": 4715, "umat": 27798, "abilities": 5738, "Ġfreezing": 20884, "Ġcivilizations": 35928, "ination": 1883, "ĠKoreans": 25999, "ĠClarks": 35931, "arty": 25494, "ĠAirl": 16016, "ĠFol": 30938, "ĠScript": 12327, "Ġchanted": 42261, "ĠTickets": 26878, "ĠLTD": 42513, "written": 15266, "in": 259, "Ġ$": 720, "rÃ©": 29350, "ĠNicolas": 29737, "Ġpessim": 32277, "ĠGET": 17151, "addle": 37382, "Ġfac": 1777, "Ġsecuring": 19732, "ĭ": 233, "Ġmesmer": 46814, "Ġ08": 8487, "Database": 38105, "ĠGar": 7164, "ĠEncyclopedia": 36732, "Ġnamespace": 25745, "Ġsham": 23565, "Ġcoordinates": 22715, "ĠNoel": 33905, "Region": 47371, "Channel": 29239, "Ġmurder": 5123, "Ptr": 46745, "icer": 16647, "Ġforecasting": 41164, "ĠBeing": 11204, "Ġexpenses": 9307, "Ġgravitational": 29973, "secondary": 38238, "Ġresponsibly": 43493, "Ġbonuses": 17568, "::": 3712, "Ġfrench": 48718, "200": 2167, "Ġvehicles": 5672, "Ġinstr": 6480, "GN": 16630, "ierre": 31058, "Ġmidfield": 12459, "cano": 35490, "Ġheavy": 4334, "ĠGuardiola": 46990, "ĠTours": 42998, "Ġrevealing": 13477, "Ġwatchdog": 26856, "ĠDHCP": 43729, "ĠComes": 34606, "ĠRac": 24746, "ĠFeel": 18571, "Found": 21077, "Gear": 38141, "ĠFeedback": 37774, "Ġhallway": 23959, "ĠMHz": 19805, "591": 48952, "ĠSenate": 3845, "ĠNCAA": 15244, "-\"": 21215, "imes": 999, "ĠLib": 7980, "Ġear": 1027, "Ġrural": 10016, "Ġlicence": 17098, "Ġmono": 33361, "ĠVoices": 40440, "Ĥ": 224, "Ġsupremacist": 31352, "ĠIgn": 16583, "amental": 6860, "inker": 24275, "ĠDamon": 33572, "ĠLessons": 46885, "Ġphony": 41421, "Ġweaponry": 28479, "ĠRetirement": 41863, "ĠRemove": 17220, "Ġtrainers": 28514, "Ġwinners": 14591, "olver": 14375, "z": 89, "Ġconcealed": 18176, "Ġborrower": 39740, "idon": 47287, "Ġpoked": 47320, "ate": 378, "Giving": 49701, "Ġdiscour": 15117, "488": 33646, "Ġachieving": 16937, "Ġessays": 27126, "incinnati": 15130, "Wednesday": 27150, "Ġpleasing": 28790, "ĠMountains": 21124, "Ġv": 410, "Ġtrivial": 20861, "very": 548, "Ġsteering": 19702, "balls": 21591, "Ġgraphene": 42463, "Ġcooler": 19346, "ĠCrane": 38376, "Ġundoubtedly": 17713, "Ġunob": 41511, "impl": 23928, "Ġoct": 19318, "Ġpronounce": 28942, "ĠSimilar": 11014, "Ġund": 3318, "Ġbattles": 10181, "caliber": 43288, "Ġhumankind": 47634, "Ġpard": 41746, "Ġtear": 11626, "news": 10827, "Ġachieves": 41885, "ĠTradable": 11974, "Ġcynical": 28858, "worms": 49617, "Ġprosecution": 12580, "Ġexternal": 7097, "atum": 21307, "Ġlively": 29696, "Ġbiod": 32449, "Ġhijacked": 41554, "ous": 516, "System": 11964, "Ġleaf": 12835, "Ġsax": 46909, "Ġaffirm": 16266, "Fixed": 13715, "Ġss": 37786, "ĠEcc": 38308, "ĠPOWER": 40295, "240": 16102, "Ho": 28900, "ĠPoles": 45631, "Ġstyle": 3918, "Ġselfies": 45406, "Ġdestined": 23985, "Offic": 12710, "ĠSora": 42359, "Ġmeals": 13840, "rough": 740, "Ġ399": 43927, "ĠECO": 39031, "ictive": 45279, "Ġelectrodes": 39780, "Ġdesire": 6227, "Mag": 13436, "Ġsighting": 42110, "Ġvectors": 30104, "Ġoverloaded": 50068, "ĠWent": 29866, "Ġ156": 23871, "Ġmayhem": 43744, "Ġathe": 13366, "ĠPartners": 14205, "kil": 34553, "ĠSher": 6528, "Ġpeasants": 29177, "Ġshr": 10157, "pected": 7254, "ĠIF": 16876, "ĠMagazine": 11175, "oret": 9997, "Hi": 17250, "FIR": 39776, "Ġfame": 16117, "ĠView": 3582, "Ġmachine": 4572, "Heat": 39596, "ĠBing": 21631, "Ġbab": 9289, "Ġadvancement": 27647, "Ġimpair": 17253, "909": 44675, "st": 301, "real": 5305, "abit": 29968, "Ļ": 247, "Ġpaste": 17008, "ĠRend": 28703, "ĠDana": 22937, "travel": 35927, "ĠNicola": 40396, "Ġdecidedly": 32343, "Ġinflammatory": 23760, "gly": 10853, "Ġtim": 4628, "Ġfriction": 23822, "ĠRoof": 35271, "Ġdich": 36638, "Ġbod": 16429, "Ġoverly": 17698, "ĠBenefit": 38065, "ĠAmin": 39869, "ippi": 12715, "Ġscant": 35183, "ssl": 45163, "iable": 3379, "online": 25119, "inton": 2371, "COR": 44879, "arkable": 45543, "Ġskeptical": 17988, "ĠPeople": 4380, "ĠAnglic": 42844, "ĠAkira": 46910, "Ġcreators": 16294, "Ġdonor": 17052, "Ġinability": 16612, "ĠRG": 34359, "SourceFile": 37226, "ocker": 12721, "Ġcombo": 14831, "Ġlap": 14779, "Wire": 29451, "Ġdiffuse": 42864, "ĠRadeon": 13082, "mad": 9937, "alt": 2501, "olulu": 39814, "Ġresidences": 45402, "ishment": 17862, "ointment": 49805, "heter": 43332, "Ġcatalogue": 34614, "Ġradical": 7702, "Ġonset": 21228, "ĠZionist": 29390, "Ġremix": 34471, "ĠConcent": 37613, "ĠTrade": 9601, "ĠMario": 10682, "ĠRepresentatives": 17132, "Ġdispel": 45629, "ĠOffice": 4452, "ĠDOWN": 30320, "ĠLoving": 39202, "ĠMarvel": 9923, "126": 19420, "ĠGaw": 30187, "ĠSim": 3184, "hus": 7537, "ĠTrey": 36085, "Ġscandals": 28449, "Ġmill": 3939, "Ġsoul": 5848, "asion": 4247, "OT": 2394, "Ġcollecting": 13157, "ollower": 47030, "ĠKi": 21927, "Ġfellowship": 37900, "ĠFriendly": 38683, "Ġincrements": 41867, "directed": 34762, "PORT": 15490, "Ġorganise": 42386, "Ġtoggle": 19846, "WC": 27353, "rained": 13363, "Ġstag": 35251, "ĠEDIT": 48483, "ĠSG": 26147, "Ġenvironmentally": 34132, "Ġresur": 15328, "ĠLa": 4689, "Ġdecoding": 39938, "Ġdisproportionate": 30982, "Ġplane": 6614, "ĠSolar": 12347, "Ġstarvation": 32143, "ĠFrank": 5278, "Ġmicrobiome": 48465, "Ġcould": 714, "Ġsaf": 1932, "achu": 32323, "Congratulations": 45048, "Ġlineback": 16166, "Ġcelebrating": 17499, "uously": 24987, "adian": 18425, "anded": 12249, "Ġrecognized": 8018, "ĠRL": 45715, "ĠFamily": 7884, "Ġfactor": 5766, "ĠExplorer": 19142, "yond": 3243, "ude": 2507, "Hat": 40483, "ĠPrep": 19141, "Ġpermit": 8749, "shape": 43358, "ĠImp": 9855, "etheus": 36916, "Ġunveiling": 41438, "Ġchoices": 7747, "Ġsmooth": 7209, "Ġtilted": 37229, "Ġpneumonia": 35647, "Ġstrained": 30744, "Ġnormally": 7685, "Ġregards": 13957, "nav": 28341, "Switch": 38978, "atom": 37696, "ĠStella": 45856, "Ġvo": 7608, "/": 14, "Ġraids": 20371, "Ġhumili": 22251, "Ġthyroid": 30523, "idence": 1704, "=\"\"": 33151, "ĠValentine": 23078, "ourge": 14501, "ĠPrecision": 39281, "Ġfinishing": 12848, "Ġseats": 8632, "ĠMidwest": 25701, "199": 19104, "ĠYesterday": 34668, "Ġappell": 24781, "Ġrecognizable": 30264, "Pages": 47798, "ays": 592, "ĠMcA": 40444, "âĢ¦..": 30864, "Five": 20029, "aged": 1886, "ong": 506, "bc": 15630, "ĠUd": 35774, "ĠYas": 25957, "Ġdoubted": 37104, "ĠLotus": 27578, "ĠCatherine": 22578, "anders": 45070, "Ġhemp": 28246, "ridden": 40372, "oken": 4233, "Loader": 17401, "Ġmissiles": 12798, "Ġdegree": 4922, "ĠVol": 4709, "Ġpizz": 38748, "dayName": 45392, "Ġsavings": 10653, "atives": 2929, "rep": 7856, "Ġoceans": 23744, "OOL": 31559, "Has": 19242, "×ĳ": 49603, "Ġhoc": 39158, "olic": 4160, "ĠFML": 28326, "ĠBees": 46698, "prison": 35156, "Ġfetish": 32870, "ĠClaus": 33989, "owing": 7855, "Ġsyn": 6171, "ĠCout": 40253, "sic": 21383, "llan": 47993, "Portland": 45330, "Nonetheless": 43258, "458": 29334, "inter": 3849, "Registration": 47133, "Ġtouting": 48120, "gra": 46784, "hm": 23940, "ĠKiw": 40011, "lp": 34431, "ĠNations": 7973, "Ġsabotage": 31983, "Ġ:)": 14373, "Ġpriests": 17345, "Ġspider": 19230, "zhen": 46732, "654": 39111, "\\/\\/": 45422, "OLD": 15173, "Ġmustache": 49303, "Too": 23307, "ĠQuan": 42312, "ĠClassification": 40984, "ĠConj": 37587, "Ġ(%": 37633, "Ġ312": 34465, "605": 32417, "ĠCreed": 24299, "Ġfulf": 8456, "Ġbeautiful": 4950, "etitive": 17295, "ĠFortunately": 20525, "ĠIgor": 46157, "ĠCNN": 8100, "anton": 23026, "Ġinterfering": 32874, "ĠSymptoms": 49559, "Ġpathways": 22963, "ĠVietnamese": 23618, "MF": 49800, "Ġbreakfast": 12607, "vol": 10396, "Ġefficiency": 9332, "ĠClub": 6289, "ruits": 50187, "ĠSwedish": 14023, "Ġwalks": 11114, "Ġkeep": 1394, "ĠScientists": 23782, "Ġmattress": 33388, "ĠGH": 24739, "asons": 2812, "orset": 49590, "ixty": 19404, "Ġcheated": 37264, "Ġfaint": 18107, "Ġmerge": 20121, "ĠTempl": 31711, "Ġachievable": 47729, "annie": 42883, "ĠPlay": 3811, "aro": 12022, "Ġartists": 7912, "cientious": 43037, "itialized": 13562, "Ġshader": 33030, "AS": 1921, "Ġhosting": 13662, "ĠScion": 49632, "nsics": 49242, "-|": 22831, "Ġtraveller": 49130, "Ġsexes": 32487, "ĠBun": 28515, "Ġlight": 1657, "Ġmeticulously": 46553, "iev": 11203, "ĠSusp": 31922, "usion": 4241, "Ġleather": 11620, "ĠDATA": 42865, "ricks": 23706, "Ġridiculous": 11441, "stakes": 32540, "Ġnow": 783, "Ġshave": 34494, "415": 35038, "agers": 10321, "ĠCat": 5181, "required": 35827, "ĠCanaan": 47047, "ĠTale": 17388, "amazon": 33103, "Ġtested": 6789, "ĠÏ": 18074, "Ġ\"$:/": 32047, "Ġincarceration": 27224, "Ġsec": 792, "Ġcornerstone": 39774, "ithub": 10060, "ĠIP": 6101, "Ġmystic": 37311, "ĠMoreno": 43269, "ĠGoldberg": 31225, "ĠTrack": 17762, "Ġmetadata": 20150, "Ġforever": 8097, "Road": 29197, "Ġlenders": 28086, "fat": 17359, "ĠBungie": 47593, "810": 40215, "ĠSheffield": 33496, "Ġlinemen": 41683, "ĠPalestine": 17263, "ĠSz": 27974, "ĠRated": 49949, "ĠUNHCR": 49558, "Ġlackluster": 50146, "ĠPOST": 24582, "Ġorderly": 39164, "Ġtank": 6873, "ĠKel": 15150, "Ġinserted": 18846, "between": 23395, "Ø¯": 38843, "Ġdeveloping": 5922, "ĠMercer": 38146, "plain": 25638, "Ġpotion": 26572, "Ġexcellence": 25230, "Real": 15633, "Ġinflated": 32387, "Ġ262": 35404, "ĠSabb": 33066, "Ġfranchise": 8663, "Ġconsulted": 26889, "ĠIt": 632, "achi": 14299, "ening": 3101, "clipse": 17043, "Ġmysql": 48761, "ĠWer": 27648, "Ġsingular": 18032, "ĠDH": 23809, "Ġtricky": 17198, "Ġitems": 3709, "ĠFRE": 44253, "Magn": 48017, "ĠSEC": 10729, "Clinton": 16549, "ighters": 6261, "dis": 6381, "otiation": 21236, "Ġeclips": 39097, "ĠNap": 14332, "ĠQuestion": 18233, "ĠHMS": 44247, "ĠWells": 18292, "ico": 3713, "Ġphys": 2281, "Ġharness": 19356, "ĠMedic": 5786, "ĠIntelligent": 49452, "ĠMilky": 34822, "Ġretaining": 26645, "Ġboolean": 25131, "Ġ+#": 43053, "ocusing": 45743, "edu": 15532, "Ġconclusion": 7664, "Ġadvertis": 23789, "Ġrelates": 18436, "ĠDiane": 26542, "Ġsurely": 10403, "Ġvolunteered": 32730, "ampires": 27933, "Ġchilled": 45550, "rique": 33865, "plug": 16875, "ĠSund": 3309, "Ġfederal": 2717, "HOU": 46685, "atively": 9404, "storage": 35350, "egg": 33856, "otation": 14221, "ĠGarrett": 27540, "let": 1616, "Tools": 33637, "Yellow": 39499, "ĠJu": 12585, "ĠMeadow": 43868, "Ġimagining": 34140, "Ġdont": 17666, "ĠHeader": 48900, "Ġacronym": 38787, "Ġsurpr": 2827, "Ġinfluential": 14212, "Ġdozen": 8667, "wiki": 15466, "String": 10100, "pel": 30242, "Ġpoking": 39048, "display": 13812, "ipolar": 49133, "Ġtouchscreen": 39965, "ck": 694, "ĠCertificate": 27895, "ew": 413, "enses": 4541, "ĠSteven": 8239, "ĠFirstly": 41039, "ĠNegative": 36183, "ĠOlivier": 45674, "Ġgrandma": 49890, "ĠFlight": 13365, "mAh": 28142, "Ġlung": 12317, "ĠHeritage": 18518, "ĠMarina": 35321, "rolley": 42639, "ĠMoral": 39020, "Ġblasts": 29895, "ĠSupported": 36848, "Ġreb": 3405, "Ġdilig": 20645, "Ġdosage": 35997, "Ġproudly": 23017, "produ": 18230, "ĠMig": 24488, "Ġintroducing": 16118, "Ġimaginative": 41138, "ĠSchr": 49871, "Ġdoubtless": 48662, "Ġbuffers": 39334, "Ġsoared": 35292, "Simon": 35475, "ĠCorrectional": 48371, "ĠSuit": 28871, "Ġembell": 47399, "Post": 6307, "ĠSHA": 25630, "Ġintermitt": 30598, ".\")": 19570, "Ġtripod": 47439, "Ġchromosome": 34348, "ouf": 37116, "ĠEnlightenment": 39057, "Abs": 24849, "ĠSize": 12849, "ycle": 39297, "izzard": 16191, "ĠSunder": 31898, "Ġmac": 8352, "625": 26704, "uve": 45177, "ule": 2261, "ĠNicholas": 20320, "Ġlymph": 28837, "ĠJordanian": 47820, "quarters": 8230, "641": 42759, "ĠBid": 43484, "ĠDialogue": 34709, "ĠScal": 34529, "ĠPens": 38740, "Ġtransport": 4839, "ĠâĹ": 24966, "locks": 28860, "ĠLu": 6026, "ĠSets": 21394, "Ġprohibition": 19548, "Ġburglary": 33724, "wart": 24657, "Gordon": 47073, "Report": 19100, "asted": 8992, "ĠHonduras": 32982, "Ġmigrating": 45879, "Ġprivile": 7798, "ĠARC": 43928, "ĠFL": 9977, "oli": 11106, "Ġinciner": 48244, "Ġbetray": 13935, "Ġvile": 34942, "ustration": 44027, "Ġshaming": 46382, "Ġconcerned": 5213, "ĠTowers": 29031, "ĠWalker": 10120, "ĠIncreasing": 38921, "Wars": 41508, "Looks": 41102, "Ġsugar": 7543, "Ġdisrupt": 10114, "Ġdefamation": 36662, "Ġtyr": 22934, "Ġlaunched": 5611, "Ġnarcotics": 36524, "Ġhorizon": 17810, "sections": 23946, "Ġgallery": 15604, "ĠIndianapolis": 19362, "podcast": 46032, "Ġlimiting": 15637, "Ġrepl": 2186, "Ġcopying": 23345, "Ġkingdom": 13239, "riad": 21244, "ĠPittsburgh": 12767, "Ġpants": 12581, "nda": 45658, "ĠMau": 28931, "Ġimplying": 30253, "College": 38951, "ĠAt": 1629, "Ġthousands": 4138, "Ġemployees": 4409, "ĠNordic": 35834, "ĠIntrodu": 11036, "ĠAppendix": 30378, "shift": 30846, "Ġsectors": 16020, "Ġ!!": 37867, "Ġ****": 25998, "ĠClass": 5016, "ĠAlic": 34745, "Ġpat": 1458, "Ġdose": 10742, "ĠBug": 15217, "mont": 8691, "ĠHR": 15172, "OS": 2640, "Ġerosion": 29337, "Ġcottage": 36856, "Colorado": 41330, "Ġlacked": 19989, "Ġslippery": 32911, "Ġsurpassed": 30612, "Ġpolymer": 30528, "lde": 35209, "acent": 12643, "burst": 31961, "Ġposters": 19379, "ĠNeighborhood": 37914, "Ġmull": 35024, "Ġcomplexion": 48026, "Action": 12502, "Ġpractitioners": 24068, "Ġdisappointing": 17185, "Gi": 33704, "Ġml": 25962, "ocard": 44412, "Ġhandguns": 38060, "reve": 36955, "Ġlogo": 11112, "Ġ74": 8915, "Ġapplied": 5625, "Content": 19746, "iak": 32994, "alia": 9752, "ĠLatinos": 33877, "ĠSatanic": 41518, "Ġlifespan": 30458, "Ġframed": 23665, "Ġtooltip": 49472, "cul": 3129, "ops": 2840, "ĠRouge": 27478, "angers": 6606, "Ġ/*": 11900, "spec": 16684, "CSS": 49155, "Ġoff": 572, "Ġpressures": 18895, "Ġfortress": 28757, "Ġpressure": 3833, "ĠIsa": 13377, "Ġvic": 20429, "Ġsimplistic": 35010, "Ġdips": 48904, "ĠFAR": 39024, "itz": 4224, "Rob": 14350, "Ġdetriment": 42959, "Prof": 15404, "313": 25838, "orn": 1211, "aru": 11493, "Ġ2021": 33448, "ĠCharisma": 44859, "Ġautomatic": 11353, "izarre": 12474, "W": 54, "Ġpurchase": 5001, "ĠInfinite": 22380, "part": 3911, "Ġswinging": 25635, "ĠMemor": 41157, "Ġsniff": 26300, "emb": 24419, "Ġsometime": 17291, "ĠMessage": 16000, "Ġcandidate": 4540, "Ġbrand": 4508, "Right": 11028, "Ã¶n": 48863, "Ġimmigrants": 7971, "ible": 856, "ĠThomson": 32425, "aden": 40780, "Ġalle": 28654, "Ġdyn": 37860, "ĠAtk": 36379, "Suddenly": 38582, "177": 22413, "Ġpatch": 8529, "Ġmetre": 42760, "Ġabused": 15519, "orical": 12409, "parents": 23743, "address": 21975, "Ġ417": 47580, "ĠAdams": 12620, "Ġpipe": 12656, "Insp": 41502, "ĠCONTR": 27342, "ĠBund": 13319, "Ġardent": 43033, "ogg": 10332, "Ġovertake": 48155, "Ġtransmitter": 35099, "ĠAthe": 27751, "Ġcasing": 39731, "ãĥķãĤ¡": 41939, "410": 33289, "el": 417, "Ġtrial": 4473, "ĠOfficer": 10391, "Ġreef": 25088, "Ġhonest": 5508, "iche": 14234, "Ġdetainees": 25027, "Ġembro": 27623, "isy": 13560, "Ġbuckle": 44983, "Ġswearing": 38372, "Ġsolitude": 49917, "Sac": 38318, "ĠFounder": 30153, "ĠMassachusetts": 10140, "pmwiki": 45321, "norm": 27237, "ĠFIN": 33642, "ĠTycoon": 28222, "Ġpundits": 30855, "Ġdecomp": 38237, "ĠRetro": 29884, "ĠMarqu": 28382, "banks": 43558, "Ġlandmarks": 41532, "Ġfossil": 12584, "Ġsket": 28427, "founder": 15454, "Karl": 46063, "ĠLegacy": 14843, "Ġreligions": 18879, "ovy": 27796, "Ġgraduate": 10428, "shr": 36007, "________________________________": 10221, "Ġrepressive": 44430, "ograp": 7113, "ĠBigfoot": 50120, "arch": 998, "Ġrealization": 23258, "@#": 41573, "inguished": 46709, "Ġreuse": 32349, "fourth": 49393, "ö": 178, "ĠWyr": 45988, "ĠISS": 33805, "Ġdegrade": 42962, "Ġmadness": 23208, "Ġcarved": 23470, "Ġdeleted": 13140, "slice": 48369, "vous": 31222, "ĠPra": 21127, "miss": 3927, "uned": 40881, "Ġaided": 28310, "ĠChal": 30529, "ãģł": 46777, "running": 20270, "ills": 2171, "ĠPand": 16492, "Ġtrou": 4057, "Ġsang": 25889, "Ġvacancies": 48639, "Ġbehaving": 37722, "ĠResolution": 22406, "ĠResurrection": 30688, "azaki": 32276, "Ġuber": 48110, "ĠFemale": 15396, "Ġsubordinate": 34618, "Ġsubreddits": 46386, "Vision": 44206, "Ġdat": 4818, "Ġfacial": 16324, "rouch": 48626, "Ġcolumns": 15180, "Ġcollaps": 10777, "Ġrewarding": 23404, "Ġfrying": 45366, "Ġsocket": 17802, "Ġsevered": 32160, "Ġadministrators": 18618, "Ġconflicts": 12333, "ieft": 49868, "wage": 21482, "ĠSimply": 17973, "ĠBanking": 35385, "ake": 539, "elope": 47329, "SIZE": 33489, "Aid": 44245, "Ġcatalog": 18388, "Ġad": 512, "ĠDry": 22408, "ĠLabrador": 45246, "Quantity": 31208, "isher": 4828, "Quote": 25178, "Pie": 48223, "Ġcourtyard": 34941, "Ġretaliation": 24671, "Ġsuperflu": 48713, "ERY": 19664, "two": 11545, "Ġpeek": 27185, "below": 35993, "ĠUFO": 19728, "Ġowl": 39610, "Ġfriends": 2460, "ļéĨĴ": 22757, "Ġpivot": 30355, "Ġdeclaration": 14305, "Ġpayday": 45691, "arettes": 13890, "Ġspending": 4581, "Ġexpansions": 36383, "Ġabort": 15614, "tested": 39612, "itating": 21712, "Ġpassion": 7506, "ĠGuild": 16446, "Ġassassin": 31120, "ctor": 2715, "ĠYards": 42673, "ardless": 14694, "Ġreckless": 22053, "Ġarrow": 15452, "cape": 36435, "Ġkeen": 13795, "actually": 37739, "Ã¦": 21241, "Ġdiseng": 39402, "offset": 28968, "ippy": 41214, "Ġbend": 19396, "tsky": 30394, "ML": 5805, "SH": 9693, "100": 3064, "Ġwo": 24486, "Ġ*)": 31936, "Els": 45507, "halla": 41911, "ĠVermont": 16033, ",''": 14004, "Ġbeautifully": 21104, "saf": 49585, "abil": 14991, "Israel": 14040, "ounds": 3733, "Ġnurs": 11051, "ĠNotwithstanding": 43970, "ordes": 35770, "Ġquit": 11238, "Ġrunners": 19323, "orah": 40844, "Ġprocure": 23364, "Ġvotes": 5690, "ĠNor": 5414, "?!\"": 30823, "Ġpowerhouse": 34886, "everyone": 47057, "Ġseize": 21031, "ĠOkawaru": 43038, "Ġtelescope": 24344, "uds": 24786, "bag": 21454, "ĠFest": 26812, "yellow": 36022, "Ġhands": 2832, "Ġpause": 14985, "Ġmodules": 13103, "ĠDisease": 17344, "NP": 22182, "Ġamongst": 12077, "Story": 11605, "ĠDisorder": 31162, "æ": 162, "ATCH": 11417, "requisite": 27614, "writing": 16502, "ere": 567, "Ġfermentation": 35115, "ĠLydia": 47766, "ĠAuthentication": 48191, "ĠProhibition": 43091, "callback": 47423, "Ġharb": 43560, "axy": 6969, "Ġarrive": 9240, "Ġestim": 3959, "Ġharder": 7069, "************": 46068, "ĠBachelor": 33399, "Ġgas": 3623, "ERS": 4877, "istry": 4592, "anya": 34183, "Ġbooklet": 42702, "ryu": 49056, "upe": 48722, "Ġ1800": 21431, "ĠEndurance": 43290, "ĠSoup": 34011, "ĠOliver": 15416, "ĠOrc": 19083, "Ġelectro": 15206, "ĠBangalore": 46216, "ĠWorkers": 16847, "ĠLAT": 42355, "Ġneighbors": 12020, "ĠWoo": 39832, "ĠSlip": 49988, "Ġwhether": 1771, "Ġbenefic": 25021, "Ġlobster": 43657, "osed": 1335, "å¤§": 32014, "Ġrotor": 44883, "ĠCY": 30440, "ĠBolivia": 38496, "methyl": 43654, "Ġimperfect": 23162, "Ġfluorescent": 42309, "inside": 48787, "Sem": 13900, "Ġweakest": 34968, "Ġscholarship": 18652, "ĠXan": 47482, "ĠTavern": 32693, "FLAG": 38948, "Ġincome": 3739, "ĠRosen": 15564, "ĠBritain": 5491, "Ġbelts": 28617, "ensions": 5736, "Ġherself": 5223, "Ġsynchron": 18305, "Ġmasturb": 22938, "aditional": 27013, "Ġcareless": 36138, "Ġapi": 40391, "wikipedia": 31266, "Ġgripping": 39931, "ĠVaults": 21314, "ĠElder": 15624, "Ġquirky": 37276, "POL": 45472, "Ġvisas": 23727, "Ġgross": 10319, "Ġmorale": 29651, "Ġpalate": 44100, "uct": 4782, "ĠWicked": 42956, "Ġfallacy": 39104, "616": 44214, "Ġbombardment": 44022, "iffs": 10203, "Ġ226": 31510, "ĠBrothers": 16055, "Methods": 46202, "bott": 10985, "Ġscoring": 9689, "ĠChemistry": 27867, "oki": 18228, "Alice": 44484, "Ġsea": 5417, "ĠCHR": 32567, "rators": 18942, "bus": 10885, "Ġcens": 12428, "ĠTranslation": 33322, "451": 36330, "Ġnotices": 19748, "Rem": 8413, "Ġsuspend": 22004, "gain": 48544, "Ġtreat": 2190, "Quest": 12166, "Ġautomatically": 6338, "cill": 20346, "gre": 16694, "Al": 2348, "Ġnuisance": 36212, "Ġqueen": 16599, "ĠElaine": 41463, "draft": 35679, "ĠSamantha": 34778, "together": 45525, "ActionCode": 31573, "eon": 23277, "Ġthwart": 36162, "ãĢİ": 40493, "ĠHERO": 45947, "Ġobjectives": 15221, "Ġsubscriber": 32944, "orporated": 40132, "should": 21754, "Ġelbow": 22662, "Ġcrown": 12389, "012": 30206, "directory": 34945, "ItemTracker": 47198, "Stretch": 39181, "ĠNinja": 14152, "Ġprimates": 41316, "umed": 18940, "Ġann": 1529, "Index": 15732, "Ġracism": 10713, "ĠAnnotations": 47939, "ĠWalton": 34468, "texture": 41293, "ĠHels": 33889, "ĠMt": 18632, "ĠSTD": 48571, "ĠExploration": 36806, "Ġactivates": 36206, "Ġdisappears": 27934, "Ġunleash": 33502, "iencies": 22139, "Ġforestry": 37683, "England": 39163, "ĠDietary": 40767, "ruit": 4872, "ĠStain": 39445, "ĠCSS": 17391, "Ġentitle": 44594, "ĠGun": 6748, "Ġwrap": 14441, "Ġoverlook": 15677, "Ġcommandments": 43651, "anas": 15991, "Ġruth": 23562, "ĠCom": 955, "Ġ900": 15897, "ĠEater": 40366, "Moving": 33622, "ĠQC": 36070, "Ġms": 13845, "ĠNev": 9873, "Ġrenewable": 15713, "Ġalmond": 26948, "Ġexacerbated": 38337, "ĠFox": 5426, "count": 9127, "fifth": 43556, "Mods": 24239, "Ġsow": 45125, "Saudi": 36939, "Ã¶": 9101, "ĠQuite": 29051, "even": 10197, "Ġsurvive": 7866, "Ġcamp": 1413, "bread": 29573, "scient": 25346, "ĠVest": 39034, "Ġmissile": 10105, "Ġunlaw": 16148, "Ġneuronal": 36347, "Ġorbs": 37403, "Ġleave": 2666, "Ġwatched": 7342, "Ġcoffin": 30834, "Ġcracking": 25407, "Ġmargins": 20241, "ĠQuadro": 48447, "Ġca": 1275, "ĠSanct": 43990, "enne": 29727, ".<": 29847, "rush": 37357, "uter": 11894, "Ġsacred": 13626, "Ġspitting": 46266, "Ġimb": 33966, "Premium": 36787, "iPhone": 37032, "also": 14508, "ileaks": 27983, "place": 5372, "Ġcm": 12067, "Ġbegins": 6140, "Ġpython": 21015, "ĠKong": 9071, "Ġdescript": 12145, "ĠTechnology": 8987, "ettel": 47417, "xc": 25306, "Cool": 34530, "ĠGreatest": 33575, "Buyable": 39693, "east": 23316, "Web": 13908, "available": 15182, "997": 39647, "Ġadmon": 37202, "ĠVanderbilt": 38684, "ithmetic": 29848, "ithing": 44556, "ĠG": 402, "Ġcontinuity": 24216, "ĠLod": 45238, "Ġsite": 2524, "Ġpressed": 12070, "cold": 36673, "Spe": 5248, "ĠOutbreak": 49139,
[...]
