{"Moscow": 49757, "Ġobjected": 29811, "iring": 3428, "Ġego": 19225, "Ġuntreated": 41539, "semb": 4428, "Ġmorning": 3329, "Ġ1840": 47784, "Ġ700": 13037, "matter": 47635, "Values": 40161, "ĠConsulting": 41005, "Ġvariants": 17670, "Monitor": 35479, "ĠMOV": 28184, "Ġlevied": 43383, "keleton": 38800, "Ġserotonin": 32236, "etti": 24851, "aws": 8356, "Ġshaved": 39273, "ĠAlz": 21535, "ounced": 8918, "processing": 36948, "Ġchord": 25594, "ĠKeane": 46160, "Ġinefficient": 30904, "Ġsulf": 22443, "Ġhaircut": 45548, "Ġcaps": 11022, "ĠCharm": 30225, "ennial": 27779, "rg": 41345, "Ġstature": 32600, "@@@@@@@@": 37991, "ret": 1186, "IVERS": 30194, "################": 14468, "Ġauctions": 48043, "arians": 13517, "Ġconsiderable": 11091, "Ġdistinguishes": 45482, "ĠMA": 8779, "ĠAAP": 31518, "ĠBrew": 9702, "Ġconce": 8571, "Ġoccupation": 13755, "Ġdiet": 5496, "endon": 43153, "Ġelabor": 12628, "ĠSaban": 41618, "Ġenlightenment": 35957, "Ġrotting": 44494, "Ġextracted": 21242, "OPA": 43345, "Ġimproperly": 34250, "Ġdesperation": 31265, "Ġrebuilding": 25448, "Ġdat": 4818, "flags": 33152, "ĠFacilities": 48939, "Ġthird": 2368, "Ġwhore": 40107, "bara": 39389, "Ġsimulac": 48911, "Ġgest": 10521, "ĠWarrior": 14019, "Ġbrushing": 42798, "super": 16668, "Ġquick": 2068, "Ġè": 5525, "Ġtheatrical": 32010, "ĠDj": 19307, "Ġunus": 7242, "Ġord": 2760, "Ġpurpose": 4007, "ĠMuslim": 3765, "ĠFridays": 45011, "Ġdorsal": 45254, "usage": 26060, "Ġthereto": 44597, "Ġfounded": 9393, "Ġmay": 743, "Ġlock": 5793, "ITAL": 40579, "continue": 43043, "ĠCheap": 41087, "sufficient": 46790, "igned": 3916, "Ġrh": 9529, "Ġoutgoing": 28181, "ords": 3669, "Ġdetained": 14847, "Ġpious": 45979, "Ġneuron": 43164, "Ġcontainers": 16472, "ĠBCE": 37078, "Ġail": 31907, "ĠBlocks": 35111, "Ġ147": 22909, "ĠGears": 46680, "sections": 23946, "Ġleap": 16470, "ĠOCD": 43699, "ãģ®éŃĶ": 34633, "Ġriches": 35000, "builder": 38272, "Ġpalms": 39513, "Ġsized": 19943, "Ġtripled": 43761, "ĠHels": 33889, "Ġchicks": 43803, "Ġwaiter": 46612, "help": 16794, "Ġpouch": 36594, "Ġautomobile": 27930, "Ġbel": 894, "1600": 36150, "Ġaction": 2223, "ĠHit": 7286, "ĠKEY": 35374, "Ġdisappoint": 6703, "Ġload": 3440, "ipe": 3757, "Ġtroubles": 14979, "Ġpopulist": 26815, "Law": 16966, "Ġfraction": 13390, "ĠTasman": 29958, "ĠAvenue": 8878, "ĠDean": 11325, "Ġteaser": 38388, "Ġgap": 7625, "Ġmalware": 18953, "ĠPhD": 16394, "Sam": 16305, "yes": 8505, "future": 37443, "fall": 7207, "Ġmonthly": 9651, "akespe": 20621, "Ġaspect": 4843, "hands": 43365, "Ġwarships": 44304, "Ġkittens": 45584, "anged": 5102, "Ġthy": 11906, "ĠVa": 17668, "etc": 14784, "Ġsoils": 38750, "Ġsame": 976, "Ġpatients": 3871, "ãĥ¬": 24186, "ĠMandela": 40233, "ĠLisp": 38593, "ris": 2442, "ŃĶ": 18433, "mith": 22947, "Ġefficiency": 9332, "agu": 11433, "Ġbeans": 16567, "ĠHeath": 25846, "otal": 4997, "Ġpetitions": 32890, "Ġcontagious": 43944, "Ġswipe": 30054, "Ġcrank": 30425, "Ġopener": 21996, "Ġslowdown": 35621, "ĠJulie": 21946, "Ġpricey": 43244, "ĠContinent": 45778, "olester": 15764, "ĠParent": 16774, "ĠColor": 5315, "Ġwithd": 6681, "ĠDet": 4614, "ĠLisa": 15378, "ĠNathaniel": 49536, "Ġundermining": 30340, "Ġthoroughly": 13770, "Ġtrumpet": 40334, "Ġfoothold": 48271, "Ġsche": 3897, "ĠJudaism": 26976, "ĠMacro": 42755, "Along": 24035, "ĠKazakhstan": 34474, "Ġsplit": 6626, "Ġblack": 2042, "heid": 28420, "Ġdraining": 35939, "ĠWatch": 6305, "Ġresent": 20315, "Ġhers": 25144, "Ġattraction": 17416, "icia": 33577, "Ġdeclass": 42794, "Ġplus": 5556, "Ġpri": 1293, "Ġoutper": 33597, "Ġprominence": 31198, "BT": 19313, "Ġsupplied": 14275, "Ġharvesting": 34102, "Ġtang": 13875, "ĠKer": 17337, "Ġencryption": 15835, "education": 40796, "roads": 21372, "Ġreminding": 30047, "ĠAntioch": 46590, "rig": 4359, "ĠTerran": 33486, "ĠInfo": 14151, "Ġrethink": 36437, "Ġinsign": 24191, "ĠClassification": 40984, "ĠLafayette": 41388, "Ġembedded": 14553, "ror": 1472, "consuming": 35873, "Ġbooking": 25452, "Ġutilizing": 25137, "Ġeclipse": 25872, "tra": 9535, "yk": 48361, "044": 43977, "playing": 17916, "Ġquite": 2407, "ĠStaten": 46034, "pleting": 47130, "Ġcareg": 32386, "Ġcalcul": 5204, "On": 2202, "ĠProtein": 31702, "linked": 25614, "ĠSat": 7031, "IP": 4061, "Ġmerc": 11991, "Ġproportions": 23250, "visible": 23504, "purpose": 29983, "Ġshopping": 9735, "Ġcorrelation": 16096, "Ġgrowers": 33527, "Ġtropical": 19690, "ĠHoll": 11806, "Ġalternative": 5559, "Ġexistence": 6224, "Ġdebilitating": 41378, "Ġgrapple": 42146, "Ġtime": 640, "Ġairs": 37112, "ORT": 9863, "Ġmislead": 42154, "774": 47582, "ĠCities": 20830, "Ġticks": 36066, "Ġ***": 17202, "miss": 3927, "ĠDiscuss": 36691, "ĠHistorical": 23121, "ĠDPS": 25366, "Ġtoughness": 35879, "asso": 28372, "Ġactivists": 7941, "ĠSite": 14413, "gins": 29878, "mAh": 28142, "ĠJem": 48199, "imeters": 31551, "ĠProspect": 26736, "nuclear": 43131, "ĠBach": 25332, "ĠCoordinator": 36831, "ĠSupervisor": 45673, "ĠBom": 20403, "cas": 34004, "uti": 47966, "ĠPowers": 20668, "ĠLost": 9164, "Ġattachment": 18231, "iro": 7058, "Ġpolicing": 21922, "Ġaudits": 41973, "ilde": 44725, "Ġdying": 9950, "ĠDan": 6035, "itous": 22109, "Ġ2025": 32190, "Ġorientation": 12852, "ĠPe": 2631, "ĠOpportunity": 32675, "ĠStartup": 40472, "Ġknockout": 35825, "Ġshootout": 34995, "Ġ255": 14280, "Ġdigital": 4875, "Correct": 42779, "ĠNFL": 5134, "ĠCann": 12283, "Ġresidence": 11566, "invoke": 37669, "Ġcares": 16609, "app": 1324, "ny": 3281, "hematic": 23380, "return": 7783, "ĠTerm": 35118, "Ġdispos": 12483, "Ġfreshwater": 40941, "EMOTE": 36862, "connect": 8443, "Ġfrog": 21264, "Trigger": 48344, "ĠPv": 18367, "otide": 45608, "ĠAMC": 36239, "Ġfrivolous": 48461, "Ġsynchronization": 42133, "ĠEngland": 4492, "ĠExpedition": 38076, "Ġpouring": 23147, "Ġjoystick": 49485, "ĠFDR": 47700, "ĠLin": 5164, "ĠTheft": 26822, "adapt": 42552, "ĠMcConnell": 18184, "ibi": 27567, "letal": 47293, "Dest": 24159, "Ġcage": 17186, "orter": 4337, "NY": 12805, "Ġunfinished": 34419, "Ġcontact": 2800, "Ġcaric": 33674, "ritional": 21297, "ĠZed": 46159, "Ġ{:": 46110, "Arm": 26560, "Ġexpressly": 27462, "Ġtariffs": 29240, "romancer": 38211, "alys": 26266, "183": 24839, "ites": 2737, "Cos": 36734, "ulum": 14452, "Fixed": 13715, "Ġbandits": 44149, "ĠHTML": 11532, "Ġslope": 22638, "ĠSQL": 16363, "ron": 1313, "inally": 3289, "ĠNigeria": 19398, "Ġtotaling": 37066, "olk": 13597, "ĠReg": 3310, "watching": 50042, "ĠHOUSE": 46586, "ply": 2145, "Ġanalog": 15075, "Ġimprisoned": 21125, "ĠSurvey": 13084, "ĠKO": 21054, "ĠNokia": 26182, "Ġruntime": 19124, "ĠEffects": 17417, "ĠExile": 37273, "rior": 7701, "Ġprotest": 5402, "ĠPerhaps": 8673, "alin": 14414, "Ġlowly": 49587, "Ġstatus": 3722, "ĠPaso": 39245, "Ġreckoned": 46630, "Ġactions": 4028, "Ġlevy": 35783, "Ġincomp": 13352, "Ġsubject": 2426, "ĠRice": 13823, "ĠFD": 30002, "ICT": 18379, "GROUND": 46025, "Ġselves": 40823, "ĠAirbus": 39173, "ĠSmash": 18214, "Ġvoyage": 31505, "Ġscal": 16578, "Ġrapp": 29106, "lists": 20713, "Europe": 16112, "Ġdraw": 3197, "gun": 7145, "Ġso": 523, "Ġbasics": 19165, "Ġinfuri": 35905, "Ġcasino": 21507, "tions": 45240, "Ġmo": 6941, "Ġdrifted": 38648, "Ġdoesn": 1595, "ĠJoined": 16709, "ĠAlgeria": 36498, "ANA": 31574, "itent": 48324, "Ġemot": 4085, "Ġsentiments": 26930, "Ġflags": 9701, "LOD": 38543, "Ġlegitim": 18262, "348": 28978, "ockey": 8337, "Ġparams": 42287, "orthodox": 42539, "Ġsill": 49276, "philis": 49613, "Ġcontradicts": 40081, "Ġphosphate": 46926, "Ġterrible": 7818, "depth": 18053, "Ġguarant": 5505, "Ġyear": 614, "NT": 11251, "ucc": 18863, "Ġsecretly": 17348, "Ġscare": 19437, "Ġworthless": 28063, "Ġbonding": 37228, "Ġphenomena": 19428, "Ġhindsight": 36412, "imately": 3358, "annis": 45017, "Ġdemo": 13605, "Ġimitation": 40260, "ĠNurs": 28916, "ĠFac": 13585, "Ġcautiously": 39640, "åľ": 28839, "Ġpromotions": 20699, "ĠChronicles": 17740, "022": 44087, "ĠOrient": 35275, "ĠVac": 25709, "Ġ1941": 23234, "Ġknowledgeable": 29549, "ĠDem": 1897, "ĠJapan": 2869, "ĠGrass": 19062, "Dou": 40287, "ategor": 47467, "Interestingly": 33092, "ĠSouthern": 8050, "ondo": 22311, "ĠKarn": 31625, "ĠALE": 32318, "Ġmyth": 7918, ">>>>": 16471, "ĠBree": 40110, "Ġinconvenient": 37513, "ĠReyn": 18567, "ãĤ³": 24679, "ĠMuseum": 9594, "Usage": 28350, "ĠFeet": 43391, "Ġdescendants": 25321, "Ġhomeless": 10463, "ĠSouth": 2520, "Ġexaggeration": 42769, "jandro": 47983, "kg": 10025, "Ġleng": 40038, "ĠProvidence": 28319, "idium": 43523, "Ġsafeguard": 30925, "Jose": 23409, "Ġblade": 11865, "ĠLaboratories": 46779, "ĠGhana": 32825, "eki": 39548, "system": 10057, "Ġentirety": 21818, "start": 9688, "landers": 32358, "analysis": 20930, "Ġceremonies": 27340, "ube": 3266, "ĠControls": 36357, "Ġcalib": 27417, "ĠHaj": 29399, "Ġhath": 22027, "NR": 24723, "Had": 25383, "ĠForgotten": 28586, "ĠPaleo": 46840, "ĠSleep": 17376, "Ġbrighter": 26083, "Ġmimic": 26332, "ĠRule": 14330, "ĠTanaka": 47825, "ĠSgt": 22925, "ithing": 44556, "Ġlamb": 19343, "unch": 3316, "^^": 18237, "Washington": 17402, "473": 37804, "Ġcrave": 44434, "Ġmanipulated": 25036, "Built": 39582, "orns": 19942, "Ġundergone": 29900, "NASA": 29998, "627": 49856, "Ġ----": 13498, "ĠMySQL": 33476, "ĠMonth": 16061, "Ġinvoked": 24399, "Ġfunctional": 10345, "?????-?????-": 31666, "ay": 323, "usr": 14629, "file": 7753, "Ġhrs": 36201, "Ġdrib": 35003, "ĠCaleb": 40777, "Ġovercl": 40397, "ĠGl": 2671, "Around": 24472, "ĠMTV": 31214, "GHz": 23741, "ĠDOE": 46984, "Ġcryptographic": 40705, "Ġ339": 42489, "Ġcapt": 3144, "vim": 31124, "bu": 11110, "Ġremark": 6919, "ĠHi": 15902, "ĠSilk": 26006, "ĠSamuel": 17100, "ren": 918, "Ġplayable": 22469, "Case": 20448, "ĠTurn": 6756, "Ġcurfew": 49565, "Ġmundane": 30741, "Intel": 24123, "Ġtimber": 30605, "Ġmechan": 3962, "Ġcount": 954, "Ġpundits": 30855, "Ġdi": 2566, "scient": 25346, "ĠLanding": 29689, "ĠInvestigations": 38111, "ä¸Ģ": 31660, "ĠAerial": 47475, "Ġleaps": 37312, "Ġrightfully": 41802, "ĠBorough": 48114, "Ġextrem": 8963, "213": 26427, "ĠChrist": 1951, "Nusra": 39294, "ĠVery": 9576, "Ġbegged": 32946, "ĠCanberra": 33452, "Ġ(?,": 32843, "Ġpuberty": 35149, "arry": 6532, "Ļ½": 50159, "Ġroll": 4836, "ĠRad": 5325, "ĠMile": 26004, "ĠÂ°": 22074, "ĠFinn": 15368, "011": 28555, "ĠTemplate": 37350, "soc": 35634, "cyclopedia": 25497, "Ġabsentee": 40153, "ĠSeattle": 7312, "ĠMechanics": 47570, "andr": 46273, "Ġpasture": 46753, "Ġinflicted": 27010, "ĠVirginia": 6025, "Ġgrind": 20078, "Jenn": 35994, "Ġrevoke": 39041, "Ġgimm": 33135, "vector": 31364, "ĠHundreds": 32636, "Ġpaused": 24487, "ĠBourbon": 41638, "idia": 38513, "ivating": 39438, "ructure": 5620, "Ġsomet": 1054, "Ġconsidered": 3177, "enda": 7438, "Ġsecurity": 2324, "forcer": 45515, "ĠLithuania": 31295, "ĠPaint": 23467, "venient": 48109, "Ġgoalie": 31071, "Ġlum": 46390, "512": 25836, "618": 47448, "JV": 41697, "ĠPau": 37329, "UTF": 48504, "owner": 18403, "Ġwink": 41955, "ggie": 23571, "ĠBeg": 47479, "Ġcommanders": 22576, "Ġsecurities": 16145, "Duration": 26054, "ĠNHL": 9481, "Ġstop": 2245, "Ġiter": 11629, "isite": 16107, "Ġlaser": 12855, "Ġglowing": 21377, "Ġestim": 3959, "Ġforce": 2700, "zinski": 46394, "ĠMichelle": 16738, "Ma": 21467, "Ġzero": 6632, "ĠPlaint": 31313, "ervation": 13208, "inite": 9504, "Ġcompl": 2299, "vd": 20306, "ĠRussians": 13234, "tin": 43701, "Ġswarm": 30077, "Ġinfamous": 16526, "Ġsidelines": 29394, "ading": 4980, "Ġdisl": 19621, "ĠGard": 12790, "Ġwhine": 47409, "Ġdebate": 4384, "ĠSpray": 43536, "Ġrequired": 2672, "Speaking": 13887, "Ġprofitability": 37129, "Ġelectrom": 26629, "orsche": 26164, "ĠJenna": 45377, "ĠPric": 35077, "Ġreasons": 3840, "Ġreferrals": 44285, "yles": 24327, "ĠYuri": 38450, "ĠLoc": 15181, "Ġexponential": 39682, "udence": 42581, "fer": 2232, "Ġstressed": 15033, "ĠBounty": 38166, "COM": 9858, "Ġshareholders": 19195, "ĠYellow": 12550, "Marie": 44507, "Ġjunction": 35037, "istrates": 37909, "gren": 32762, "wang": 47562, "Ġbid": 8406, "Ġpertinent": 35268, "887": 46660, "Ġauthentication": 18239, "ĠClo": 38700, "ife": 901, "Ġcalendar": 11845, "Ġpriorit": 19086, "Non": 15419, "VR": 13024, "ĠHegel": 38106, "ĠBarkley": 45408, "Ġpockets": 16511, "ĠGrayson": 42657, "Ġconverter": 38394, "Ġ610": 44300, "am": 321, "Ġfreedoms": 23841, "Ġcrumbling": 37550, "Ġreactions": 12737, "rough": 740, "Hours": 39792, "ĠAlvin": 49939, "Ġturkey": 26876, "Ġcourtroom": 24832, "ĠINCLUD": 47783, "Ġsalvation": 21005, "App": 4677, "Ġrepeating": 20394, "ĠMinotaur": 40558, "ĠYahoo": 16551, "pires": 17833, "Ġexercised": 25805, "Ġquestioning": 14085, "sticks": 34810, "light": 2971, "Ġkissing": 25847, "Ġdomestic": 5928, "Ġundeniable": 36332, "ulator": 8927, "ĠContrary": 43607, "Ġestablishments": 33228, "ĠIslamists": 34434, "Ġsubsidiaries": 34943, "azar": 29413, "interpret": 27381, "Ġcomic": 9048, "Ġcomplaining": 18705, "tones": 36257, "DonaldTrump": 27674, "oo": 2238, "ement": 972, "Ġpartisans": 39959, "ĠCapital": 9747, "Ġmechanics": 12933, "ickey": 40389, "ĠTemplar": 41741, "mm": 3020, "Ġtagged": 30509, "ĠOctober": 3267, "ĠLoot": 29970, "ĠInterstate": 30739, "Ġgigs": 42299, "Ġ[/": 46581, "Ġbrothers": 9397, "Ġcomments": 3651, "ĠSet": 5345, "ro": 305, "Ġcontemporaries": 46028, "604": 31916, "Ġdried": 16577, "Ġcircumstances": 5917, "res": 411, "ĠSpiritual": 33944, "Ġappearances": 11057, "Ġskyrocket": 41483, "Ġfaintly": 49057, "ISH": 18422, "prep": 46012, "Ġ5": 642, "mie": 44871, "Ġpict": 2862, "atten": 41769, "Ġmurderers": 38313, "Ġelegant": 19992, "Ġresource": 8271, "ogo": 24076, "ĠWor": 16597, "302": 22709, "ivalent": 29540, "Ġobserve": 12414, "Ġshades": 23787, "Ġexposures": 32185, "ãĥĺãĥ©": 34473, "Ġdam": 1801, "Ġmodeled": 29563, "ĠMermaid": 45523, "Ġfever": 17372, "Ġbond": 6314, "Ġcollision": 17661, "460": 34716, "Ġstaffing": 36700, "azes": 36096, "tall": 35429, "Ġfamous": 5863, "Ġhect": 35246, "HD": 10227, "Ġfamilies": 4172, "retty": 16100, "899": 44093, "Ġmobilization": 46762, "ĠHaven": 21425, "Latest": 39478, "uk": 2724, "ĠAgriculture": 19717, "Ġaggravated": 25890, "682": 43950, "Ġbundle": 18537, "Ġalive": 6776, "Ġborrowed": 22546, "Would": 17353, "Ġextremely": 4457, "219": 28896, "ĠKarin": 38802, "buck": 27041, "scar": 13034, "Ġtigers": 43114, "lon": 14995, "ĠCher": 19305, "Ġscholarly": 31950, "Iter": 29993, "ĠACL": 17382, "Ġcollected": 7723, "boss": 42820, "Ġnodding": 47583, "bryce": 32524, "Ġword": 1573, "Ġdonations": 10976, "ĠNorthwestern": 30197, "CONT": 37815, "Ġpitching": 21088, "Ġ$_": 40111, "ĠKara": 34856, "ĠMeyer": 23975, "ĠSLI": 44538, "puted": 17128, "Ġanime": 11984, "warming": 48133, "Jesus": 28219, "Ġ421": 49294, "Ġeast": 7627, "Walker": 39950, "Ġmash": 30407, "Ub": 36609, "Ġdigestion": 44639, "1024": 35500, "Mexico": 33006, "Ġthrough": 832, "Ġformulated": 34391, "ĠLoans": 33063, "ogenesis": 25908, "Ġhires": 37097, "Ġgrave": 12296, "ĠLaw": 3854, "Ġ163": 26826, "ĠECO": 39031, "Contribut": 37146, "Ġcomplying": 39076, "Ġlookout": 40497, "Ġmonopol": 30797, "ĠOdyssey": 28032, "Ġbike": 7161, "Ġtimetable": 40021, "Ġsupremacists": 37084, "Ġglanced": 27846, "Ġexalted": 46683, "ĠDust": 16240, "ĠFrenzy": 48522, "Ġimaginary": 26726, "ĠMead": 21910, "Ġindemn": 47846, "Ġ([": 29565, "Ġhonors": 25279, "Ġinformant": 35710, "Ġnifty": 47803, "omnia": 37340, "ĠGale": 36483, "odium": 12664, "ĠSpencer": 15971, "Ġtyr": 22934, "Ġconfid": 47830, "currently": 41745, "ociated": 19293, "erity": 32821, "ĠEater": 40366, "Ġlikes": 7832, "Ġwidest": 46232, "regor": 32288, "ĠBillion": 37085, "ĠArchae": 32187, "ĠOpenGL": 30672, "ĠWidth": 38807, "Ġseizing": 37054, "necessary": 49986, "ĠZurich": 43412, "Pres": 25460, "Ġowed": 21057, "ER": 1137, "West": 15045, "upper": 45828, "Ġasleep": 16039, "Forest": 34605, "Euro": 14398, "Ġbee": 20697, "Ġpeanut": 26636, "Ġvaccinated": 37663, "Ġyelling": 22187, "':": 10354, "\"\"\"": 37811, "Ġtactic": 18543, "Ġcompromise": 13110, "ĠDraco": 31181, "ĠPair": 39645, "ĠWichita": 45526, "ĠBeasts": 37055, "Fest": 45139, "ĠBadge": 44308, "atical": 39056, "Ġprimates": 41316, "Ġreward": 6721, "stru": 19554, "Ġappoint": 5393, "nesota": 8360, "ĠVoy": 23020, "onsense": 46563, "Ġcrossover": 27668, "Ġlooks": 3073, "Ġpoliticians": 7602, "ãħĭ": 35098, "ĠRE": 4526, "du": 646, "Ġapartheid": 38264, "dies": 25990, "ĠDemocrats": 4956, "piracy": 8703, "ĠRevenge": 24366, "Ġdisplay": 3359, "android": 19411, "Ġwrit": 1991, "Ġaccents": 39271, "Ġ229": 31064, "ĠVietnamese": 23618, "Ġimmune": 10900, "ĠTayyip": 41346, "ĠsrfAttach": 43065, "Ġtorped": 30892, "ĠLawson": 35892, "ĠLow": 7754, "Ġexaminer": 37240, "over": 2502, "304": 21288, "Browser": 46532, "ĠMoonlight": 39951, "Ġlonging": 40314, "riction": 46214, "Kent": 42265, "Mind": 28478, "resents": 6629, "Ġhors": 45334, "Ġestrogen": 30541, "Byte": 40778, "Ġobs": 10201, "ĠFat": 12301, "Ġsailed": 33835, "acons": 37256, "irms": 8789, "ea": 18213, "arrison": 22472, "Ġspecifying": 31577, "ĠCommunism": 39627, "sexual": 18338, "Accessory": 41629, "Save": 16928, "12": 1065, "Ġinquest": 48314, "Ġouts": 12198, "esque": 28939, "ĠCab": 15976, "Ġbatting": 23761, "Ġoptim": 6436, "Ray": 19591, "YN": 40760, "ĠRet": 4990, "ãĤ°": 26095, "Ġclarity": 16287, "oÄŁan": 48030, "ahah": 36225, "ĠMarket": 5991, "ĠFisheries": 49179, "Ġlipid": 34073, "Ġpunished": 16851, "Ġexplosion": 11278, "ĠLieutenant": 21586, "Ġmetabolism": 20211, "ĠLumia": 38194, "club": 18664, "ĠRailroad": 36289, "Ġdrought": 18393, "huge": 40878, "TE": 9328, "aney": 22297, "item": 9186, "bugs": 32965, "ĠVent": 15716, "Desk": 42523, "Ġgameplay": 11327, "Ġbells": 30987, "Ġcholesterol": 18759, "Ġcylinder": 24911, "ĠCanadians": 14008, "Ġauthorizing": 42765, "ĠFul": 28040, "ĠJacques": 35437, "choice": 25541, "July": 16157, "ĠStephens": 37072, "170": 17279, "inals": 6897, "Ġmodels": 4981, "ä¸": 10310, "Ġ318": 39320, "thora": 34261, "Ġaroused": 38832, "620": 38850, "Ġstereotypes": 22364, "Ġâĸº": 34933, "NAS": 18293, "Enable": 36695, "Help": 22087, "Ġtrouble": 5876, "Ġgrabs": 22378, "Ġintimate": 16584, "Ġde": 390, "Ġrover": 35761, "701": 41583, "Ń·": 48953, "CLUS": 28332, "Ġdivergence": 43366, "ĠMilwaukee": 16629, "ĠguiActive": 18472, "Ġcontradicted": 44853, "farious": 41504, "gotten": 21646, "aux": 14644, "Ġdevelopments": 13312, "Ġcousins": 28706, "ĠÂ¥": 38221, "Ġregistration": 9352, "021": 46821, "Ġleft": 1364, "Ġsidewalks": 38282, "ĠHenri": 44485, "Ġmechanical": 12370, "Ġadore": 47194, "Ġfixes": 13040, "Ġ178": 27368, "Ġtattoo": 18785, "ĠVatican": 19057, "Ġdisagreement": 25800, "ĠBout": 40808, "Awesome": 49061, "Ġindef": 16536, "Ġpretty": 2495, "870": 46951, "Ġinterview": 2720, "Ġsuspend": 22004, "Ġjars": 33008, "ĠHor": 6075, "Ġpipes": 19860, "Files": 25876, "Golden": 32378, "Try": 23433, "Oregon": 41243, "ĠWan": 33242, "Ġindist": 37665, "Ġcollapses": 35752, "ĠPlum": 43178, "Ġcompar": 4616, "ĠSTAT": 15486, "hu": 13415, "ĠMotorsport": 49996, "ĠBetty": 29504, "\">": 5320, "ĠNun": 39342, "Grad": 42731, "MON": 27857, "Tom": 13787, "Ġsecretion": 42432, "ateg": 2397, "Ġmagnificent": 25023, "Ġadaptive": 29605, "ĠManufacturer": 40218, "Ġaccurate": 7187, "ĠVID": 32247, "Ġunequal": 37334, "Ġsad": 6507, "orting": 24707, "Ġshift": 6482, "Ġblocks": 7021, "venge": 18674, "Ġselecting": 17246, "atever": 3587, "player": 7829, "oliath": 43009, "rea": 21468, "Ġreprim": 41929, "Ġtransfer": 4351, "Ġrestraint": 24596, "args": 22046, "Ġ();": 13979, "ophys": 39665, "Ġspate": 48831, "ãĤĬ": 28255, "Ġprofound": 11982, "Central": 30645, "Ġhotter": 37546, "Ġtrunc": 40122, "ĠMillenn": 19007, "Ġbenefit": 4414, "ĠAdventure": 9553, "inis": 16661, "ĠFalk": 32164, "ĠSummit": 20014, "ADE": 19266, "Ġneighbouring": 29272, "ĠDoe": 31780, "tu": 28047, "ac": 330, "Ġdiscussing": 11142, "Ġsandwich": 20433, "Gene": 39358, "Ġshuffle": 36273, "Software": 25423, "Ġillust": 6406, "Mer": 13102, "Ġrifles": 18469, "Ġdenotes": 43397, "inese": 3762, "asured": 34006, "Ġscen": 4408, "Ġsupplements": 20864, "ĠArmageddon": 49034, "ĠGadget": 39266, "ĠCrosby": 33098, "ĠLilly": 35134, "Ġatt": 708, "ĠTRI": 37679, "Ġpour": 12797, "ĠOsh": 46614, "agall": 44906, "ĠMcCann": 48309, "Ġpopup": 46207, "Ġchoice": 3572, "Ġbusiness": 1597, "Talking": 45904, "Ġ200": 939, "Ġconditioned": 31964, "wav": 45137, "Ġforb": 11747, "Ġblight": 42514, "Jones": 25784, "Ĳ": 238, "Ġsmuggled": 46738, "Ġturret": 28101, "ĠUpdated": 19433, "tons": 27288, "Ġeconom": 1707, "ĠBurgess": 46744, "Ġspaced": 38980, "piece": 12239, "ĠFenrir": 39394, "ĠURLs": 32336, "Ġnarrower": 40369, "_": 62, "Ġtestosterone": 18776, "cht": 21474, "353": 33319, "ĠNorn": 34121, "Ġdescribe": 6901, "HM": 36905, "Ġstainless": 25704, "ĠRoku": 46194, "ĠEVENTS": 22399, "Ġevict": 49397, "Ġpink": 11398, "Ġcycles": 16006, "Ġsusceptibility": 43304, "ĠSAM": 28844, "283": 30290, "Ġcolonial": 17091, "Ġcircuitry": 42344, "ĠStanton": 36442, "iona": 32792, "Ġaiming": 17272, "Ang": 13450, "Ġsmashed": 23354, "Ġcloning": 45973, "Ġhills": 18639, "cker": 15280, "ithmetic": 29848, "ĠDarling": 49825, "Ġvending": 47254, "Ġnightly": 37862, "List": 8053, "Ġindicated": 8203, "Ġdrinks": 11758, "Ġacademy": 21531, "Ġestimating": 39539, "friendly": 13120, "Ġdemonic": 33739, "ĠMonsters": 21464, "ĠISI": 22048, "Ġanten": 16943, "maximum": 47033, "Ġdessert": 23084, "Ġmouths": 28552, "Ġvague": 13443, "Ġravaged": 47877, "ĠWiz": 41122, "Ġrein": 6865, "Ġcuisine": 33072, "Ġbom": 8626, "Ġgripped": 42046, "Ġreliably": 26995, "ĠInc": 3457, "Ġincarceration": 27224, "oves": 5241, "Ġbachelor": 29384, "Ġdiligently": 44243, "109": 14454, "actions": 4658, "ĠmM": 47676, "onge": 14220, "These": 4711, "Ġshell": 7582, "Ġfacilitate": 15570, "Ġrusty": 47855, "ĠPsy": 18773, "Purchase": 47651, "ĠWard": 12150, "Mission": 37057, "751": 48365, "Ġmyself": 3589, "Ġmischief": 38625, "Ġimaging": 19560, "cock": 21517, "ĠEar": 2905, "ĠNintendo": 9714, "Ġkiss": 9245, "Ġproceeds": 15740, "ĠSPEC": 28196, "Ġeg": 29206, "Ġfavourites": 39489, "ĠVelocity": 43137, "Dir": 35277, "profits": 31504, "Ġsport": 6332, "brace": 46565, "ĠCl": 1012, "Il": 33666, "MORE": 23346, "Flying": 49095, "acan": 50195, "DragonMagazine": 42424, "agent": 25781, "Ġcivilization": 14355, "ĠVeterans": 18950, "aughed": 13726, "akis": 27321, "Ġegreg": 31954, "Fight": 27365, "ĠUPS": 33513, "ĠDamascus": 21028, "ĠRNC": 37570, "Ġmarkup": 41485, "ĠFormat": 18980, "chester": 35983, "Ġeyewitness": 34316, "Ġopposed": 6886, "ilion": 29935, "ĠModer": 35926, "Ġforeigners": 19670, "019": 30484, "cific": 7790, "Ġbrainstorm": 48733, "Ġarms": 5101, "feeding": 22824, "Ġjuggling": 48097, "Ġinnocence": 24211, "gian": 18299, "Ġdeceptive": 34036, "Ġsensed": 39243, "ega": 26470, "ĠMembers": 12688, "Ġgotta": 17753, "ĠBok": 47390, "ĠXiaomi": 46726, "ĠVenezuel": 13420, "ĠSAL": 42475, "Ġè£ıè": 34504, "Gameplay": 43241, "Ġmust": 1276, "season": 6230, "phone": 4862, "stress": 41494, "Ġwreckage": 31781, "ãĢĳ": 31817, "Ď": 202, "topia": 46575, "arsh": 5406, "176": 24096, "pleted": 16838, "uary": 2838, "Ġfault": 8046, "ĠBeir": 38693, "Ġdoes": 857, "Chart": 45488, "Ġif": 611, "annels": 8961, "God": 13482, "rub": 25089, "ĠLtd": 12052, "ĠHardware": 28715, "Ġimperial": 14312, "Ġaim": 4031, "Ġissuance": 30145, "Ġphr": 7607, "ĠDisabled": 43201, "guided": 23657, "smart": 27004, "insert": 28463, "ĠSporting": 31790, "Ġunleashed": 28136, "Ġquantify": 36336, "rington": 24833, "Ġupward": 18644, "Mary": 24119, "ĠConver": 35602, "xes": 48169, "Ġillegal": 5293, "Ġliberating": 48291, "ĠSoul": 8653, "Ġunlocked": 14838, "street": 25662, "ĠAddiction": 40187, "ĠPossible": 33671, "ĠSyl": 49481, "Ġreviewers": 30702, "Ġomnip": 40046, "Ġinterviewing": 31481, "Ġsmoking": 9216, "Ġperjury": 47816, "Ġbarely": 8523, "rane": 14579, "Ġpocket": 10000, "Ġpreached": 38737, "Apply": 44836, "btn": 46118, "ING": 2751, "ERC": 47691, "brance": 28031, "Ġscripture": 36739, "Lind": 43410, "////////": 16150, "Ġå": 10263, "ĠFranÃ§": 40178, "gae": 25002, "Ġauthenticated": 44529, "â": 158, "Ġprimitive": 20049, "xit": 10198, "Ġcouncillors": 43321, "ogeneous": 32269, "Ġimmersive": 31403, "jured": 38608, "Ġranked": 10307, "ĠDoes": 8314, "vel": 626, "kers": 15949, "Ġflank": 30172, "Senior": 31224, "Ġgreeting": 31933, "Ġunfortunately": 12716, "MU": 42422, "ĠNorm": 11220, "Born": 28524, "66666666": 41977, "Ġheroic": 23523, "anka": 15927, "Ġkidnapping": 25201, "Ġexperimentation": 29315, "Ġfilthy": 35677, "Roberts": 45487, "EG": 7156, "ĠLU": 50168, "Ġgut": 12500, "Ġcoronary": 37151, "Ġcatering": 39211, "ĠTi": 16953, "ĠSid": 15686, "Ġchars": 34534, "Ġconvers": 3453, "ĠCarolina": 5913, "ĠAbility": 20737, "Ġplayoffs": 12980, "Magn": 48017, "Ġax": 7877, "Ġboasts": 22103, "ĠSeries": 7171, "Ġreligion": 5737, "ĠDawson": 32801, "Hop": 23483, "ormonal": 33792, "ĠSexual": 19536, "inders": 29700, "Ġsessions": 10991, "Ġinterstate": 33078, "buster": 24899, "Ġchall": 2532, "oyal": 4815, "Ġpunishment": 9837, "ĠPROGRAM": 46805, "ĠSpells": 30656, "Ġclosely": 7173, "Month": 31948, "Ġkit": 6220, "Ġhp": 27673, "iterranean": 19012, "ĠShel": 15325, "Ġbubbles": 25037, "Tips": 43368, "Ā": 188, "quant": 40972, "..................": 49129, "ĠHarm": 17925, "Ġinsert": 7550, "Auto": 27722, "Ġreconstruction": 25056, "Ġmayoral": 43811, "ĠBened": 25660, "Ġexecutable": 28883, "Ġtarg": 2103, "Brand": 38416, "Basically": 31524, "Ġanswers": 7429, "ĠisEnabled": 34842, "ĠKerry": 15981, "ĠSno": 42578, "ĠAssoci": 3928, "ª": 103, "ĠAgency": 7732, "Michelle": 48736, "Ġfl": 781, "Ġcoloring": 33988, "verage": 1857, "ometric": 16996, "Ġply": 35960, "Ġformed": 7042, "Ġsaturation": 36275, "Ġswoop": 38527, "Ġpresenter": 39597, "Ġinterventions": 19901, "ĠLW": 38492, "Ġheterogeneity": 49763, "Ġprovide": 2148, "ĠRib": 23133, "iscovery": 40821, "ĠQB": 16135, "ACP": 33056, "06": 3312, "Ġtrope": 32463, "Ġsimilarities": 20594, "Ġtone": 8216, "lik": 46965, "Ġreceptions": 35401, "Ġmigrating": 45879, "Ġswung": 28507, "Ġtink": 44569, "Ġmedical": 3315, "released": 30147, "Ġaiding": 37221, "ĠHearing": 34663, "Ġomit": 42848, "Ã¼": 9116, "ĠGideon": 46606, "Ġrelics": 40970, "ĠC": 327, "ĠRussia": 3284, "Tar": 47079, "Ġcondone": 48058, "riz": 47847, "oslov": 50005, "ĠTruman": 33027, "iao": 13481, "ivid": 1699, "ĠAug": 2447, "phil": 28864, "Ġcontraceptives": 45295, "ĠChristianity": 13624, "ations": 602, ">\"": 24618, "Ġov": 19643, "iper": 9346, "itor": 2072, "shown": 42579, "ceptions": 11755, "ĠWWE": 15247, "Ġexhaust": 12142, "ĠKobe": 29493, "Ġloose": 9155, "ĠTransit": 22325, "Ġpursue": 10660, "emen": 8952, "Beaut": 38413, "ERE": 9338, "Ġhoops": 46730, "Ġilluminate": 38407, "ĠGrade": 22653, "iya": 21008, "669": 36657, "Ġinject": 8677, "umenthal": 42300, "Reporting": 42159, "ape": 1758, "ĠPrepare": 43426, "Ġsuppressed": 25822, "Ġ):": 15179, "Ġlaying": 16299, "rooms": 9649, "ĠBland": 49524, "phan": 19080, "abba": 48910, "Ġethn": 33961, "PF": 42668, "Ġhumorous": 36102, "Ġterrorism": 8649, "Ġsizes": 10620, "Ġcounties": 14683, "ĠSwedish": 14023, "ĠCornel": 48214, "Ġreferences": 10288, "ĠMedical": 8366, "Ġverbal": 17755, "Ġgreed": 25474, "isha": 19388, "Ġsmokes": 44589, "Ġadvertisements": 25210, "ĠMaria": 14200, "Ġcer": 26074, "Ġgirl": 2576, "Ġteaspoon": 22326, "Clark": 43250, "ĠWarehouse": 45927, "ĠGibraltar": 47403, "Ġrampage": 34040, "useum": 6744, "Ġroots": 11135, "ĠTwins": 29640, "Ġnotified": 17600, "Ġtee": 30479, "Click": 8164, "Ġdefendants": 16757, "Ġhubs": 38459, "Ġqualification": 28587, "Christian": 20298, "227": 24403, "Lower": 31426, "ĠGinger": 38682, "ĠAttack": 8307, "Ġticket": 7846, "ĠLebanon": 16849, "ĠLatter": 34437, "ĠDefinition": 30396, "Ġpunched": 25436, "kef": 30728, "iji": 20770, "ĠJensen": 32623, "Ġtroopers": 38817, "Holy": 33336, "ĠAircraft": 30767, "ĠLegacy": 14843, "excluding": 42218, "izarre": 12474, "ĠStewart": 13671, "ģ": 223, "cks": 4657, "stall": 32989, "ĠLeicester": 29224, "avi": 15820, "Ġbalance": 5236, "shock": 39563, "Ġensu": 29084, "oby": 26730, "yrights": 49158, "import": 11748, "Brow": 32635, "Ġpalette": 27043, "sburg": 30359, "Ġrug": 14477, "ĠFW": 48849, "Ġpreview": 12714, "Ò": 142, "Ġcredible": 18409, "ĠCoca": 29803, "ĠCups": 41611, "Ġbins": 41701, "Ġgrading": 43165, "edit": 19312, "raits": 27554, "Ġagents": 6554, "Ġnegatives": 42510, "Ġcomplainant": 42764, "185": 21652, "ait": 4548, "ociate": 47615, "outine": 28399, "urnal": 35735, "Ġdescent": 18598, "ĠGetting": 18067, "government": 14480, "albeit": 45781, "Ġadd": 751, "comed": 15128, "ĠTrace": 34912, "Ġdet": 1062, "Depth": 48791, "Ġabout": 546, "Ġdeed": 28637, "Ġenglish": 46932, "ishers": 39116, "Brave": 39787, "Ð´": 43666, "Ġmillennial": 46451, "Ġimprovement": 9025, "Ġintense": 8157, "Ġdef": 825, "Ġ261": 39166, "Ġexploit": 14561, "Ġmorphology": 46320, "Ġscra": 19320, "ĠBitcoins": 34983, "Ġeditions": 23713, "cerning": 41981, "Ġcontinent": 15549, "ĠRepresentatives": 17132, "Ġ./": 24457, "\"></": 23984, "Ġeaten": 17065, "Ġj": 474, "ä¿": 46479, "ĠObservatory": 25758, "ograms": 26836, "Ġcombine": 12082, "Ġdowntown": 9436, "Ġwithdrew": 25518, "Ġmaneuvers": 38974, "Ġheav": 6002, "1995": 21908, "Ġneighbor": 4780, "ĠSorce": 21477, "Ġrushed": 13999, "Ġposterior": 34319, "Simple": 26437, "eri": 33442, "ETS": 32716, "MODE": 49058, "pe": 431, "DIT": 49828, "ARS": 27415, "Almost": 23379, "ORY": 15513, "Ġhips": 21497, "Country": 33921, "erick": 41556, "Ġinstructors": 33667, "Ġaltogether": 13318, "Ġ25": 1679, "ĠTransformers": 39185, "Ġhanded": 10158, "Ġgasped": 45236, "owski": 12079, "Plan": 20854, "Surv": 34652, "ĠPriority": 34416, "bur": 6236, "oots": 13880, "Rate": 32184, "ĠRemain": 42606, "Ġpall": 47725, "bit": 2545, "ĠWitcher": 36018, "nb": 46803, "Ġculturally": 30573, "360": 15277, "hack": 31153, "ictionary": 14188, "OLD": 15173, "walker": 20783, "Ġadjunct": 44737, "Ġphotographers": 26474, "asion": 4247, "bytes": 33661, "iterator": 48727, "ĠHawaiian": 29827, "Ġreconstruct": 31081, "ACY": 43300, "Ġhitters": 34113, "ĠSword": 11535, "Ġlion": 18744, "ĠLionel": 44286, "ata": 1045, "Ġoste": 32674, "å¹": 33176, "Ġmarines": 45333, "vg": 45119, "ber": 527, "Ġshocked": 11472, "needed": 27938, "ĠJFK": 35216, "ĠBuy": 11763, "ĠHannity": 35368, "Ġsensors": 15736, "147": 20198, "ĠFnatic": 44704, "Ġgenes": 10812, "Ġiii": 46955, "Ġservice": 2139, "Ġconsolation": 45194, "ĠFalcon": 17621, "Americans": 17636, "aria": 10312, "Ġqueer": 24506, "Ġexplained": 4893, "Ġcomparative": 29270, "Ġfirms": 9611, "Ġastroph": 48782, "Ġ?": 5633, "failed": 47904, "Ġcabin": 9351, "Ġmainland": 22779, "Ġprisoners": 10577, "Ġcaches": 50177, "ĠFee": 28522, "Ġsiph": 44105, "ĠJournal": 4913, "Ġwhipped": 30712, "ãĥį": 44916, "hey": 20342, "-,": 20995, "Ġask": 1265, "Operation": 32180, "ĠRamirez": 34783, "Ġ28": 2579, "ĠSwap": 48408, "ĠRape": 35286, "Ġvisitor": 21493, "Ġplayful": 34264, "ĠAdministration": 8694, "Ġdetract": 31041, "Th": 817, "Ġdiscredit": 34019, "ian": 666, "Ġinterchangeable": 43615, "before": 19052, "Plus": 17860, "Ġsubsequent": 8840, "ĠVern": 23092, "Ġsalvage": 32504, "ĠLinkedIn": 27133, "essler": 33730, "Ġunderstands": 14759, "Post": 6307, "Plot": 43328, "ĠSc": 1446, "unsigned": 43375, "Ġunknow": 39472, "Ġfracturing": 48690, "ĠElection": 14219, "Due": 22229, "Ġavoids": 30940, "ĠAdidas": 48976, "culosis": 38767, "Ġtraces": 20675, "Ġattract": 4729, "Ġfreight": 30724, "Ġplush": 46336, "Ġsep": 41767, "Ġorganisation": 12684, "Ġeffortlessly": 42241, "Ġemerging": 11823, "ĠFrieza": 48080, "udicrous": 33784, "Store": 22658, "Inf": 18943, "ĠSilicon": 18210, "Ġstre": 1937, "Ġupside": 17196, "ĠAli": 12104, "JECT": 23680, "ĠResp": 10328, "Ġmull": 35024, "Ġtrance": 43618, "Ġfrontier": 27580, "315": 27936, "vm": 14761, "Ġstrips": 22670, "Ġpickup": 19422, "Ġsubst": 3293, "IFIED": 28343, "etically": 16877, "ĠBACK": 28767, "ilage": 50006, "Ġwall": 3355, "ĠKingdom": 7526, "ĠChang": 22597, "ctions": 2733, "fuel": 25802, "Ġparadise": 31354, "ivities": 28720, "achi": 14299, "Ġtransition": 6801, "201": 1264, "rypted": 15109, "RAW": 20530, "Ġlicensed": 11971, "saf": 49585, "Ġdangers": 16169, "Ġspicy": 26880, "ĠPlays": 38116, "Ġorganising": 46729, "ots": 1747, "ĠSaiyan": 33725, "PROV": 41283, "ãĥķ": 17681, "ESH": 44011, "Ġattach": 10199, "horn": 25311, "auto": 23736, "ĠCopy": 17393, "leases": 29329, "AGE": 11879, "Ġlens": 10317, "583": 46239, "Ġexpelled": 27307, "rators": 18942, "Ġconsequ": 4937, "Ġdeparture": 12928, "ĠISO": 19694, "NF": 21870, "ileen": 42236, "Ġexecuting": 23710, "eredith": 36897, "Ġcigar": 24518, "eters": 7307, "oring": 3255, "ĠInteractive": 21365, "Ġversions": 6300, "leck": 40667, "ĠFormation": 46689, "instance": 39098, "Ġinduce": 21155, "108": 15711, "Ġdesert": 10326, "ĠDead": 5542, "Ġgly": 13874, "Ġtype": 2099, "9999": 24214, "ĠAdminist": 6813, "ĠCrusade": 33744, "Ġcloaked": 45853, "Ġslapping": 48966, "Done": 45677, "ĠKislyak": 46467, "Ġ1997": 8309, "Ġcumbers": 44392, "Ġridiculously": 32871, "EMS": 39201, "ulence": 32401, "ery": 1924, "Ġtranscript": 14687, "ĠQuran": 30018, "Ġcultivating": 45414, "thanks": 27547, "ĠPocket": 27290, "uint": 28611, "ĠFil": 7066, "ĠSinclair": 34927, "Ġdesperate": 12111, "Ġblanket": 18447, "div": 7146, "defense": 19774, "Ġscientifically": 32627, "Ġaccounted": 17830, "Ġ223": 30299, "Ġcharities": 23980, "ĠOrigin": 19349, "Ġ\\\"": 19990, "ĠAl": 978, "ceiver": 39729, "Ġinstant": 9113, "Ġpatriotism": 36994, "ĠErie": 40911, "ĠãĤ": 17433, "Ġopens": 9808, "Ġsatell": 8983, "aughs": 19256, "ILS": 45484, "icker": 15799, "ĠLatest": 26603, "ĠVoice": 15282, "ĠIndigo": 40673, "regulated": 27739, "Ġimm": 2296, "Ġ230": 18395, "ME": 11682, "Ġinnovations": 25438, "ĠAlexa": 34630, "regn": 28321, "Ġatop": 20156, "Origin": 39688, "Ġnominate": 40376, "****": 2466, "ĠBrigade": 26012, "Flag": 34227, "\\": 59, "ĠMidlands": 47989, "ĠLinux": 7020, "ICAN": 42710, "Ġregion": 3814, "ĠAld": 15586, "ĠFont": 24060, "ĠRebel": 24551, "ĠXi": 21313, "school": 14347, "Ġcircle": 9197, "ĠOM": 32468, "Ġrecoil": 30476, "ĠCompan": 16154, "Ġwonderful": 7932, "Ġwallets": 29608, "Ġdissolve": 33862, "298": 27728, "Ġgrades": 19051, "ĠFoo": 36080, "ãĥ¼ãĤ¯": 42869, "ĠFra": 39313, "Ġdata": 1366, "ĠBlossom": 35544, "ĠInteresting": 43580, "Ġsponsor": 17487, "oto": 2069, "Bar": 10374, "Ġallow": 1249, "Ġ1904": 43785, "Ġworkforce": 16433, "Ġwalked": 6807, "Ġgrap": 23360, "Ġgrew": 6348, "ĠMSG": 49064, "ĠSupp": 8105, "Ġaluminum": 15955, "319": 35175, "Sy": 13940, "riott": 43517, "Ġfocal": 25397, "ĠTraff": 31203, "planned": 36800, "ĠLDS": 28377, "ĠAda": 47395, "ĠAfghan": 6539, "Ġpenchant": 41773, "Ġconsolidated": 27890, "ĠStandards": 20130, "DD": 16458, "ĠUber": 12024, "Ġparticipating": 11983, "ĠJays": 23288, "thirst": 48832, "Database": 38105, "Ġclarify": 18282, "ĠVid": 38965, "ĠFarrell": 37568, "generated": 27568, "zy": 7357, "ãģ«": 28618, "through": 9579, "East": 25234, "area": 20337, "ĠStark": 20956, "Button": 21864, "ĠRemem": 42898, "Ġfluoride": 40311, "ksh": 50133, "Ġmillisec": 33606, "bowl": 36859, "ĠGrounds": 44201, "Ġcowork": 30521, "ĠKong": 9071, "idge": 3130, "bey": 23454, "adj": 41255, "Republican": 25777, "ms": 907, "Ġlower": 2793, "ĠPatriot": 26888, "Ġutilize": 17624, "Ġ405": 36966, "ĠMAKE": 39134, "ĠUFC": 11448, "ik": 1134, "Ġvisually": 22632, "ĠDonetsk": 31819, "Ġsocietal": 26877, "FG": 30386, "Input": 20560, "sever": 28116, "ĠBuzz": 15753, "expression": 38011, "ĠRobinson": 12652, "ĠSick": 32181, "ospace": 24912, "ĠAD": 5984, "ĠTS": 26136, "Ġacknowledges": 23477, "ĠSik": 32615, "Ġreferring": 9759, "oko": 16044, "Ġnutrient": 27560, "Ġhorrend": 39910, "ĠZo": 31645, "Ġcustoms": 17112, "Hyd": 40436, "grain": 48270, "Ġviewed": 9569, "iest": 6386, "Ġaccol": 45667, "Ġsubsidy": 28646, "Ġdisappointment": 18641, "Ġclause": 13444, "OD": 3727, "ĠEliot": 46082, "tips": 41315, "Ġeh": 32622, "Ġobligation": 12990, "ĠWonderful": 40128, "lining": 21310, "Ġbacklog": 38780, "359": 30743, "Ġhis": 465, "abulary": 22528, "Ġengine": 3113, "ÙĨ": 23338, "ourse": 9047, "164": 23237, "neau": 46533, "Ġsweeping": 18404, "Ġpecul": 18699, "Ġsuburban": 20154, "ĠLizard": 42452, "oul": 2852, "Ġstar": 3491, "ĠLancet": 45122, "_.": 44807, "ĠWatts": 27555, "Ġsle": 3133, "ĠSTORY": 46427, "humans": 40205, "Ġbehaviors": 14301, "IO": 9399, "Ġ206": 27253, "Ġ'(": 29513, "ĠJos": 22568, "ourney": 5604, "antasy": 34921, "Ġconversion": 11315, "ancing": 5077, "Ġsounds": 5238, "proc": 36942, "ĠTanner": 43544, "ĠIndonesian": 28259, "2000": 11024, "Ġimmersion": 36375, "Ġtaught": 7817, "Ġpalace": 20562, "Commission": 50246, "ĠJerome": 33617, "Ġlit": 6578, "asonry": 38950, "ĠHelmet": 35900, "ĠLair": 15067, "ĠEuropean": 3427, "Ġpossessing": 25566, "Benz": 42484, "erd": 45744, "Head": 13847, "Ġcere": 6736, "Ġagent": 5797, "ĠFn": 37481, "activity": 21797, "approximately": 47498, "ĠRuin": 46085, "otto": 17631, "Ġcommitment": 7901, "Mit": 43339, "Ġchooses": 19769, "roying": 38295, "ĠPicard": 36614, "Ġreporting": 6447, "ĠBern": 6206, "ĠPill": 19770, "Ġpretended": 36766, "Ġbrands": 11394, "Ġexamples": 6096, "ĠNay": 38808, "sci": 36216, "Ġsteak": 26320, "Ġ$(": 29568, "ollen": 29952, "Ġparanormal": 47525, "ĠYale": 19681, "anus": 41141, "opl": 20106, "zie": 49746, "ĠUSD": 11403, "Ġstripe": 39858, "Ġcar": 1097, "anamo": 33524, "ĠPosts": 12043, "ĠClock": 21328, "Ġ(": 357, "Ġland": 1956, "Ġmonth": 1227, "Ġinspire": 18330, "Ġdigest": 16274, "Ġwasting": 24430, "Ġsl": 1017, "Ġpillow": 28774, "FH": 44602, "ria": 7496, "ĠSyracuse": 29141, "recent": 49921, "Ġheadphones": 22537, "Ġ294": 41235, "oz": 8590, "static": 12708, "ĠReports": 17905, "Ġger": 27602, "ĠBil": 24207, "College": 38951, "Ġseal": 13810, "Ġlockdown": 47955, "ĠMutant": 35319, "Ġdisappearance": 22375, "Ġbomb": 5194, "ĠOverwatch": 31717, "etsy": 34877, "ĠLearning": 18252, "ĠDumbledore": 27442, "Ġnailed": 37708, "Ġ})": 32092, "Ġ139": 23666, "Ġtailor": 35280, "ĠUltimate": 11165, "Ġelectro": 15206, "Ġsubsidies": 16230, "ĠAccuracy": 33222, "Ġclothes": 8242, "obal": 2572, "Ġaura": 22491, "ĠBoys": 17528, "Ġunderestimated": 36190, "Ġquot": 23611, "hidden": 30342, "onds": 24764, "uta": 29822, "ĠRoe": 34904, ")=": 47505, "produ": 18230, "Ġrefine": 35139, "Ġstain": 18746, "ĠQuint": 33405, "Ġstroke": 14000, "ursions": 42394, "Rachel": 44045, "gha": 46090, "ĠCartoon": 46838, "Ġprematurely": 41370, "Ġinsists": 17424, "Ġverse": 18527, "ĠCCP": 37963, "Ġgeneralized": 38284, "Ġgases": 21678, "ĠMr": 1770, "Ġtransistor": 49176, "Ġbiting": 30791, "Ġwon": 1839, "Ġbrim": 49943, "Ġforward": 2651, "Ġfeelings": 7666, "ĠPog": 48974, "pects": 38046, "ĠDefender": 25533, "Ep": 13807, "are": 533, "Ġjihadist": 32384, "ĠWrestling": 29662, "Ġmould": 35370, "ĠAlex": 4422, "Ġunanswered": 34001, "692": 46589, "Ġfeminist": 14314, "Ġemits": 48300, "ĠFounding": 44593, "Esc": 47051, "thank": 40716, "Ġspawn": 10922, "ĠALP": 42674, "Ġstep": 2239, "lab": 23912, "ĠOdd": 20664, "ĠTexture": 44409, "Ġcervical": 36012, "Ġnotoriously": 29862, "Ġmasturb": 22938, "esthetic": 37531, "Ġgold": 3869, "photo": 23074, "uckland": 28789, "bys": 48209, "ĠSob": 36884, "Ġspotlight": 17838, "âĹ": 15926, "ĠKem": 24854, "to": 1462, "544": 47576, "Ġrepercussions": 34056, "ĠLiver": 45036, "ĠRating": 12028, "Ġfiller": 41134, "Express": 38839, "Ġcheese": 9891, "ĠWarning": 15932, "ĠSimple": 17427, "ĠFALSE": 26563, "OLOG": 33462, "worthiness": 48756, "naire": 24042, "Ġferv": 28866, "Wolf": 32069, "Ġdisappearing": 28867, "Ġsubs": 6352, "ĠThermal": 41590, "Ġfares": 33164, "ĠMegan": 27616, "right": 3506, "natal": 33150, "Mark": 9704, "Ġlinux": 32639, "ixel": 7168, "Ġjohn": 45610, "362": 35667, "Ġhero": 4293, "enz": 19471, "Ġdemanded": 12284, "ðĿ": 47728, "Ġheroes": 10281, "ahime": 49997, "Though": 10915, "ĠManga": 27024, "ĠReturn": 8229, "214": 22291, "Ġfinished": 5201, "ittees": 13263, "sized": 13982, "ĠSmile": 48248, "iannopoulos": 36408, "Ġparach": 31852, "Ġpermissions": 21627, "Ġheld": 2714, "Ġsuit": 6050, "ĠLeader": 10540, "Ġbuzzing": 41719, "ĠST": 3563, "ĠGr": 1902, "regulation": 27727, "ilet": 41550, "ĠAvalanche": 39372, "Ġempower": 17549, "Â·Â·": 35147, "uph": 25689, "Ġsuspicious": 13678, "Ġexce": 43748, "ĠCater": 40742, "ĠKirin": 40262, "ĠVPN": 21669, "Ġtoppled": 48757, "uscript": 15817, "Ġportal": 17898, "Ġhimself": 2241, "atche": 24809, "Ġclones": 32498, "untarily": 49605, "ĠMargaret": 19579, "Ġcourthouse": 33625, "ilan": 38239, "Ġrelentlessly": 37952, "omm": 2002, "Ġuploaded": 19144, "c": 66, "ĠClick": 6914, "Ġmilitar": 28131, "ĠEntered": 22542, "Ġborders": 11637, "Ġwond": 3135, "Ġdistinctly": 30911, "Ġcascade": 44847, "Ġlasted": 15436, "prof": 5577, "ĠJUST": 25848, "spl": 22018, "ĠEdwin": 37016, "fusc": 37695, "Ġhots": 33915, "region": 36996, "mmm": 27532, "riv": 15104, "Ġscenario": 8883, "da": 6814, "Ġoccasions": 12432, "ĠRank": 10916, "Ġcrucifix": 48905, "Ġundergoing": 23247, "ĠDeng": 41985, "'-": 29001, "Ġwrest": 10419, "cellaneous": 25673, "ĠRational": 46863, "oppers": 37186, "Ġhand": 1021, "wed": 19103, "Ġnurse": 15849, "ĠPeter": 5613, "Ġphoto": 4590, "Ġtempted": 26194, "1999": 18946, "Ġencouragement": 27529, "fox": 12792, "KA": 25123, "Ġwiret": 33509, "owe": 47097, "Ġscores": 8198, "Ġ\"/": 12813, "Ġoccupations": 23308, "aunch": 11429, "ĠChronic": 40700, "ãĥŀ": 20115, "Sleep": 40555, "Ġaround": 1088, "Ġventure": 13189, "Ġbasis": 4308, "Ġinvaded": 26466, "ITCH": 31949, "Ġprestigious": 23566, "ĠAccording": 4784, "Ġtemples": 27081, "ĠGloves": 36407, "ĠDiary": 35911, "Dep": 12156, "Ġ218": 29217, "ĠMix": 15561, "Ġcords": 45173, "ĠCONFIG": 25626, "Alternative": 49788, "Ġ113": 17318, "Ġinvites": 27671, "Ġunc": 4591, "ot": 313, "Mag": 13436, "number": 17618, "ĠAutumn": 33424, "England": 39163, "ĠReality": 22520, "Ġblazing": 37019, "Ġrates": 3965, "ĠStorm": 8865, "Ġcloses": 20612, "ĠNeb": 29837, "ìĿ": 35975, "Ġdiam": 48428, "mosp": 6384, "ampunk": 46183, "Ġideal": 7306, "ĠTL": 24811, "earable": 40816, "Ġasphalt": 48292, "among": 35131, "agement": 5082, "Ġforcefully": 35701, "FD": 26009, "inges": 26792, "Ġfingerprint": 25338, "acity": 4355, "political": 23149, "metics": 27757, "bel": 6667, "ĠAwoken": 8755, "Vice": 47910, "Ġignored": 9514, "Ġforeskin": 49877, "Ġdarker": 18646, "Ġfeeding": 13017, "Ġ125": 13151, "ĠNoel": 33905, "Ġassemblies": 37398, "Ġcontraceptive": 37832, "Sales": 44490, "Ġfascism": 31037, "phies": 19380, "activated": 33106, "Ġtd": 41560, "Ġconnector": 21716, "ĠHaas": 50090, "ĠOmn": 31816, "Primary": 35170, "Ġtemplates": 24019, "Ġ47": 6298, "iox": 12190, "Ġdiagnostic": 23584, "ĠOriginally": 19486, "mu": 30300, "ĠMarshall": 13606, "Ġconvincing": 17101, "epad": 47852, "Ġparsed": 44267, "Ġplatforms": 9554, "Ġrecipe": 8364, "Ġpunish": 6878, "ĠMorgan": 10805, "Ġpoisoning": 22475, "Single": 28008, "ĠPinball": 37010, "BLIC": 32936, "Ġcapita": 21344, "Ġoverseeing": 29852, "Ġlineup": 12750, "Ġexchange": 5163, "Ġappropri": 4148, "Ġour": 674, "Ġcompanion": 15185, "Ġnor": 4249, "ĠCarn": 19659, "Ġhid": 24519, "ARP": 36035, "\"))": 48774, "Ġcontract": 2775, "ĠEmblem": 40254, "Ġloophole": 35723, "ãĥ»": 4707, "artment": 1823, "Ġthermal": 18411, "Ġoversight": 15662, "ĠTup": 49595, "Ġaw": 3253, "Ġdiscriminatory": 27200, "ĠUtilities": 41086, "Ġrad": 2511, "aml": 43695, "methyl": 43654, "Ġantibodies": 30869, "obiles": 36329, "Ġresear": 4027, "ĠSATA": 35070, "Ġacademic": 8233, "chini": 45045, "ricanes": 24881, "ĠOrbit": 38161, "ĠProto": 45783, "ĠAdams": 12620, "Ġsurgeons": 38479, "Ġc": 269, "annie": 42883, "Ġsighting": 42110, "ILY": 33340, "Ġ504": 41612, "olin": 24910, "Ġbliss": 30533, "Office": 27743, "244": 25707, "ibe": 32438, "Delivery": 33129, "Ġlifestyle": 12263, "Ġantibiotics": 22392, "Ġarticulate": 32154, "ussie": 43480, "Ġguards": 10942, "flies": 27959, "ĠCere": 26532, "Ġunwelcome": 47207, "ĠKKK": 42907, "Ġalarms": 36302, "ĠMining": 29269, "Ġprodu": 990, "leneck": 43163, "fy": 24928, "ersion": 6900, "Ġmutual": 13584, "ĠIllinois": 9486, "Mail": 25804, "below": 35993, "Ġdwar": 15594, "ĠSeymour": 42843, "Ġmatching": 12336, "!/": 48443, "84": 5705, "perture": 27286, "ĠRooney": 33925, "Sports": 18153, "strument": 43872, "ĠTier": 15917, "Ġpres": 906, "efficient": 16814, "Ġsmear": 35180, "ĠReson": 44783, "products": 29498, "Yu": 40728, "Ġpc": 40653, "Ġtrend": 5182, "Ġputting": 5137, "896": 48712, "ICAL": 20151, "Ġchildbirth": 43886, "illing": 4509, "Ġ._": 47540, "Ġbicycles": 35426, "physical": 42854, "Ġ5000": 23336, "ĠDi": 6031, "Ġultimately": 6165, "ĠTorah": 33366, "MOD": 33365, "ĠGuest": 22358, "ĠIbid": 28865, "%.": 7225, "starter": 12339, "ĠScope": 41063, "goers": 31006, "Ġsaid": 531, "Ġdisappro": 22293, "Ġshore": 15191, "ĠKi": 21927, "ĠMiami": 8437, "ingly": 4420, "Ġoriginals": 47324, "ãĤ©": 37662, "Ġexecuted": 10945, "Ġcaption": 8305, "ĠRodrigo": 46198, "Ġlegalize": 35605, "Bill": 17798, "ĠðŁ": 12520, "Ġnatural": 3288, "ĠHed": 30920, "87": 5774, "Ġearly": 1903, "GE": 8264, "ĠExperts": 36095, "Green": 13719, "Ġtorch": 28034, "ĠDiaz": 26899, "inge": 11912, "ĠJake": 14757, "mining": 45374, "tests": 41989, "Wall": 22401, "481": 40271, "ĠBuffalo": 14905, "Ġdominant": 11410, "Ġlifts": 27103, "Ġfear": 3252, "rill": 20190, "Ġrevis": 22124, "imet": 38813, "Fear": 37798, "Ġinfinite": 15541, "ĠLaboratory": 18643, "Ġclenched": 47344, "olars": 7828, "Ġsupporter": 15525, "ADA": 26853, "Ġschematic": 44566, "ĠDante": 34898, "439": 47106, "today": 40838, "maxwell": 29047, "Ġconsultant": 17028, "ĠHarmon": 39712, "Ġuntrue": 35212, "157": 18458, "ng": 782, "Ġel": 1288, "Ġfulf": 8456, "ĠCorm": 43154, "ĠJD": 28591, "Ġ237": 34385, "My": 3666, "top": 4852, "ĠRecipe": 26694, "ĠGem": 15669, "strings": 37336, "Ġcoins": 10796, "onies": 17300, "bad": 14774, "Ġfan": 4336, "ĠReilly": 47879, "ĠBasil": 32520, "fp": 46428, "Ġimped": 26795, "ĠJavier": 44492, "Co": 7222, "WE": 8845, "ples": 2374, "À": 124, "Support": 15514, "AIDS": 39338, "ĠPhantom": 14407, "ĠSteve": 6542, "ĠCDs": 36731, "Ġlobbyists": 26637, "oni": 14651, "ĠEzek": 45875, "Ġtrace": 12854, "Ġmultiple": 3294, "ĠRiyadh": 37236, "ĠAsk": 16981, "ÄŁ": 33133, "ĠHass": 20300, "amina": 18891, "Ġconstructs": 34175, "Ġpractise": 44811, "ĠSparrow": 49745, "Researchers": 25606, "Production": 35027, "Ġtempor": 10042, "ĠDove": 48595, "ureen": 49851, "Ġment": 6229, "Ġconcession": 33130, "Ġmeaningless": 24513, "Äĵ": 27092, "ĠAttention": 47406, "ideo": 1651, "racist": 41131, "ĠDesc": 39373, "ĠCharter": 23006, "ocating": 27123, "ĠAdd": 3060, "ĠNutr": 37012, "Ġvacc": 7041, "indu": 10259, "company": 39722, "ĠCu": 14496, "Ġvisa": 14552, "ĠCount": 2764, "helm": 33485, "Brian": 24761, "ĠJurassic": 39577, "Ġfreshly": 29026, "Ġtextual": 40577, "69": 3388, "ship": 6720, "ĠBelieve": 32018, "iversary": 9023, "Amazing": 42770, "Ġ770": 44586, "Taking": 26556, "Ġwindshield": 38866, "ĠBacon": 28548, "ĠCorrespond": 34428, "Ġ31": 3261, "hedon": 46086, "Dial": 24400, "apult": 41387, "Ġrightly": 22956, "Ġspending": 4581, "Ġraping": 34638, "ĠGeoffrey": 42803, "utch": 7140, "yssey": 23784, "ĠAnalytics": 30437, "ĠTitan": 11977, "ĠCoyotes": 42228, "Ġdiapers": 45162, "Ġmaiden": 34827, "Ġprolong": 16761, "Ġformulas": 32126, "ĠEveryone": 11075, "¶ħ": 41678, "ĠHSBC": 43841, "Ġdiseases": 10040, "Ġnarcotics": 36524, "etter": 40088, "Ġshorten": 45381, "de": 2934, "Tai": 47976, "ĠDarius": 47129, "Ġpurified": 46075, "Ġimplied": 17142, "Ġresponse": 2882, "Nice": 35284, "ĠSah": 22982, "Ġsly": 49822, "ĠUnderworld": 36198, "Ġstakeholders": 26138, "ĠBye": 47843, "Ġ%": 4064, "ĠCollins": 14006, "tnc": 26642, "ĠTrek": 12338, "ĠPanda": 41112, "pret": 5310, "Ġconquest": 29179, "fixed": 34021, "oi": 23013, ":'": 32105, "hearted": 20122, "ĠLynd": 33561, "Ġant": 1885, "Cap": 15610, "Ġvel": 11555, "Ġarrays": 26515, "Č": 200, "Ġdisaster": 9336, "Ġillum": 16116, "wallet": 44623, "Ġonlook": 47747, "\"],\"": 34171, "ĠHai": 36876, "ĠJacqu": 44726, "Ġprocedure": 8771, "Ġtickets": 8587, "ĠSPD": 30628, "133": 16945, "ĠAssad": 13032, "ĠFlav": 33026, "Ġmayor": 9591, "IU": 44958, "itance": 42942, "guyen": 39922, "Ġprospective": 17530, "ĠBUS": 43949, "Ġrepaid": 48417, "Ġfaculty": 12829, "Ġsilence": 9550, "eware": 29725, "Ġsidew": 14910, "ĠTCP": 23633, "ĠASA": 49599, "que": 4188, "scrib": 40075, "ĠOp": 8670, "ĠMines": 33466, "gressive": 19741, "ĠYan": 10642, "Process": 18709, "ĠShirley": 40902, "unction": 4575, "Ġcombo": 14831, "ĠJunction": 44410, "Ġenables": 13536, "Ġconsultations": 42052, "viol": 17069, "¬¼": 45539, "Meg": 42672, "Torrent": 39286, "Ġreq": 43089, "Ġstupidity": 37775, "Ġcompared": 3688, "Ġnegligent": 42837, "uded": 19289, "Ġpresence": 4931, "Ġ()": 7499, "Ġflexibility": 13688, "uler": 18173, "5000": 27641, "Hor": 27991, "ahl": 15668, "Ġdenounced": 26443, "å·": 32432, "ogging": 30853, "ĠRen": 7152, "ĠDrinking": 43963, "ĠLore": 15639, "Ġpainting": 12036, "Ġpacif": 47617, "Ġchemotherapy": 34696, "acey": 25415, "collect": 33327, "Ġtrapped": 13640, "Pac": 18844, "Ġmetaphors": 49610, "Arch": 19895, "gets": 11407, "Ġmagnitude": 14735, "Ġtheatre": 21421, "ĠComponents": 36109, "ĠThrone": 28419, "aston": 45966, "Program": 15167, "onymous": 6704, "Smart": 25610, "Ġmur": 4636, "Ġtruck": 7779, "ĠINC": 19387, "ĠEnabled": 37344, "Complete": 20988, "Public": 15202, "ãĤĭ": 25748, "ĠLara": 29849, "Ġspecifications": 20640, "hook": 25480, "fu": 20942, "ospel": 13994, "ocy": 13733, "ĠINT": 17828, "ê": 166, "ĠBrazilian": 17036, "Ġintends": 19582, "å¤©": 25465, "cmp": 48991, "Ġmasks": 20680, "ĠBlooming": 44026, "ATOR": 25633, "send": 21280, "ĠHuff": 14721, "Ġchanting": 31138, "Ġtune": 14009, "ĠConstable": 42077, "Ġcontexts": 26307, "module": 21412, "ĠSaunders": 35896, "Ġperme": 29298, "Ġcircuit": 10349, "gb": 22296, "ĠCrush": 40104, "ĠShards": 46464, "Ġbacks": 12983, "Ġcontemplation": 50152, "University": 21009, "remove": 28956, "ĠMS": 6579, "atered": 34190, "Pull": 42940, "IBLE": 34563, "ĠTwo": 4930, "ĠI": 314, "Seg": 41030, "ERT": 17395, "Ġretail": 6308, "button": 16539, "Ġdecency": 39589, "Ġintentionally": 16464, "ricting": 42870, "Ġoverview": 16700, "Ġfranch": 7693, "Ġwrapping": 27074, "ĠAmtrak": 49145, "Ġ116": 18693, "itable": 4674, "Ġcoastline": 43415, "wright": 29995, "ĠActual": 33520, "çĶŁ": 37955, "ledged": 37436, "ĠShares": 23997, "Hug": 48098, "Ġfactor": 5766, "Ġvisuals": 27329, "ĠThief": 23471, "Ġrs": 44608, "nered": 15826, "Ġãĥ": 14524, "Ġknights": 27536, "UCK": 16696, "Ġadmittedly": 33603, "Ġdriving": 5059, "wcsstore": 12781, "484": 34137, "ĠNeon": 27093, "Ġbooth": 18600, "Ġthats": 29294, "plant": 15060, "ĠDesire": 41042, "Ġoverflow": 30343, "ĠSER": 18871, "Ãĥ": 5746, "Ġinsulin": 14588, "ĠMaj": 12390, "ĠExchange": 12516, "Ġambulance": 22536, "Ġjunk": 18556, "Ġdecorated": 24789, "Ġ154": 24235, "ĠRelax": 46883, "Ġchapel": 43398, "Ġrefund": 12929, "telling": 18072, "ĠPART": 16652, "ĠTape": 40849, "Ġtraits": 12796, "Ġride": 6594, "Ġjurors": 28792, "heart": 11499, "Fr": 6732, "Ġambitions": 22455, "Ġsubstitutes": 44234, "erville": 33487, "Ġexploited": 21514, "ĠSantiago": 34802, "seconds": 43012, "Stream": 12124, "Ġpeel": 31738, "Ġcongressman": 29545, "Ġprincipals": 44998, "ces": 728, "Ġegalitarian": 41469, "ĠCALL": 42815, "olo": 14057, "ĠHOT": 44607, "Ġdisadvantages": 38457, "ĠFantasy": 10982, "ĠMorty": 30395, "ĠBattle": 5838, "erry": 6996, "ĠTee": 49350, "Marvel": 38864, "Ġintimid": 12895, "ĠFug": 47832, "Ġurgency": 25615, "Ġthreatened": 8556, "sh": 1477, "ĠLicensed": 49962, "ĠInd": 1423, "andra": 15918, "Ġfiles": 3696, "âĢ¦\"": 9962, "Ġgathers": 43609, "Ġbanquet": 47600, "Ġmah": 42768, "proven": 42874, "rug": 2143, "warm": 31975, "Ġtrying": 2111, "043": 48768, "hon": 24130, "Ġrenovation": 36011, "backer": 49978, "ĠDOM": 24121, "got": 23442, "ĠCTR": 34577, "Ġannouncement": 8009, "Ġ--------------------------------": 20368, "BG": 40469, "ĠESPN": 10409, "ĠIT": 7283, "CBC": 29208, "regon": 8285, "ĠCorker": 44421, "hler": 49737, "Ġnominees": 26456, "Ġgalvan": 42170, "Were": 35653, "Ġfool": 9192, "Ġnamespace": 25745, "rest": 2118, "Ġ2024": 48609, "ERN": 28778, "otion": 9650, "ĠGerman": 2679, "ĠScream": 36306, "ĠSchmidt": 24740, "ĠSask": 23541, "ĠGI": 30616, "container": 34924, "ansky": 49792, "iw": 14246, "Ġobviously": 6189, "Ġroyal": 15100, "ileged": 48446, "efined": 18156, "phans": 44464, "ĠFu": 13333, "ĠUSE": 23210, "ĠTrans": 3602, "Ġreproduce": 22919, "ĠSK": 14277, "Ġblind": 7770, "25": 1495, "orno": 46447, "Ġdab": 45553, "Gal": 26552, "roups": 14459, "Ġgender": 5279, "ISM": 31125, "achusetts": 9770, "/*": 15211, "cellent": 5666, "Ġcollusion": 29771, "ĠExt": 5683, "ĠBauer": 41971, "orer": 11934, "ĠTina": 35903, "ĠHawks": 23445, "ĠRick": 8759, "google": 13297, "Ġcivil": 3026, "Ġprimary": 4165, "ION": 2849, "electric": 31067, "children": 17197, "Ġnamed": 3706, "Ġ1889": 49545, "Ġheat": 4894, "453": 36625, "ĠMichaels": 44768, "Typically": 49321, "Ġprostate": 26711, "ustom": 1824, "Vers": 34947, "Ġbabe": 42666, "Ġtire": 15867, "ĠEspecially": 18948, "ĠTransactions": 46192, "Ġdisputes": 18563, "ĠAmer": 33391, "IFF": 29267, "Ġpotions": 28074, "Ġjavascript": 44575, "ovable": 21985, "Ġoperating": 5361, "ĠDrama": 30647, "Ġselfie": 38704, "founded": 27060, "Ġcontradictory": 29096, "ĠMega": 13421, "ĠYe": 11609, "adder": 26676, "Ġ1024": 28119, "Ġbitcoins": 22690, "ĠShoals": 40510, "Ġloneliness": 37378, "Ġlikewise": 20467, "Ġglobally": 18309, "Ġthirty": 12277, "Ġmanagement": 4542, "Ġcomposure": 49994, "Ġple": 3339, "ĠSebastian": 26190, "Ġsustained": 12605, "Rather": 27202, "ĠFAR": 39024, "Ġlegislative": 10828, "ugi": 45659, "Ġwraps": 27521, "levant": 14938, "Ġpursued": 19189, "ĠSprint": 23178, "ifi": 22238, "Ġrecovery": 7628, "âĶģ": 47486, "Ġpristine": 37293, "ĠQuan": 42312, "cled": 20095, "ĠRe": 797, "Ġboxed": 46069, "Ġunaff": 25312, "Ġbackgrounds": 19063, "Ġrhyth": 14405, "Ġoutrage": 11616, "ĠSuggest": 35042, "Ġlaptop": 13224, "aves": 3080, "Ġdelete": 12233, "Ġextends": 14582, "Ġeconomical": 40590, "Ġsuicide": 7341, "hun": 20088, "Ġploy": 46945, "Ġtradem": 12677, "Ġclandestine": 39903, "Ġcluster": 13946, "eks": 2573, "untu": 11157, "////////////////": 27246, "ĠPilot": 21697, "Ġspeculative": 28991, "Witness": 38670, "Prop": 24331, "ĠMW": 29961, "ĠBorderlands": 47071, "ĠDepartment": 2732, "Ġml": 25962, "Ġfried": 23018, "ĠIO": 24418, "ĠKnight": 6700, "Ġacquies": 47752, "280": 21033, "Ġhold": 1745, "Dead": 20489, "Ġmales": 10835, "GC": 15916, "James": 14731, "Ġmotivational": 49066, "ĠOnes": 32606, "ĠCookie": 39606, "Zen": 47573, "ĠNOAA": 36184, "ĠSund": 3309, "Carl": 26886, "lat": 15460, "ĠSatoshi": 40824, "ĠLucky": 27963, "Ġlinem": 22774, "Ġautobi": 33136, "Ġabiding": 48637, "head": 2256, "ĠKraft": 41828, "Ġmiles": 4608, "ĠSPR": 49068, "ĠWeir": 46669, "Ġcob": 22843, "ori": 10145, "Prem": 24914, "Ancient": 44974, "hand": 4993, "ĠSeeking": 48160, "respect": 15008, "yd": 5173, "Ġprog": 1172, "Ġforth": 6071, "Ġamend": 13582, "orned": 26994, "axe": 38231, "ĠSacramento": 19375, "ĠFirstly": 41039, "Ġdistributing": 25950, "ĠRin": 25773, "Ġpossibilities": 12779, "dding": 33403, "Ġtrem": 10023, "dating": 38734, "ĠSparks": 48117, "ĠCaps": 23534, "Ġboss": 6478, "itu": 34272, "selves": 2020, "003": 11245, "Ġspearheaded": 46766, "fitting": 32232, "Skin": 42455, "Hopefully": 32365, "Ġinclude": 2291, "ĠStupid": 42930, "ĠTVs": 31596, "Ġnumbered": 25840, "Ġearning": 13748, "fair": 22043, "reasonable": 42275, "Chicken": 45565, "ĠOrth": 47664, "Ġ291": 43336, "Jo": 9908, "ĠMalcolm": 20002, "icking": 7958, "Ġconvinced": 9431, "ĠCelt": 16333, "Ġdestiny": 22701, "Ġsticky": 23408, "ĠHAR": 43638, "Glass": 47698, "Ġuntold": 47872, "Pr": 6836, "ĠKessler": 46474, "ĠTrance": 47215, "Ġsoar": 48701, "Ġprehistoric": 44741, "ãĥ³ãĤ¸": 45823, "Ġcellul": 47354, "247": 23753, "Ġquickly": 2952, "425": 32114, "UT": 3843, "Ġfeudal": 37591, "onomic": 40036, "launch": 35681, "\\.": 17405, "gat": 41268, "Ġmixes": 33237, "ĠMcCartney": 44677, "ĠSlowly": 46484, "Ġsummary": 10638, "mans": 16221, "ĠCardinal": 25564, "ĠToast": 46831, "ĠVictorian": 24569, "Ġgenetic": 8513, "ĠNick": 8047, "ĠPenalty": 41676, "health": 13948, "yp": 4464, "ĠNose": 47880, "ĠOptical": 49593, "ĠHampshire": 13910, "Ġcasualties": 18499, "Ġinvestigated": 12565, "ĠNevada": 12087, "Ġunrealistic": 31363, "ĠHip": 29437, "ico": 3713, "angelo": 46525, "lesi": 36027, "Ġtheoretical": 16200, "sth": 48476, "ady": 4597, "ĠBast": 17520, "Ġruined": 20484, "olith": 21446, "Ġcomprehens": 8569, "ĠCrus": 15170, "ĠPsyNet": 36130, "Ġcrowds": 15779, "ĠCOUNTY": 41012, "Ġcities": 4736, "Ġdavidjl": 23282, "Ġ+/-": 29694, "ĠDirect": 4128, "ĠRedmond": 49420, "Friends": 36705, "DEM": 39429, "ĠExit": 29739, "Ġdividend": 30494, "ĠByte": 30589, "ottenham": 21889, "Ġthrilled": 20536, "Ġpity": 26246, "ivalry": 47310, "Ġunidentified": 27022, "Ġcatches": 17591, "Ġdevotion": 25808, "doms": 23686, "ĠKnock": 29061, "otine": 16174, "Unt": 35792, "Ġcentrist": 47609, "ĠContinuing": 48516, "%).": 18823, "Ġtha": 28110, "ĠDemo": 34588, "Ġdissenting": 39527, "ĠBans": 39535, "ĠHindi": 43443, "Ġhangs": 28087, "ĠCompet": 38558, "Ġnoise": 7838, "ĠZhao": 29436, "Ġding": 44852, "ĠNumbers": 27797, "Ġcocaine": 15144, "ĠNETWORK": 49791, "Ġviewer": 19091, "ĠWidow": 39061, "more": 3549, "appointed": 32924, "ĠDanielle": 39808, "Ġjewels": 42701, "Ġrac": 3444, "ĠJew": 3370, "Ġrequests": 7007, "Ġmeshes": 48754, "ĠChronicle": 14160, "Laun": 46182, "aimon": 49438, "ĠAadhaar": 47727, "Ġantit": 26092, "urden": 42568, "ĠConstantinople": 46369, "1998": 21113, "Ġconvoy": 32860, "Ġold": 1468, "ugar": 35652, "Token": 30642, "Ġaccompanies": 48159, "arijuana": 42834, "ĠDrone": 38959, "October": 18517, "Ġstrife": 39809, "120": 10232, "Ġfirm": 4081, "Ġseeds": 11904, "Chuck": 44324, "ĠLabs": 23500, "Ġprem": 4199, "Ġceilings": 45926, "Ġmanufacturers": 11372, "ĠMarch": 2805, "ĠLowe": 34241, "cream": 36277, "Battery": 47006, "Pub": 14876, "Ġvaccines": 18336, "Kh": 33155, "only": 8807, "Ġtyrann": 44315, "ecast": 43299, "ĠChron": 8750, "Ġdead": 2636, "ĠLomb": 28503, "ĠAdin": 45528, "Drop": 26932, "Stay": 25681, "ww": 1383, "ĠZh": 10511, "Ġimpover": 30956, "Ġbible": 41169, "Ġbass": 12702, "Flight": 43069, "seen": 15898, "Ã°": 27214, "ĠIns": 7088, "blems": 22143, "Ġdivides": 36319, "ĠDevon": 36889, "urn": 700, "ĠLanka": 28143, "ler": 1754, "Ġhinge": 41968, "ĠForensic": 49245, "Ġexchanges": 14525, "ĠDesktop": 27850, "EGA": 33146, "Ġunsettling": 38192, "Ġspilling": 45085, "Frameworks": 42026, "Ġdealt": 11829, "Ġdecon": 37431, "ĠStudio": 11733, "Ġclar": 10212, "Ġinnovation": 11044, "rl": 45895, "ĠIz": 28493, "reader": 46862, "Ġstrict": 7646, "Ġ1978": 15524, "yy": 22556, "Ġpione": 15272, "Ġissues": 2428, "ĠAir": 3701, "aii": 42648, "Tyler": 46807, "ĠJoey": 26154, "ĠFreder": 18669, "Ġcyclists": 23390, "ĠJu": 12585, "ĠThough": 7486, "ĠBarcelona": 15142, "ĠChand": 20631, "load": 2220, "Ġgallon": 26860, "ĠPets": 43578, "atial": 34961, "ĠAccordingly": 28386, "ning": 768, "ĠInstructor": 47839, "ĠSDK": 26144, "Ġstiffness": 49586, "Ġprotr": 39701, "Ġnothing": 2147, "Ġmasters": 18159, "lt": 2528, "ĠDeliver": 43371, "Investigators": 33528, "Ġofficial": 1743, "ĠAll": 1439, "Ġdispensary": 50136, "ĠHide": 10415, "ĠMarse": 45996, "Ġlush": 37408, "ection": 3213, "ully": 2132, "Ġcontinuation": 24659, "Subscribe": 27125, "Ġvoicing": 47640, "ĠDatabase": 24047, "isition": 10027, "ĠDil": 29328, "ĠSpider": 12648, "Eric": 25004, "arant": 4741, "Ġpregnant": 10423, "Ġbur": 4356, "ĠLife": 5155, "Ġvodka": 36279, "quarters": 8230, "identally": 23961, "oct": 38441, "handled": 38788, "Client": 11792, "ĠShakespeare": 22197, "Ġ'": 705, "Ġbreaker": 46408, "Ġloosen": 40953, "Ġmagazines": 16695, "Ġlocations": 7064, "ĠRampage": 40244, "ĠMoff": 41069, "Ġla": 8591, "ĠHut": 32767, "Ġrequ": 1038, "Ġphones": 9512, "ĠWinners": 42754, "Ġelite": 9085, "Ġweekly": 10273, "wm": 26377, "Ġincred": 4878, "ĠSpear": 27836, "ĠChamp": 29260, "organized": 30280, "ĠGlow": 45929, "Half": 31305, "ĠFlores": 40222, "RIP": 32618, "Ġcomr": 20677, "Ġdishon": 32045, "Ġadorable": 29012, "Ġspot": 4136, "Ġcarefully": 7773, "Ġfurthe": 46186, "DOWN": 41925, "acly": 39691, "HAHA": 21271, "Ġdelusional": 45935, "ĠGary": 10936, "Ġ356": 44552, "Ġminute": 5664, "?": 30, "Order": 18743, "ĠAdministrative": 30048, "ĠWriter": 26606, "uclear": 4016, "ĠStur": 26783, "aa": 7252, "Ġstated": 5081, "Ġresin": 36536, "antes": 39781, "Wood": 22911, "ĠMara": 40124, "Ġreaders": 7183, "Raid": 49043, "will": 10594, "Ġcardio": 47926, "prot": 11235, "Ġtoddler": 30773, "Ġadherence": 34721, "Ġreligiously": 42194, "emale": 10144, "Ġassures": 45837, "icted": 5722, "ĠVideos": 18637, "Ġotherwise": 4306, "social": 14557, "ĠVulcan": 33402, "Ġspots": 10222, "idges": 15969, "Ġcateg": 4253, "ãĥ¢": 40361, "alogy": 48909, "eled": 18449, "Ġhackers": 17110, "Ġ04": 8702, "Ġmacro": 15021, "ectomy": 42505, "made": 9727, "2016": 5304, "Used": 38052, "ophob": 13253, "ento": 50217, "Ġarrow": 15452, "Ġadvertising": 8560, "Ġneo": 19102, "Ġworkings": 35084, "Ġsecession": 43314, "Ġpathway": 21182, "apple": 18040, "grounds": 40520, "Ġfungi": 38467, "ĠLeaving": 38068, "Ġprevalence": 16815, "anda": 5282, "Ġsheriff": 16570, "ĠPlay": 3811, "BIL": 19676, "Ġsong": 3496, "ĠOttawa": 14074, "raper": 38545, "Ġsuppose": 11691, "Ġresurrection": 27556, "776": 39509, "Ġmotiv": 6556, "render": 13287, "Ġgoddamn": 43546, "Ġlords": 33200, "Static": 45442, "ĠLikewise": 22660, "traditional": 36380, "Ġlif": 3868, "ĠPass": 6251, "ĠBain": 33126, "Decl": 37835, "xff": 47596, "Ġcompetitiveness": 36812, "main": 12417, "ĠHardcore": 49691, "Ġaddresses": 9405, "466": 42199, "ole": 2305, "Ġca": 1275, "çķ": 45911, "Utah": 44350, "ĠEvolution": 15815, "ĠL": 406, "Ġagreements": 11704, "ĠColorado": 7492, "Ġcropped": 48998, "Ġjust": 655, "ered": 1068, "Ġgrapes": 36656, "ĠMunicipal": 31526, "Ġregulating": 26379, "state": 5219, "Ġextremism": 25571, "eston": 19115, "ĠStab": 49726, "Act": 6398, "ĠGrowing": 37487, "Ġclusters": 23163, "wine": 39002, "ĠSavage": 22287, "Fall": 24750, "Ġdetail": 3703, "ĠKet": 43092, "ĠPreviously": 29875, "Ġling": 18459, "ruption": 6417, "ĠBender": 34535, "Ġhappy": 3772, "Ġgoblins": 46220, "Ġcharming": 23332, "Ġhoping": 7725, "Ġjealousy": 35394, "Ġseparatist": 40680, "ĠTracy": 31140, "Ġattorneys": 14449, "inoa": 40564, "Ġfused": 43954, "ĠOPEC": 49280, "giene": 28363, "ĠOptional": 32233, "Ġpropag": 8928, "Runner": 49493, "Ġabide": 27851, "Ġquestions": 2683, "ĠFortunately": 20525, "338": 28460, "Ġlect": 11042, "Ġremarkable": 11004, "Ġreformed": 42878, "ĠShadow": 8843, "Msg": 50108, "Ġ950": 38384, "Strength": 45027, "Ġpattern": 3912, "Ġarchitects": 29518, "Ġconfounding": 43849, "Ġ2018": 2864, "Ġ+": 1343, "Method": 17410, "Ġsubscrib": 11452, "Ġ1897": 49429, "Ġ(@": 4275, "Ġsharks": 27476, "Ġfrust": 6730, "Ġembod": 13968, "Ġnoticeable": 19787, "Ġrejecting": 26734, "Ġburn": 4245, "Ġgrandmother": 18410, "Instant": 49933, "ĠPatient": 35550, "Ġimmobil": 47800, "ĠWT": 41281, "Ġcoffers": 47295, "Ġfluent": 43472, "esse": 35270, "design": 26124, "ĠCD": 6458, "Ġsystems": 3341, "Sn": 16501, "Ġquest": 1235, "ĠTHEM": 44788, "Ġlair": 49451, "ĠPS": 6599, "ubi": 29603, "inches": 45457, "Ġstatue": 15207, "fights": 50121, "Ġincarcer": 18615, "Ġhandles": 17105, "LL": 3069, "ĠAthlet": 18093, "mouth": 14775, "andise": 18888, "League": 24623, "ĠMiko": 49071, "reb": 34806, "eca": 31047, "Ġcosting": 25894, "Ġfinance": 9604, "ĠLodge": 27046, "Ġsums": 21784, "Ġsixth": 11695, "ĠMarxist": 26305, "ĠGets": 29620, "ĠVoting": 30061, ".[": 3693, "ĠKansas": 9470, "ĠBurma": 40306, "ius": 3754, "Ġjudging": 22989, "byte": 26327, "Ø§": 12919, "itness": 3659, "Ġfundraiser": 27639, "abc": 39305, "Ġairlines": 26225, "455": 30505, "ĠVar": 12372, "787": 41019, "Ń": 255, "sem": 43616, "Ġgoodies": 39863, "ĠDana": 22937, "Ġfilm": 2646, "ĸļå£«": 33434, "Ġfish": 5916, "Ġmobility": 15873, "Ġredist": 17678, "ĠXI": 30554, "009": 28694, "Ġsorcerer": 47063, "ãĥĥãĥī": 45435, "ĠAndreas": 33728, "ĠRecep": 44970, "medium": 24132, "ĠAllen": 9659, "ĠSto": 22025, "ople": 643, "ĠEdge": 13113, "ACA": 26576, "Ġbitcoin": 8550, "Ġgalaxy": 16161, "Ġoun": 16103, "wk": 43021, "amara": 47848, "Ġaimed": 8998, "Ġsecular": 14589, "ĠSiren": 43904, "Ġintermittent": 38361, "ĠMakoto": 40627, "ournal": 2549, "south": 35782, "Ġstring": 4731, "restling": 48839, "Ëľ": 41185, "ĠInner": 24877, "Ġpts": 43344, "Ġhamstring": 36744, "holes": 28439, "Row": 25166, "adish": 48563, "ĠAssault": 15590, "potion": 49324, "ĠWee": 48643, "Ġassign": 8333, "sb": 36299, "politics": 34127, "Ġfossils": 34066, "Ġshortcuts": 32953, "Ġcorpus": 35789, "Ġpowered": 13232, "Jet": 42273, "Ġdiagnose": 37489, "FINEST": 40236, "carry": 34993, "Ġprintf": 30812, "ude": 2507, "Ġfactories": 17590, "ĠBuck": 13452, "Ġproperty": 3119, "Ġgigg": 30442, "00200000": 36490, "ĠPruitt": 39637, "likely": 40798, "value": 8367, "ĠBoard": 5926, "ĠScotch": 46755, "turn": 15344, "Ġrog": 47524, "Ġbetting": 22908, "Ġhole": 7604, "Ġsubset": 24637, "Ġbaked": 22979, "ĠJarvis": 46595, "Ġnotion": 9495, "Ġeffects": 3048, "ĠDATA": 42865, "Ġaffidavit": 23942, "Ġsevere": 6049, "legram": 30536, "arers": 34231, "Ġregress": 50252, "STAT": 35744, "ĠTreasury": 13419, "Ġpublicly": 7271, "Ġ2500": 33507, "ĠCauses": 46865, "sn": 16184, "ĠCompare": 27814, "156": 21599, "otation": 14221, "approved": 29137, "omer": 12057, "phalt": 41942, "ĠPag": 31525, "Ġcrochet": 46149, "juries": 47496, "Ġproving": 17742, "hid": 49675, "ĠiCloud": 42076, "Ġdownstairs": 34624, "cultural": 30844, "Ġguitar": 10047, "Ġdy": 20268, "hold": 2946, "ĠDirty": 32052, "ĠUnknown": 16185, "Ġverification": 19637, "Ġcreates": 8075, "ĠTerry": 14286, "ĠMilitary": 12842, "Weapons": 41818, "Ġunlocks": 23872, "Wait": 21321, "Ġdictator": 26671, "Ġshin": 40465, "ĠSafety": 11233, "Ġrivers": 18180, "ĠUlster": 50026, "1986": 28054, "Ġmanipulate": 18510, "Ġjoke": 9707, "\\\\\\\\\\\\\\\\": 21807, "Ġstandpoint": 22116, "ĠBlacks": 27875, "ĠBurn": 8942, "Ġeluc": 49031, "ĠLevin": 32325, "Ġ189": 27230, "ct": 310, "Ġestablishment": 9323, "HOME": 39069, "Hero": 30411, "Ġsections": 9004, "Ġdeducted": 48512, "ĠAnge": 49759, "ĠWem": 45300, "seller": 32932, "Ġmut": 4517, "Ġundoubtedly": 17713, "ĠPrices": 29431, "ãģĦ": 18566, "ĠE": 412, "ĠPayPal": 22525, "Ġdeployment": 14833, "shr": 36007, "ĠAuction": 36071, "Ġcongen": 41174, "Suddenly": 38582, "Ġbidder": 44848, "Thomas": 22405, "æł": 43718, "ĠWere": 15176, "erving": 14344, "Ġnpm": 30599, "ĠCrystal": 12969, "ãĥĲ": 29659, "681": 48564, "term": 4354, "iking": 14132, "var": 7785, "708": 32583, "ĠSAS": 35516, "Ġ282": 41810, "ĠHuffington": 23807, "asted": 8992, "ĠCampbell": 14327, "Border": 34189, "ĊĊ": 628, "ĠWraith": 40106, "Ġscratch": 12692, "Child": 16424, "requency": 28707, "judicial": 46769, "ĠAqu": 11446, "dat": 19608, "Spoiler": 31895, "Ġsteals": 28052, "ĠStarr": 37884, "ĠComic": 19949, "ĠIncreases": 23920, "arantine": 37996, "Ġfurn": 8926, "ĠWITH": 13315, "andem": 30025, "Ġprocess": 1429, "ĠAlien": 17610, "Ġdazzling": 41535, "uck": 1347, "Ġabs": 2352, "ULTS": 35342, "hou": 15710, "lift": 26282, "Ġhob": 32724, "ĠLuis": 20894, "Ġwebpage": 35699, "Ġmutant": 30118, "illet": 32512, "ĠCooperation": 35047, "Ġcelebrating": 17499, "Ġcalf": 31134, "ĠMost": 4042, "558": 40486, "Ġphotographer": 16413, "ĠRosen": 15564, "Ġbusinessmen": 34643, "Ġscriptures": 39782, "Ġenlisted": 30166, "sche": 15952, "ĠEnsure": 48987, "ĠSpotify": 26778, "Ġtraumat": 38510, "ĠGillespie": 45078, "Ġrealization": 23258, "Ġquasi": 32551, "Ġmedications": 17638, "Ġpubs": 46972, "698": 39357, "Mat": 19044, "info": 10951, "legate": 34637, "OPS": 30737, "Kim": 26374, "ĠAram": 39026, "Ġremotely": 19863, "ĠStatic": 36125, "unless": 25252, "Ġrose": 8278, "ĠKDE": 36632, "SF": 20802, "ĠEh": 31480, "Ġentr": 24481, "Ġoily": 44560, "ĠLand": 6379, "ĠDestruction": 25034, "Ġextracting": 37895, "Ġ24": 1987, "ĠâĢ¦\"": 46385, "Ġconsult": 5725, "ĠScript": 12327, "Ġlogged": 18832, "hair": 27108, "ĠPlayoff": 41325, "Ġprescribe": 32651, "Ġonstage": 38500, "ĠDigital": 10231, "Ġdementia": 27886, "Living": 36376, "Ġcease": 13468, "nam": 7402, "ĠHogan": 25316, "Ġas": 355, "itations": 20597, "ĠFifth": 19383, "R": 49, "Ġrelaxed": 18397, "Ġpumpkin": 30089, "follow": 27780, "Ġcalendars": 50215, "ĠJacket": 44891, "éŃĶ": 20804, "Ġpost": 1281, "ĠPharaoh": 42697, "asaki": 33846, "ENTION": 45589, "rist": 1585, "ĠLucius": 42477, "Ġcommonplace": 33488, "Ġuniversities": 11155, "Ability": 22453, "chapter": 43582, "ĠInfinity": 22385, "aler": 36213, "Ġbitten": 38854, "Ġdoctrines": 32645, "ĠColleg": 34890, "Ġvom": 20918, "ĠKlu": 41269, "Ġbir": 35122, "Ġblockers": 43805, "walk": 11152, "Cache": 30562, "Ġhyper": 8718, "Ġarise": 15058, "Ġfielding": 43985, "Ġphysique": 48226, "ĠJun": 7653, "ĠGer": 13573, "ĠKai": 22091, "Ġdownhill": 35390, "Ġartif": 14077, "Ġdefied": 47437, "ĠHir": 29379, "ĠLup": 32244, "Ther": 35048, "PH": 11909, "ĠWhedon": 49891, "Ġenrich": 22465, "Ġtether": 49477, "iates": 32820, "acular": 12754, "Ġivory": 32630, "wegian": 20684, "Ġlenses": 18405, "Ġtwenty": 8208, "Ġevac": 12015, "Ġsubtract": 34128, "ĠFRE": 44253, "ĠCreature": 33248, "shell": 29149, "Ġcommission": 5810, "Ġsob": 27355, "dq": 49506, "ĠEthan": 28926, "RET": 26087, "ĠIQ": 18248, "ĠAmber": 21896, "ĠRaven": 12552, "ĠIdeas": 35365, "ĠKod": 32701, "ĠCNBC": 34881, "mn": 10295, "Ġpadding": 24511, "ĠExactly": 36819, "Ġjam": 16853, "Ġmesmer": 46814, "Ġpsy": 17331, "radio": 37004, "Provider": 29495, "ĠPetraeus": 46364, "ĠMane": 42736, "AS": 1921, "Ġpush": 4574, "Ġstoked": 49019, "ĠGerard": 41459, "Ġmitigation": 33585, "Ġ37": 5214, "Ġsmack": 41014, "********************************": 17174, "Ġfree": 1479, "Ġimperialism": 30988, "ĠKenyan": 47214, "amental": 6860, "Ġ__": 11593, "ĠHealthy": 30840, "distance": 30246, "ĠObject": 9515, "account": 23317, "Knowing": 45648, "ĠWE": 12887, "Ġintegrated": 11521, "Ġimplicitly": 31821, "Ġglyph": 25874, "Ġappropriate": 5035, "Ġslate": 27589, "Ġasync": 30351, "verb": 19011, "ĠDespite": 7945, "ĠCrossref": 23613, "ĠNarr": 28390, "Ġglobe": 13342, "Ġmd": 45243, "skilled": 44885, "igation": 7065, "associated": 32852, "Ġloans": 10021, "mother": 13552, "Ġtransmissions": 45649, "ĠDent": 39078, "!'": 13679, "ĠView": 3582, "iera": 41976, "ĠNemesis": 49885, "Ġdinners": 42541, "Ġblessing": 20027, "leaders": 37553, "Ġ=================================================================": 38093, "Ġdeny": 10129, "ails": 1768, "ĠSearch": 11140, "Ġfuckin": 46733, "ĠMental": 21235, "Weak": 44898, "Ġfug": 31497, "shaw": 32832, "Ġapplied": 5625, "Ġvacancies": 48639, "trial": 45994, "heddar": 44937, "Ġslip": 13819, "Ġacknow": 5571, "heard": 23636, "Ġsteep": 14559, "Ġ:)": 14373, "ĠParties": 32024, "ĠWitness": 21440, "Ġlawyers": 9326, "Ring": 39687, "Ġreigning": 40098, "Compared": 44669, "ĠAlto": 34317, "ocaly": 12063, "Prosecutors": 39401, "aly": 3400, "ĠYose": 38095, "abbling": 47883, "obj": 26801, "Ġwrink": 34866, "Ġbelief": 4901, "Ġcomput": 2653, "Ġgrids": 50000, "activ": 15791, "Girls": 41044, "Ġtow": 6094, "prop": 22930, "Ġspitting": 46266, "ell": 695, "Ġliteral": 18875, "Ġapply": 4174, "iang": 15483, "Ġfed": 11672, "Church": 46686, "Ð¾": 15166, "ĠFear": 16132, "ĠÂ": 1587, "Ġmana": 13149, "271": 28977, "Ġforming": 14583, "âĢ¦..": 30864, "ĠSTEP": 49154, "Ter": 15156, "NOR": 35510, "Ġpy": 12972, "ists": 1023, "Ġinspect": 10104, "ĠStats": 20595, "391": 37710, "ĠWarranty": 43892, "ĠAi": 38230, "Looking": 15784, "Ġreviewer": 37823, "Ġmassive": 4858, "Ġexpel": 46466, "Ġsizing": 47016, "Ġteam": 1074, "Ġ..": 11485, "ĠGDP": 12396, "Ġ{": 1391, "ruck": 30915, "Ġbarn": 25203, "Ġharassing": 34110, "ĠLies": 35337, "ĠGuides": 48770, "WHAT": 32971, "org": 2398, "ĠHair": 23102, "612": 43610, "ĠTakeru": 48497, "mit": 2781, "815": 49503, "Ni": 34153, "[_": 29795, "ĠEffective": 29455, "ĠApply": 27967, "ĠShank": 41595, "?,": 21747, "659": 36445, "Ġfortunes": 27806, "Ġopposition": 5471, "Ġbelongs": 14448, "Ġsem": 5026, "Ġterror": 3246, "Ġjointly": 26913, "otomy": 38385, "ĠSomebody": 43141, "é¾įåĸļå£«": 33454, "Ġrecycled": 32099, "Produ": 11547, "Ġindifferent": 31655, "Ġdiv": 2659, "alcohol": 42142, "Mask": 45195, "ĠEurope": 2031, "Enc": 27195, "OTAL": 27510, "ĠTant": 44116, "Ġprecedent": 19719, "GUI": 40156, "LOG": 25294, "Ġoptionally": 42976, "ĠBritain": 5491, "Ġheaders": 24697, "Ġhopes": 7176, "Ġoranges": 48389, "ĠHouth": 34271, "Ġgl": 1278, "GBT": 9146, "rencies": 14038, "Ġforeign": 3215, "imus": 20704, "ĠFinals": 19705, "rigan": 35631, "Ġclutch": 22756, "ĠPatri": 9606, "015": 25150, "ummies": 39578, "core": 7295, "Ġnuance": 47128, "Ġmid": 3095, "Ġlegacy": 10655, "Ġphys": 2281, "Out": 7975, "Ġdisgusting": 23374, "ront": 4298, "popular": 47568, "ĠNCAA": 15244, "Weight": 25844, "ĠDest": 8145, "Enough": 47323, "ĠBolshe": 28698, "ĠBarbar": 45952, "Ġadventure": 8855, "Ġtexture": 11743, "Ġtougher": 20516, "usters": 13654, "ĠCynthia": 40897, "Ġ1911": 32216, "atible": 16873, "ĠArrow": 19408, "Ġcarpet": 20710, "isal": 28456, "Ġauthorities": 4773, "Ġpsycho": 30731, "Ġaccomplished": 13013, "lly": 12810, "Ġexert": 17596, "Ġoperator": 10088, "Ġsunk": 24790, "Ġtheolog": 37275, "iHUD": 38370, "ĠProp": 8772, "uchs": 37533, "ĠFinally": 9461, "Ġmech": 36571, "Ġdoubtless": 48662, "ĠPubMed": 32131, "Fl": 7414, "Ġinflic": 30333, "nyder": 21053, "ĠPearson": 31074, "Ġsecondary": 9233, "ĠKY": 33668, "ĠSox": 17689, "Ġconfines": 39293, "ĠHey": 14690, "Cath": 39581, "ĠHeight": 27280, "uctor": 33029, "Ġtip": 8171, "Ġnorms": 19444, "ĠPerformance": 15193, "Ġgloves": 18051, "ĠParsons": 35925, "Moreover": 24606, "ync": 13361, "ĠClancy": 46255, "LT": 27734, "flo": 48679, "ĠHapp": 18321, "Ġeng": 1786, "Ġflavours": 46946, "Ġ''": 10148, "Ġfashion": 6977, "Ġcommunists": 40938, "Ġgot": 1392, "ĠAstro": 35167, "learn": 35720, "Ġother": 584, "pron": 31186, "assment": 45312, "ĠMeth": 39675, "band": 3903, "285": 26279, "cially": 2131, "ĠCutler": 37194, "ĠPent": 9696, "Ġexperiment": 6306, "Ġcous": 13233, "Ġentities": 12066, "ĠVik": 10447, "pod": 33320, "Santa": 42694, "Ġ1943": 21577, "determination": 40869, "Ġsuspensions": 47228, "ĠEgyptians": 32658, "Ġwifi": 43121, "ĠBoxing": 35921, "Ġnotions": 26226, "Ġdiscern": 22024, "Ġconventions": 21396, "Ġpoultry": 34101, "ĠAsia": 7229, "Ġ06": 9130, "Ġcontributed": 8639, "Ġdocumentation": 10314, "secret": 21078, "NET": 12884, "Ġfinancing": 15435, "isan": 9057, "ĠScy": 32252, "Ġvapor": 20199, "Ġrunning": 2491, "ĠIly": 49804, "113": 16616, "ĠAdding": 18247, "Ġderogatory": 44094, "Ġjuvenile": 21904, "Ġ(\"": 5855, "Ġstruggles": 12766, "ooter": 25141, "Ġunforgettable": 45504, "Yet": 11486, "Ġ26": 2608, "////": 9705, "begin": 27471, "Islam": 16991, "odo": 24313, "Huh": 46010, "230": 19214, "ĠShanghai": 21865, "ĠRES": 15731, "Ġinduced": 18268, "Ġ4": 604, "Ġhang": 8181, "Ġguesses": 44774, "anooga": 42165, "ĠWinter": 10633, "aint": 2913, "Ġmolecules": 17745, "ĠPartial": 43689, "ĠVIDE": 45748, "ĠCalm": 38280, "Ġpayload": 21437, "Ġasc": 10570, "withstanding": 20701, "ÙĦ": 13862, "##": 2235, "ĠKrugman": 46311, "ĠHogwarts": 30922, "Ġbuy": 2822, "Ġshowers": 32290, "Ġconservative": 5940, "isin": 45763, "ĠNguyen": 42379, "Ġunsafe": 21596, "!!!!": 13896, "Ġ>": 1875, "Ġorganism": 26433, "ÂłÂł": 4603, "Trust": 33814, "duc": 6077, "Ġprevention": 14196, "ĠGiving": 35603, "aiden": 17538, "Ġbrid": 38265, "Ġjarring": 47300, "rique": 33865, "rn": 35906, "Ġbias": 10690, "akings": 45665, "iev": 11203, "Ġsimulations": 27785, "igh": 394, "Ġmeasure": 3953, "Ġpag": 42208, "Ġpackage": 5301, "Ġmetrics": 20731, "ĠWS": 25290, "ifiers": 13350, "Ġstage": 3800, "Ġstark": 19278, "Handle": 37508, "ĠRenaissance": 29396, "Slot": 38963, "opter": 32563, "Ġwebcam": 49823, "iries": 18561, "Ġsubord": 21267, "ĠPrevious": 21801, "Ġimports": 17944, "Ġbudding": 44194, "ĠAre": 4231, "imm": 8608, "Ġseems": 2331, "462": 39997, "hurst": 33500, "ĠSuper": 3115, "ĠCompos": 29936, "Ġ251": 34489, "Ġconven": 7292, "Ġuniversal": 10112, "ĠCoal": 12896, "ĠSunday": 3502, "ĠPall": 39651, "Ġtolerate": 21923, "nl": 21283, "Ġdiced": 48898, "WIN": 37620, "ĠCBO": 38260, "Ġchallenge": 4427, "IGH": 18060, "Ġrel": 823, "Ġrc": 48321, "........": 2109, "Ġexpresses": 27505, "Ġvolunteered": 32730, "Ġsexy": 17144, "Ġtrousers": 37191, "fact": 22584, "ĠMcGregor": 32777, "knowledge": 45066, "ACE": 11598, "ci": 979, "Ġtitan": 48047, "Ġfal": 24215, "mberg": 47369, "ĠNES": 31925, "Ġdise": 3591, "ereo": 32934, "ĠLouisville": 21525, "gradient": 49607, "ĠCool": 15226, "Ġengineered": 23371, "Ġdenies": 18866, "Ġemergency": 6334, "Ġpayday": 45691, "Ġbeating": 11226, "ĠIdent": 11440, "ĠMI": 15789, "ff": 487, "ĠDesk": 39246, "bledon": 49258, "Fa": 50110, "Ġsinging": 13777, "Ġerased": 33588, "ĠFISA": 44073, "Ġcongregation": 28862, "Ġnicely": 16576, "Ġsunny": 27737, "Jake": 43930, "Ġrotating": 24012, "Ġvisualize": 38350, "Ġtraded": 14018, "payer": 34987, "ĠUNC": 39151, "Ġwidening": 38118, "ĠTsukuyomi": 43796, "Ġpreempt": 38726, "Ġgarner": 34679, "ĠChau": 49628, "ibrarian": 35808, "ĠSaf": 6895, "demon": 26567, "ceivable": 48054, "ĠSup": 5200, "ĠEnh": 15860, "pure": 37424, "Ġmetallic": 27306, "ante": 12427, "187": 23451, "ĠRage": 21663, "ĠBullet": 18003, "Ġcovered": 5017, "Ġcause": 2728, "sp": 2777, "debug": 24442, "ĠPerception": 35802, "landish": 45626, "Ġbusted": 36193, "Ġ560": 38089, "VERS": 28884, "ĠDonna": 29216, "ĠElsa": 19226, "Ġeyes": 2951, "ination": 1883, "ÙĬ": 22654, "ĠRoma": 29600, "Ġconsisted": 19954, "Ġliving": 2877, "Ġspeculate": 26256, "Ġsulfur": 37402, "ĠPASS": 41752, "ãĤ®": 43899, "Ġslug": 31065, "Ġshowdown": 33338, "Ġstaffers": 23033, "original": 14986, "ĠGun": 6748, "Ġformat": 5794, "Ġ390": 33882, "Ġcolonists": 43430, "ortal": 16906, "camera": 25695, "Ġharassed": 26775, "Ġkernel": 9720, "Ġdelve": 39130, "Ġageing": 41310, "Ġlesbians": 34210, "Ġniece": 41803, "RT": 14181, "ĠHein": 26431, "Ġ208": 27121, "ĠMcH": 49634, "Ġinformational": 21524, "Ġjud": 2553, "Ġequip": 25725, "Ġnets": 31720, "ĠAddress": 17917, "ĠPepsi": 38428, "Ġfollower": 33040, "Ġscaling": 20796, "iat": 5375, "Ġsuperst": 23510, "ĠSwansea": 36019, "Ġrefugee": 12540, "ĠAudit": 46450, "Ġcollaborator": 50160, "ĠRewards": 27964, "Ġburden": 10538, "ĠFeminist": 46259, "agic": 9083, "thritis": 34043, "Ġencomp": 20504, "ĠPatel": 33110, "Ġsaddle": 33083, "Ġforgot": 16453, "Ġbar": 2318, "End": 12915, "Ġrage": 14404, "ktop": 16201, "ĠSaving": 34689, "Ġcharacters": 3435, "ĠGames": 5776, "Ġlounge": 31893, "Advanced": 28809, "Ġfate": 10030, "Ġcommute": 31099, "Ġhunted": 34275, "halla": 41911, "ĠWarfare": 20745, "FIX": 47084, "Ġhabit": 7947, "ĠLed": 22964, "Ġannouncer": 49032, "09": 2931, "pen": 3617, "Ġpledges": 31241, "ĠHilbert": 47718, "imer": 22723, "Ġinhibits": 49543, "paste": 34274, "rah": 11392, "Ġbol": 11572, "ĠCth": 34901, "Ġcru": 4630, "ĠLiz": 28313, "ĠDresden": 46993, "sofar": 38649, "Ġtrapping": 43338, "Ġminiature": 28685, "Ġopportun": 2755, "owitz": 20951, "Ġfooting": 32687, "Ġmisunder": 16782, "Hold": 26807, "Ġoverw": 6993, "Ġuploading": 33794, "ĠElemental": 21340, "eous": 15303, "Bir": 50091, "Ġrigorous": 22888, "Ġspeak": 2740, "Lake": 43035, "ĠAke": 45296, "rehensive": 36321, "Ġdefeats": 29234, "ged": 2004, "Ġcritique": 19976, "53": 4310, "Ġgarment": 30594, "Ġwatering": 41737, "Ġreadiness": 30618, "åħī": 46268, "Ġclueless": 44865, "Ġanim": 2355, "Ġdisgruntled": 48967, "Ġunstable": 21354, "Ġmirror": 10162, "Ġcoveted": 34707, "xton": 22874, "ĠKitchen": 22541, "lucent": 35600, "Ġ435": 42671, "Ġintensely": 31146, "Ġannexed": 49181, "Ġqualifications": 24751, "Rober": 15924, "Chat": 30820, "Ġ(&": 35494, "ĠMalone": 40735, "lc": 44601, "Ġdrops": 10532, "Syria": 40029, "ĠRide": 21640, "Too": 23307, "Ak": 33901, "'),": 33809, "ĠCommunications": 14620, "Ġperks": 28429, "abby": 42457, "Ġflat": 6228, "Ġpolled": 37698, "Ġneighbors": 12020, "Ġmillenn": 15755, "ĠUniversity": 2059, "ĠAmeric": 1019, "birds": 32002, "RFC": 41150, "Ġ90": 4101, "Ġener": 2400, "ĠHist": 5590, "Ġmortal": 22122, "Ġspar": 37331, "usion": 4241, "Events": 37103, "Ġhandlers": 32847, "connected": 15236, "irling": 24297, "Ġdemonstrating": 21135, "greSQL": 47701, "Ġlex": 31191, "ĠChase": 16346, "atform": 3390, "ANK": 15154, "Ġreflection": 14580, "Ġrumored": 29586, "Ġlaced": 49699, "ABC": 24694, "ĠSalv": 20332, "Ġwindow": 4324, "Ġlandmarks": 41532, "Ġstatistically": 19941, "ĠOklahoma": 10433, "Ġreflections": 35066, "ĠCos": 10437, "ĠWyr": 45988, "ĠScarborough": 36126, "ĠAm": 1703, "ĠSymptoms": 49559, "åĽ": 32368, "Ġdistur": 11239, "Ġaforementioned": 20794, "Ġcards": 4116, "Ġrobbing": 47162, "Ġtrench": 35091, "ĠTes": 10696, "713": 50055, "ADVERTISEMENT": 19053, "ĠElves": 35172, "Ġbrace": 22581, "Technology": 44893, "Ġmilit": 2036, "ĠRenault": 44083, "ĠOsw": 30317, "Ġdiscipline": 12883, "ĠHill": 3327, "ater": 729, "ĠKu": 12554, "Ġwolf": 17481, "zin": 42140, "ĠRR": 26067, "Blue": 14573, "ĠDefinitive": 46634, "ure": 495, "ĠAber": 27700, "usions": 15880, "124": 17464, "ĠJustin": 10799, "clud": 758, "Ġcornerstone": 39774, "regate": 49373, "Ġcosmic": 23464, "Ġscarce": 18549, "Hope": 34456, "ĠRandomRedditorWithNo": 36174, "335": 27326, "Ġrice": 11464, "Ġtimestamp": 41033, "Ġapprehens": 31887, "Ġfurther": 2252, "ĠCouch": 48225, "ĠGarrett": 27540, "Ġjab": 33896, "ĠVed": 36101, "Device": 24728, "Indian": 30821, "Ġpract": 1970, "ĠConsumption": 42158, "Ġtw": 665, "dro": 22285, "ĠEss": 11985, "inces": 17386, "ĠÙ": 18923, "ĠCah": 44398, "Ġfont": 10369, "Ġbirthday": 10955, "Ġcoats": 30720, "?:": 27514, "ĠKant": 29576, "Hill": 36369, "Ġrear": 8286, "Ġcrush": 19813, "PR": 4805, "Ġpirate": 25868, "Ġtimers": 48085, "ĠConnection": 26923, "Ġmountainous": 47500, "Ġstamps": 25560, "uality": 25775, "Ġcook": 4255, "Ġrevolutionary": 12253, "arma": 10961, "Ĺ": 245, "ĠJava": 7349, "ĠCarnage": 44177, "Ġhabits": 13870, "ra": 430, "ĠMassive": 38756, "Ġanalysis": 3781, "ĠProgramming": 30297, "Ġrocked": 36872, "cycl": 15539, "ĠTou": 23359, "Ġess": 3209, "Ġobnoxious": 43283, "ĠSched": 27774, "Ġlod": 19527, "Ġyes": 3763, "ĠMiliband": 38199, "á¹": 26292, "Ġseed": 9403, "asse": 21612, "steps": 20214, "ĠFischer": 30901, "ãģ": 2515, "cent": 1087, "Ġawful": 12659, "Ġassail": 29886, "ĠTreasure": 20215, "ĠGaga": 42192, "ĠHighland": 39874, "Ġchorus": 26441, "ĠArrest": 35080, "UNCH": 47461, "aya": 11729, "isible": 12843, "Ġreckoning": 49654, "manac": 46870, "ĠHaste": 47708, "ĠOUR": 30229, "mile": 18085, "Ġaffordability": 38981, "Ġnurses": 20669, "Ġworsh": 26511, "Ġcounterfe": 29465, "Ġresolution": 6323, "armor": 40456, "empt": 1791, "breaker": 25766, "Ġmaximum": 5415, "Ġhistoric": 9566, "Ġprejudices": 39800, "Frank": 17439, "ameless": 39942, "Ġunin": 26329, "Ġcollaborators": 37886, "Ġtransforms": 31408, "vertis": 3346, "Ġdrawn": 7428, "youtube": 11604, "Ġcops": 14073, "Ġ\"_": 45434, "Ġlib": 9195, "Ġwielding": 33949, "Ġtransform": 6121, "Ġinfluential": 14212, "amsung": 30136, "Ġillustrates": 21290, "ĠYanuk": 37068, "ãĤ¶": 48458, "Ġcarve": 36717, "ĠDowning": 31355, "fb": 21855, "liness": 26061, "Morgan": 47184, "Ġsuperiority": 26883, "Ġentrepreneur": 19500, "ĠMob": 16540, "ĠBuff": 8792, "OW": 3913, "ĠTigers": 17662, "circ": 21170, "Ġpixels": 17848, "Ġassay": 40575, "ĠFreud": 33430, "Ġcompulsion": 48672, "Ġvictories": 19017, "Ġdes": 748, "ĠLS": 30948, "OPLE": 34354, "ĠDong": 28831, "Ġbrutally": 30040, "âĿ": 32391, "Ġdownload": 4321, "ĠBST": 44992, "Ġpowdered": 41642, "rador": 40368, "omp": 3361, "orp": 16300, "Ġchronically": 49386, "Ġtrafficking": 14616, "Ġmale": 4257, "Ġfif": 5515, "ĠPCs": 21869, "itives": 20288, "CU": 43633, "Ġnarrow": 7135, "Micro": 13031, "Ġgunned": 49474, "Ġslaying": 45183, "Ġyour": 534, "Ġsteps": 4831, "Ġchrom": 15358, "ĠCook": 8261, "ĠWak": 46033, "Ġantic": 47792, "Ġmoms": 34015, "ĠTories": 25098, "Ġmids": 49304, "ulnerability": 40920, "ĠBungie": 47593, "Ġcandy": 18550, "KB": 22764, "2010": 10333, "âĦ¢": 8151, "int": 600, "Ġaccomp": 7555, "ĠHew": 30446, "ĠNavy": 8565, "catentry": 39165, "Ġindecent": 45400, "ureau": 6262, "olyn": 34742, "Generic": 46189, "ĠAmendments": 39169, "Ġabdomen": 32956, "Ġgen": 2429, "ĠSo": 1406, "Ġsupporters": 5941, "Ġscattered": 16830, "ĠTEST": 43001, "Former": 14282, "Beat": 34979, "Ġease": 10152, "800": 7410, "RI": 7112, "Ġcompost": 36541, "ĠIdentity": 27207, "Ġattain": 18188, "fif": 32041, "GGGGGGGG": 40415, "Ġcaf": 19945, "Ġjudges": 10266, "Ġvehemently": 42327, "Ġdriven": 7986, "Ġcont": 542, "Ġtie": 9839, "uras": 17786, "Space": 14106, "Which": 13828, "Ġholidays": 17122, "ĠPy": 9485, "Ġwins": 7864, "ĠCarnival": 40886, "Really": 26392, "Ġplenty": 6088, "Ġdemands": 8665, "ept": 19598, "Ĭ±": 46788, "472": 37856, "Ġsomehow": 7599, "ĠHW": 44884, "Ġcryptic": 47774, "Anyway": 23795, "Ġfunky": 42958, "Ġupgrade": 8515, "Ġdiner": 47519, "Ġacknowledgement": 41259, "ĠILCS": 36169, "ĠWebb": 25130, "Ġlipstick": 41429, "Ġveggies": 39425, "Ġultr": 23212, "Ġbacon": 21385, "Ġbeds": 20237, "Bern": 23927, "Ġblankets": 34794, "ĠMcC": 5108, "Ġpersistent": 16218, "Ġvideo": 2008, "ĠCod": 18720, "ÃŃ": 8836, "Ġintimidate": 34903, "DN": 35504, "Ġgenerations": 10439, "Ġinquiries": 23538, "ication": 3299, "Ġenorm": 8885, "Ġprocurement": 31156, "ĠAlternatively": 25929, "ĠGrave": 36424, "ĠPaul": 3362, "Ġunhappy": 19283, "ĠNormandy": 43231, "ĠBJ": 47204, "come": 2958, "ĠBMW": 19339, "oller": 49252, "ĠFeeling": 39635, "ĠJenn": 9777, "ĠMISS": 49684, "istani": 16688, "uart": 19986, "Ġpunches": 25495, "uala": 41944, "Ġbelongings": 30985, "Ġrelevant": 5981, "Ġscreened": 32862, "Ġeroded": 44699, "Ġstra": 3534, "Ġcurrencies": 19247, "Ġconfusing": 15337, "499": 28324, "Ġpsychologically": 39705, "tower": 36170, "Ġsoaked": 33657, "Ġrumours": 30427, "icular": 13174, "reating": 34567, "Ġdisciples": 23351, "Ġawaiting": 21859, "Ġleader": 3554, "Ġformatted": 39559, "ĠKorean": 6983, "conduct": 36495, "Already": 37447, "Alright": 31442, "Ġdual": 10668, "Ġburnt": 22999, "ĠThanksgiving": 21494, "Ġwaterproof": 35158, "ĠVend": 44220, "ĠNaj": 37135, "payers": 45773, "Tickets": 43254, "357": 27277, "Ġmines": 18446, "Ġcuff": 47291, "imum": 2847, "ĠStability": 47865, "Ġcaffe": 21121, "ĠSkin": 17847, "repl": 35666, "ĠCheck": 6822, "Ġspans": 32727, "Ġtranslate": 15772, "Ġpos": 1426, "ĠSaddam": 24277, "Ġlandmark": 20533, "Ġfirst": 717, "ĠElections": 24473, "Ġshoulder": 8163, "æī": 33699, "Ġdivisive": 29656, "Ġperpetual": 29079, "ĠParents": 28231, "Ġrenal": 44375, "ĠArmory": 45388, "Ġdeprecated": 39224, "ĠFlat": 21939, "Ġmunicip": 11076, "ĠTarget": 12744, "ĠSantana": 49067, "Ġelites": 21887, "ĠNPCs": 28167, "ĠZ": 1168, "undown": 41609, "Ġentail": 39793, "@#": 41573, "ĠZot": 22621, "Ġ....": 19424, "Ġmeg": 17243, "Ġhotels": 18505, "ā": 189, "ĠDefeat": 41397, "Ġviews": 5009, "ĠACA": 27628, "sterdam": 22506, "adjusted": 29117, "Ġbroom": 47085, "together": 45525, "tom": 39532, "attach": 47348, "Per": 5990, "ĠAcer": 49606, "ĠGOODMAN": 32021, "62": 5237, "Ġbrunch": 50219, "chel": 29232, "untary": 26468, "Ġ193": 29691, "ĠEthernet": 31903, "ugs": 10339, "016": 27037, "ocl": 38679, "Ġbuild": 1382, "Ġhall": 6899, "ĠBMC": 40714, "ĠMemor": 41157, "ult": 586, "About": 8585, "Ġdupl": 14184, "release": 20979, "Ġnarc": 16946, "Ġnavy": 23956, "Ġindications": 26496, "grave": 41711, "Ġpersuasive": 40116, "Chinese": 23604, "Ġperenn": 34893, "................................": 8864, "Ġchildcare": 42857, "Ġencl": 13507, "Ġskim": 39080, "Ġuncovered": 18838, "trust": 38087, "UES": 35409, "De": 5005, "Ġadjud": 33719, "Ġprevents": 15174, "ĠBac": 35583, "Ġunnecessary": 13114, "Ġsituational": 45290, "lication": 10142, "Ġcreeps": 49100, "Ġorganisers": 43013, "ĠAdvocate": 40209, "ĠTemper": 48125, "be": 1350, "Ġreinvent": 36608, "oped": 19458, "ĠKaw": 23043, "ĠDallas": 8533, "post": 7353, "Ġbacklash": 19135, "Met": 9171, "Ġgatherings": 37134, "ĠMonaco": 31630, "ĠValues": 27068, "Ġships": 7937, "Ġholes": 10421, "Ġprec": 3718, "Ġimplicit": 16992, "umbing": 28149, "Ġafflicted": 39785, "ĠRowling": 41558, "film": 26240, "uncture": 39187, "ĠKashmir": 24664, "plays": 26024, "Fail": 39044, "Ġsmartphones": 18151, "Ġwield": 15445, "Ġcreamy": 27892, "ĠGast": 31486, "Ġregistered": 6823, "Ġerroneous": 35366, "ĠUCS": 49553, "Ġstern": 26370, "otom": 43125, "474": 38652, "ĠCONTIN": 43659, "Ġdrills": 26721, "ĠPlaza": 23280, "ATT": 17139, "Ġsync": 17510, "Ġcoach": 3985, "ĠAvailable": 14898, "Ġmanag": 2358, "Ġfields": 7032, "packing": 41291, "inav": 26802, "Ġ181": 30110, "Ġ234": 34323, "Ġtimeline": 15264, "ĠRagnar": 32797, "ĠNietzsche": 40258, "Ġarchetype": 37942, "Ġsolitary": 25565, "Phill": 41970, "ĠDuchess": 40289, "ĠLoving": 39202, "ĠHBO": 18804, "Ġfunc": 25439, "ĠAnarchy": 38899, "lua": 40211, "Sel": 48767, "Ġneedles": 25209, "yson": 19699, "Shot": 28512, "ĠGlacier": 49120, "ĠNano": 33504, "Tap": 45081, "Ġclerics": 47964, "Ġsafe": 3338, "uro": 1434, "Ġnephew": 26301, "Ġdropping": 12047, "ĠAllison": 33461, "Ġray": 26842, "jp": 34523, "Ġoptions": 3689, "ĠKR": 29430, "Ġtyp": 2170, "Ġdistinctions": 36640, "oot": 1025, "ĠFAQ": 18749, "icken": 5973, "coe": 49270, "MB": 10744, "ĠVisit": 16440, "Ġinstaller": 29124, "ĠTucson": 36805, "489": 35890, "Ġlocating": 42139, "ĠTara": 37723, "Ġsupremacy": 25888, "Ġcumbersome": 44491, "aspberry": 17653, "Ġwrestling": 16381, "pointers": 47809, "ĠBW": 37869, "785": 41172, "caliber": 43288, "Ġmemo": 16155, "Ġuninterrupted": 49471, "ĠâĨĴ": 15168, "Ġirrit": 14709, "ĠTerminator": 41830, "pic": 16564, "Dist": 20344, "Ġeither": 2035, "Ġoptic": 43151, "Ġmachine": 4572, "ĠRobin": 12325, "Ġharness": 19356, "ĠSqu": 5056, "ĠCav": 19931, "Ġsacrificing": 32698, "mini": 45313, "rov": 18657, "ĠItems": 17230, "Ġordinary": 8850, "0": 15, "ributed": 6169, "audio": 24051, "Ġice": 4771, "aine": 5718, "Ġstraight": 3892, "Ġtissues": 21379, "Ġdefective": 32129, "Ġpaints": 32281, "Ġdiscussed": 6693, "Ġconsequence": 12921, "ĠMichel": 12386, "Ġvoc": 12776, "rike": 8760, "holding": 19216, "Ġfinanced": 29768, "ĠHead": 7123, "Param": 22973, "Ġwanted": 2227, "Ġinert": 29824, "osponsors": 39500, "awar": 48841, "Ġunconscious": 14917, "ĠChim": 28466, "Ġ1928": 35768, "ĠCST": 46429, "esan": 42890, "Ġsuspected": 9885, "Folder": 41092, "ĠCLR": 49896, "ĠShinzo": 43531, "Ġdissu": 46066, "Ġfeeble": 46299, "Ġreforming": 40446, "ĠSunset": 28218, "Ġnaughty": 45128, "Ġforeground": 36282, "DEN": 41819, "Ġtriv": 19876, "doctoral": 44064, "ĠWolfgang": 48566, "Cam": 21701, "rieved": 28130, "250": 9031, "Ġsleeper": 46594, "olation": 21417, "ĠGrizz": 31106, "Ġurgent": 18039, "Ġbefore": 878, "Ġwind": 2344, "schild": 35058, "Ġneon": 25988, "ĠGes": 45371, "umbles": 25329, "Ġhandled": 12118, "Ac": 12832, "ĠKee": 19799, "Ġparental": 21694, "Google": 11708, "day": 820, "Ġsushi": 36324, "Ġhomicide": 19625, "Ġengines": 11874, "codes": 40148, "Ġnext": 1306, "Ġunsur": 31035, "cancer": 48870, "ĠSung": 29802, "Ġunpublished": 42686, "Location": 14749, "ancers": 20811, "Ġwedd": 9540, "Ġautomated": 16359, "Whereas": 48494, "ĠÂ§": 8460, "Ġranges": 16069, "ĠDynasty": 30908, "Ġ1957": 25177, "ĠPersonal": 15644, "thin": 40871, "MAR": 40569, "Ġresurg": 33316, "METHOD": 49273, "Ġtoilets": 32711, "Ġcertify": 46125, "large": 11664, "ĠMoh": 9719, "Bank": 28650, "ĠFounder": 30153, "uddin": 44008, "Ġoccasion": 6695, "Jennifer": 43187, "Ġneighb": 9882, "Ġdoubtful": 31608, "ĠInstructions": 27759, "Doctors": 47087, "Ġblends": 32067, "Ġgrizz": 46307, "Ġsupporting": 6493, "Ġonly": 691, "ĠCornell": 27119, "Ġaward": 5764, "Ġhacks": 30445, "scenes": 28123, "ĠIntervention": 43673, "ĠSlightly": 49365, "V": 53, "Long": 14617, "make": 15883, "yu": 24767, "Ġresemb": 11568, "blocking": 41938, "Ġinsights": 17218, "ĠVers": 18535, "ĠJedi": 16147, "ifty": 24905, "Ġpharmacy": 32763, "kb": 32812, "isky": 34041, "Ġgiven": 1813, "log": 6404, "Ġcredit": 3884, "Ġreplacing": 13586, "Ġpostal": 30793, "Ġdramatic": 10092, "Ġastounding": 34328, "obb": 21963, "ĠOct": 2556, "ĠJimmy": 12963, "Ġtasting": 26973, "ighty": 14400, "ĠParallel": 42945, "ĠMori": 32709, "ĠDefensive": 24784, "Ġreplaces": 24020, "iration": 15297, "ĠOrioles": 32907, "itude": 3984, "tainment": 10738, "ĠQuery": 43301, "ĠeBay": 21698, "arthy": 18270, "Ġdifferentiate": 28754, "Professor": 25031, "ĠJames": 3700, "ĠConstruct": 28407, "ĠInstitution": 29426, "mitting": 16138, "Ġpedoph": 27706, "isy": 13560, "habi": 37362, "Ġpresets": 46613, "ĠEditor": 12058, "che": 2395, "ĠSugar": 20874, "Under": 9203, "itant": 23737, "ĠSequ": 24604, "gregation": 17097, "660": 39885, "ĠIceland": 17333, "ĠCore": 7231, "Ġinfring": 14020, "å£": 18004, "Ġcard": 2657, "irth": 3333, "Ġpreferring": 41109, "ĠHok": 26467, "jon": 46286, "ĠQur": 17599, "ĠSamantha": 34778, "sys": 17597, "ĠAUTH": 37195, "Ġamazingly": 32513, "Ġpaws": 49193, "Ġspecifically": 5734, "ĠWouldn": 43048, "uddenly": 18865, "Ġward": 15305, "Ware": 38824, "ĠON": 6177, "GER": 30373, "Gi": 33704, "Ġscandals": 28449, "ĠSEM": 48603, "Ġmercy": 17703, "Î¿": 26517, "Ġracket": 37391, "asm": 8597, "Ġ*)": 31936, "Ġcoup": 12092, "ĠNurse": 42724, "Ġflowering": 48573, "ĠDecay": 39087, "276": 27988, "673": 45758, "Â§": 16273, "operative": 27173, "ros": 4951, "Ġsolvent": 43209, "rient": 8289, "ĠWinner": 25358, "acus": 48628, "anked": 14076, "Ġmac": 8352, "Ġjson": 33918, "ĠHMS": 44247, "ĠActions": 24439, "ĠAX": 43051, "Ġalley": 23978, "Republic": 15431, "Ġsecurely": 30835, "SEA": 46887, "ĠBehavioral": 38483, "Ġaft": 46088, "imity": 18853, "Ġsorry": 7926, "img": 9600, "Mid": 22622, "Ġcontentious": 27154, "ĠConrad": 39708, "ĠCLS": 39241, "ĠBD": 28023, "Ġvulnerabilities": 23805, "18": 1507, "Ġcontag": 34335, "ĠSupplement": 23150, "ĠChev": 25233, "ĠDV": 29854, "amorph": 37670, "otta": 12375, "Ġspite": 15275, "Project": 16775, "ĠDys": 46876, "ĠAppeal": 31876, "ĠMcA": 40444, "Ġsubstitute": 15373, "Ġhappened": 3022, "ĠBundesliga": 44323, "ĠFox": 5426, "ĠScion": 49632, "abul": 16665, "Ġcivilian": 11107, "í": 169, "now": 2197, "vantage": 38815, "Ġimmortal": 26156, "Ġadmins": 44563, "Ġprohibits": 24059, "ĠMarty": 29876, "Ġriders": 13750, "ĠMc": 1982, "Ġingredient": 18734, "ĠIon": 36404, "ĠTransformation": 49127, "Ġbiod": 32449, "dra": 32491, "Ġvaguely": 29627, "Ġaquarium": 33868, "Ġhazard": 15834, "ister": 1694, "ATING": 33881, "];": 11208, "Ġebook": 47179, "885": 44230, "Ġcomplained": 13832, "hari": 49573, "Ġ1931": 34625, "Ġpsychological": 10590, "Ġmassacres": 50010, "Ġdigs": 46561, "ĠTorn": 31940, "iley": 9618, "ĠHerz": 34321, "éĹĺ": 42234, "Ġunwilling": 19084, "fifth": 43556, "onte": 38599, "stre": 22853, "ĠCompatibility": 46021, "ĠBurke": 23259, "oll": 692, "Ġoccupants": 35242, "%;": 26525, "Ġshalt": 36258, "Ġideas": 4213, "ĠFed": 10169, "lane": 33533, "Ġpounding": 33919, "Ġdaring": 27939, "asel": 48038, "Broad": 30507, "ĠMens": 43103, "abol": 28426, "Ġacet": 25174, "Ġkindly": 26820, "Ġgranting": 21787, "Ġhij": 16836, "cgi": 37157, "ĠBo": 3248, "ST": 2257, "Ġups": 19649, "Ġterms": 2846, "ĠDonovan": 31565, "Ġsou": 24049, "1977": 37781, "Ġlich": 43049, "Ġfloods": 27283, "Ġarbitrary": 14977, "ĠRiot": 24528, "orough": 7985, "brate": 40804, "frey": 37425, "Pure": 49548, "Ġbreed": 15939, "ĠVC": 26706, "Ġpayable": 28538, "Ġmanages": 15314, "Ġkeeper": 28356, "Ġsequel": 16304, "Ġcastle": 16669, "aft": 14940, "Ġvis": 1490, "Ġinterval": 16654, "fficient": 5632, "Ġendorsements": 40614, "REF": 31688, "ĠStand": 5751, "ĠMitchell": 14526, "Pri": 34487, "Secretary": 38541, "Đ": 204, "ãĥ¼ãĥ³": 31708, "Israel": 14040, "ĠSubtle": 47419, "ĠKeynes": 33531, "Ġplaster": 46376, "arel": 20318, "Ġpleasing": 28790, "ousel": 48355, "pha": 7566, "Free": 11146, "Ġreflecting": 20252, "Ġmeasurement": 15558, "Ġcriticizing": 26816, "ĠEverest": 41336, "Ġimplementing": 15427, "ĠOm": 16543, "Ġtyre": 48216, "Ġsubdivision": 29648, "ĠSD": 9834, "Ġcomplicated": 8253, "Ġdrone": 12170, "ĠPes": 38434, "ĠSafe": 19978, "Ġmost": 749, "ĠStrateg": 17611, "iffin": 42022, "233": 25429, "Render": 45819, "ĠFraser": 28059, "ĠALSO": 35912, "Ġdysph": 50111, "ĠMonsanto": 25769, "Ġleased": 40352, "Ġappet": 16422, "Ġfaculties": 47126, "irie": 28191, "ĠHar": 2113, "ĠSPECIAL": 38846, "tele": 46813, "Ġ377": 42163, "ĠZone": 13035, "Ġpositioned": 19378, "Ġscales": 16252, "LAB": 48780, "Ġconsist": 3473, "Ġinsight": 11281, "Ultimately": 27212, "Ġcompleted": 5668, "Ġperformance": 2854, "kay": 5568, "Ġproceedings": 13106, "954": 48372, "unker": 21705, "Sc": 3351, "Ġpassports": 33052, "District": 44857, "ĠShay": 34760, "ree": 631, "ross": 1214, "Ġvow": 23268, "manufact": 48119, "Ġont": 39585, "ãĤ¢": 11839, "Ġuncomfortable": 12916, "ĠAdded": 10687, "ĠMcKay": 37946, "Ġapprox": 5561, "Ġtossing": 37432, "Ġblasts": 29895, "Ġcalls": 3848, "Ġtherapy": 9102, "GR": 10761, "Ġpleasure": 9476, "ĠFreeman": 22394, "burse": 21780, "ĠDisneyland": 36312, "ruits": 50187, "Weather": 41865, "ĠIl": 13778, "comings": 30715, "spir": 45564, "bre": 4679, ">": 29, "OTS": 33472, "Ġnoticing": 28107, "Ġ415": 40643, "ĠArk": 9128, "Legendary": 24524, "ĠTrou": 22141, "orks": 3647, "Ġkan": 43998, "Ġcourtesy": 12537, "Ġupdate": 4296, "Ġamplitude": 37188, "onents": 3906, "Ġabyss": 37678, "Ġpreacher": 39797, "agements": 38113, "Ġperiodically": 26034, "Comp": 7293, "94": 5824, "Ġaggression": 15569, "ĠBeet": 39040, "ĠDomain": 20021, "Ġsports": 5701, "Ġhapl": 42519, "Ġvigil": 16729, "innamon": 21920, "inity": 6269, "states": 27219, "Ġvirtuous": 41276, "ĠMacy": 50048, "Ġveh": 2844, "ĠGinny": 37877, "Ġscrew": 9580, "Ġpublications": 16125, "Anti": 28795, "Ġslice": 16416, "emphasis": 36663, "Ġstrikes": 8956, "Ġcancer": 4890, "Courtesy": 31825, "banks": 43558, "ĠLI": 24653, "ĠQuantity": 39789, "ĠHazard": 32224, "Ġsparing": 43110, "walking": 44065, "ĠFro": 9734, "æĪ¦": 36704, "ified": 1431, "Ġrewritten": 30101, "nt": 429, "URE": 11335, "Ġcaliber": 28139, "oted": 5191, "Ġblown": 16318, "Ġwheat": 17135, "sequence": 43167, "ĠFeldman": 45498, "inem": 7749, "ĠBlend": 41198, "ãĤĵ": 22174, "Ġmerely": 6974, "Ġposting": 10754, "ners": 2741, "foundation": 42526, "endale": 41147, "ĠSabbath": 38402, "¦": 99, "ĠPowell": 19675, "ĠKissinger": 39162, "ĠAthletic": 29007, "ivation": 26939, "Ġseeing": 4379, "901": 46815, "BW": 48802, "Focus": 34888, "ĠPark": 3250, "Ġunited": 16503, "ĠBetter": 11625, "CL": 5097, "Ġplaintiffs": 21880, "Ġstrap": 23016, "ĠGree": 5251, "\\-": 41441, "Ġgenesis": 48861, "riage": 4087, "Ġveterin": 33647, "ĠClubs": 48901, "Ġleveling": 34661, "DF": 8068, "Ġcompany": 1664, "ĠBlaz": 26176, "Ġquotas": 38736, "Ġcycle": 6772, "Ġresil": 20036, "ĠAlberta": 15555, "ĠShort": 10073, "kids": 45235, "ĠFIA": 49432, "ilight": 15512, "package": 26495, "Ġthought": 1807, "ĠBengal": 28630, "Ġearthly": 39892, "Ġhelper": 31904, "Ġcharitable": 21803, "Ġtechnical": 6276, "ĠUbuntu": 14949, "ĠMuch": 13111, "346": 30557, "ĠHannibal": 41949, "Ġdatabases": 20083, "Christ": 10684, "ashes": 7465, "/**": 35343, "ĠNAACP": 39829, "Ġdetailing": 22976, "MK": 33907, "Ġangered": 31997, "Ġaggressive": 8361, "Ġupgr": 5484, "hao": 23778, "Ġallocate": 31935, "Ġretarded": 34445, "ĠAlbania": 44615, "Ġraces": 9558, "Ġalright": 23036, "Ġunity": 14111, "ĠPalin": 33109, "office": 31810, "Ġhy": 2537, "ĠProdu": 21522, "Ġconfident": 6563, "non": 13159, "8000": 33942, "fare": 9496, "Lu": 25596, "brush": 32680, "Ġattractiveness": 43325, "POR": 44680, "ĠOrder": 8284, "ĠPIT": 49040, "ĠPersonnel": 41623, "Ġearn": 5160, "whelming": 36433, "charge": 10136, "Ġsubstrate": 32305, "direct": 12942, "ĠKimber": 36015, "esty": 9673, "Ġanat": 20076, "Ġdisappointed": 11679, "ousand": 29910, "Ġminion": 28365, "Ġdespise": 44351, "asts": 5773, "aires": 17693, "Ġbub": 10015, "Ġdiffusion": 44258, "ãĥŃ": 16253, "Ġforc": 24686, "Ġtreating": 13622, "ĠPET": 32043, "Ġcatast": 14911, "Ġswinging": 25635, "Ġbot": 10214, "Ã«": 26689, "Ġrolled": 11686, "suggest": 47811, "Ġadminist": 2719, "ĠT": 309, "umeric": 39223, "Ġcoated": 30267, "Ġwrongdoing": 25013, "Additional": 17699, "ffee": 5853, "ĠKhe": 48888, "Ed": 7407, "ĠEL": 17852, "Ġhospitals": 11301, "what": 10919, "ĠTravels": 48899, "Ġswath": 50176, "(\"": 7203, "Ġpreach": 32950, "plets": 46916, "Ġarsen": 38924, "ĠCom": 955, "ative": 876, "ĠHere": 3423, "ĠsrfN": 42586, "ĠFaust": 47411, "Ġenrolled": 18724, "Ġimmutable": 40139, "ĠPer": 2448, "cosystem": 12541, "Ġintolerance": 31545, "Ġfin": 957, "ĠLED": 12365, "Ġretri": 37715, "KS": 27015, "ĠFritz": 45954, "ipes": 18636, "ĠShiny": 39657, "ĠIris": 34230, "ĠBean": 26510, "oug": 20805, "ir": 343, "Ġcutoff": 45616, "Fans": 36570, "emies": 5090, "ĠPrecision": 39281, "orn": 1211, "ĠVanderbilt": 38684, "Ġstand": 1302, "Ġauth": 6284, "ĠSimpl": 45157, "703": 36809, "ĠBrist": 23072, "Ġaudience": 5386, "Ġepid": 12851, "ĠMilton": 30979, "cffff": 31727, "Ġamuse": 26072, "requ": 8897, "Ġtied": 8165, "Ġvillagers": 25263, "posure": 26205, "Ġ(+": 11502, "odon": 46457, "save": 21928, "ĠEucl": 48862, "Ġboosts": 31822, "ĠAngel": 3905, "Ġcreated": 2727, "Ġpollutants": 41824, "LOAD": 35613, "ĠPetr": 47377, "Ġentreprene": 11548, "anguard": 23521, "Ġwaterways": 47518, "Aren": 43199, "Ġchords": 34211, "ĠBite": 44540, "Ġshaming": 46382, "Ġingredients": 9391, "Ġpaste": 17008, "ĠFame": 18864, "Ġautopsy": 30241, "ĠPCB": 28700, "Ġvouchers": 41262, "Ġcompositions": 33543, "ĠWol": 27094, "Instruct": 43993, "Ġcatalyst": 31357, "Ġdogs": 6844, "Ġyours": 12431, "Ġmortality": 12430, "ĠFIFA": 21285, "ĠSetFontSize": 39446, "Ġfrowned": 32198, "ĠRap": 12281, "ĠBrowse": 44775, "elo": 22126, "ĠMembership": 37939, "Ġembry": 20748, "arson": 12613, "ĠAdjust": 20292, "Ġrazor": 26811, "Ġframe": 5739, "Ġlegion": 41453, "bang": 36668, "ĠPaddock": 49762, "Ġlocks": 19253, "Ġfemales": 12366, "ĠEnhance": 32999, "Ġnas": 25221, "Ġcx": 43213, "Ī": 230, "ZX": 40692, "].\"": 29225, "ĠSour": 47694, "Ġminers": 18295, "Ġimpossible": 5340, "Ġsubstances": 15938, "ĠGin": 21444, "Ġhomework": 26131, "Ġmanufacture": 6161, "Ġlabeled": 15494, "Ġpalpable": 45061, "Ġcharm": 20024, "ĠSeller": 46555, "Ġflames": 16209, "Ġswitching": 15430, "ĠVintage": 34057, "ĠTerritory": 25219, "ĠAcquisition": 44564, "Ġfil": 1226, "ĠATK": 24526, "ĠCursed": 29492, "stores": 43409, "eday": 23712, "Ġramifications": 36093, "Ġgritty": 39679, "Sweet": 36087, "Ġopera": 27296, "Ġbirds": 10087, "\";": 8172, "Ġcruiser": 35239, "Ġsamples": 8405, "Ġcraft": 5977, "ĠPetroleum": 39970, "ĠMedieval": 30294, "ĠThur": 36975, "Pur": 30026, "Ġintrins": 22496, "ĠScience": 5800, "ĠHug": 12905, "Ġrepr": 41575, "Ġrobe": 33192, "iability": 12455, "Ġfit": 4197, "Bat": 24541, "Ġmultiplayer": 16913, "Ġpigs": 22333, "Ġredundant": 30806, "ĠHull": 28238, "Ġinfant": 11212, "137": 19708, "ĠSP": 6226, "copy": 30073, "ĠIllegal": 42272, "thumbnails": 18670, "pad": 15636, "Ġelse": 2073, "Ġmushroom": 28520, "ĠWatt": 30263, "Ġpanic": 13619, "Ġoy": 35104, "ĠAly": 47535, "High": 11922, "uki": 11308, "Ġff": 31246, "ĠBasic": 14392, "Ġvegetable": 20236, "Ġfires": 12252, "Compl": 38143, "luent": 28216, "ASED": 42827, "ĠArgent": 12335, "ĠDisable": 31529, "ev": 1990, "Ġexpressions": 14700, "Ġcf": 30218, "Inst": 6310, ")...": 26513, "ĠCard": 5172, "ĠTen": 9368, "cyl": 38801, "Ġoverwhelmingly": 21658, "Ġhilarious": 20105, "opus": 25790, "pipe": 34360, "Ġallergies": 36665, "Ġconvenience": 15607, "Ġtestifying": 47952, "ĠFal": 9596, "ety": 2963, "rome": 5998, "Ġbehind": 2157, "Ġapprehension": 46473, "ĠNan": 18008, "NESS": 31097, "Ġcanned": 32530, "Ġaggress": 15786, "ĠHemp": 50060, "Bone": 49580, "Ġspends": 16887, "ĠJoan": 26640, "ĠPP": 21082, "Ġmandate": 14598, "Ġvulnerability": 15131, "Ġtourist": 18473, "Ġdeferred": 28651, "k": 74, "Ġtense": 20170, "TA": 5603, "Ġstirred": 33091, "Ġtowel": 24808, "Ġrematch": 39810, "Â®": 7461, "æĿ": 30266, "Ġcompel": 33729, "Ġinadequ": 17881, "few": 32146, "Ġtechnological": 14614, "orce": 8387, "Ġcorridors": 32807, "Arg": 28100, "Ġ('": 19203, "ĠMat": 6550, "ĠSUV": 26763, "Ġfellowship": 37900, "').": 27691, "ĠPOP": 37586, "tsy": 34293, "ĠLiam": 31684, "these": 27218, "ecycle": 47510, "ĠLis": 28546, "Ġoriginated": 20973, "ĠBalloon": 47821, "Ġdeb": 1915, "Ġ\",": 33172, "anu": 42357, "VPN": 33883, "ĠTesla": 11938, "ral": 1373, "ptin": 43217, "Ġafter": 706, "Ġcontinuously": 17282, "Ġlingering": 28528, "ĠVacc": 31749, "Ġblames": 34061, "Ġessential": 6393, "sq": 31166, "uristic": 27915, "Wed": 19864, "ĠXer": 44264, "ĠJudge": 8974, "LG": 41257, "ĠBay": 4696, "\"}],\"": 42785, "utan": 37878, "Ġanticipation": 24054, "ĠTao": 32120, "Obj": 49201, "ĠGur": 24797, "Ġchar": 1149, "Ġpoet": 21810, "Ġvision": 5761, "Ġeffect": 1245, "epend": 2690, "Ġgracious": 43210, "ikk": 36073, "ctors": 5217, "ĠBurger": 28983, "ĠTorment": 47195, "Ġpilgrimage": 36068, "Ġfinishes": 20271, "gradation": 26317, "ĠSomething": 13742, "Windows": 11209, "Ã¡": 6557, "missions": 8481, "ĠNicolas": 29737, "72": 4761, "Ġpuck": 20695, "ĠRoundup": 49310, "players": 32399, "ĠScrib": 44469, "ĠIntegration": 38410, "÷": 179, "Ġconscientious": 47963, "Ġendeavors": 40273, "Ġdiscovers": 27472, "Ġanonymity": 18685, "Ġsched": 6038, "Ġbondage": 43473, "ĠAfrica": 5478, "xxxx": 12343, "pring": 12667, "ĠBET": 38651, "Ġinfused": 37681, "ortium": 25182, "Ġupstream": 28717, "Ġparallel": 10730, "Ġturns": 4962, "ĠJobs": 19161, "Ġgazing": 50234, "JSON": 40386, "ĠPil": 12693, "Ġammon": 34946, "Ġsuppressing": 41895, "Ġbios": 37140, "458": 29334, "Ġcriticism": 7734, "Ġrevenue": 6426, "hematically": 46558, "Ġ475": 45881, "ĠKick": 10279, "ired": 1202, "urd": 2799, "Prim": 23828, "Ġthinks": 6834, "ĠCommand": 9455, "Ġinvasive": 27376, "ĠStaples": 44419, "Ġphotography": 16223, "Ġwire": 6503, "ĠAmerican": 1605, "Ġcovering": 9505, "Ġextermination": 48495, "Ġsculpt": 14747, "ĠSY": 19704, "Ġelaborate": 15962, "Ġremedy": 21210, "ĠUP": 15958, "Visual": 36259, "ĠAcademic": 31421, "ĠYu": 10605, "ĠNeg": 13496, "Ġprobable": 17939, "ĠScand": 26323, "=>": 14804, "Ġrepealed": 32933, "155": 18742, "ateral": 10534, "ĠSwan": 21491, "ĠCEO": 6123, "disk": 39531, "Ġapart": 5475, "bucks": 18999, "Ġthugs": 35052, "erella": 36648, "ĠAlly": 43039, "Ġplausible": 19756, "Ġadvoc": 5271, "Ġwest": 7421, "Ġcollisions": 31998, "Ġmorals": 35472, "Ġclears": 37526, "Ġcommenting": 26387, "Ġendogenous": 47064, "wn": 675, "ĠBermuda": 41410, "Ġenthus": 8485, "Ġactresses": 49798, "ĠMatthews": 22233, "ĠProposition": 44056, "hammad": 14875, "Gas": 39699, "Ġappalled": 41586, "roit": 7775, "Ġcockpit": 25762, "Ġrefrain": 25133, "aah": 37500, "Ġcomeback": 21933, "Times": 28595, "777": 29331, "ĠSyndicate": 42271, "ĠChatt": 39444, "ĠBigfoot": 50120, "Ġovercome": 10980, "Ġrelieved": 22598, "Ġorig": 1796, "Ġmuttered": 34042, "ĠChanges": 19179, "Ġstagn": 23196, "Ġnarrowing": 46426, "ĠLucia": 48158, "ĠDACA": 38061, "ĠCrypt": 15126, "valued": 39728, "ctory": 25977, "odes": 4147, "Ġfather": 2988, "ett": 3087, "yrics": 14279, "tsky": 30394, "kered": 28970, "Ġrecurrent": 42465, "Ġseasoning": 46794, "Ġarchitectures": 45619, "ĠFoley": 35535, "osen": 5233, "Ġcondoms": 33298, "sets": 28709, "ĠRoad": 5567, "Ġsold": 2702, "ĠIce": 6663, "ĠTian": 20834, "ĠMt": 18632, "Ġteens": 15508, "Ġknowing": 6970, "Ġstatic": 9037, "ĠCoffee": 19443, "ĠJudy": 26395, "Ġang": 3550, "update": 19119, "_______": 37405, "hyp": 36362, "Ġ67": 8275, "ĠHutchinson": 43792, "Ġdistractions": 38085, "Ġva": 46935, "ĠCornwall": 45294, "Russell": 46325, "Ġdate": 3128, "Vaults": 33937, "Ġdrains": 44368, "ography": 4867, "ĠGroup": 4912, "Ġplotting": 29353, "Enjoy": 27467, "Local": 14565, "Ġqueries": 20743, "URRENT": 39237, "Ġaud": 2709, "Ġonion": 21670, "Ġneighborhoods": 14287, "Ġcoasts": 48598, "private": 19734, "Ġtunnel": 13275, "Ġera": 6980, "Ġadvantageous": 39512, "ĠRepeat": 30021, "ãĥ¥": 24440, "Ġmidway": 37720, "Ġoxidative": 37736, "Ġrunway": 23443, "papers": 40491, "ĠFolder": 48107, "Ġpolite": 23507, "Ġapprehended": 41979, "ĠWatkins": 36832, "ĠCodex": 41982, "Ġexporting": 39133, "ĠGalaxy": 9252, "ĠHeisman": 49537, "clusively": 44307, "ĠMistress": 38499, "Ġincent": 9454, "Ġgrim": 18288, "Ġbug": 5434, "ĠAnimals": 25390, "\"},{\"": 11919, "Ġafloat": 45759, "ĠAuthent": 31885, "Ġlook": 804, "gold": 24267, "Tea": 49770, "Ġç¥ŀ": 47432, "ĠLocked": 48613, "Ġabras": 49514, "ĠProsecutors": 48198, "Ġpests": 44283, "LET": 28882, "Ġpeaks": 25740, "share": 20077, "ĠFollowing": 14207, "Ġtsun": 28798, "ĠIllustrated": 36000, "Regardless": 27894, "ĠNEED": 36465, "íķ": 47991, "inate": 4559, "Ġexactly": 3446, "Ġconsumes": 37225, "Sem": 13900, "Ġgonna": 8066, "ĠStein": 15215, "ĠUT": 19255, "Ġassistance": 6829, "Ġhaul": 25647, "ĠÂ»": 13355, "fork": 32523, "ound": 633, "ĠBott": 14835, "Ġtowns": 11684, "Ġgrandfather": 17695, "ĠDra": 12458, "uca": 43120, "354": 32182, "terday": 6432, "Ġpitted": 46852, "Ġprovoke": 29791, "<<": 16791, "Cube": 29071, "ĠSigma": 31669, "ĠBIG": 26746, "ĠArtifact": 45908, "ĠKodi": 44129, "ash": 1077, "Ġgob": 48484, "Ġgetting": 1972, "ĠBurning": 21460, "ĠIde": 16714, "ĠTherapy": 30878, "Ġhamm": 25755, "Well": 5779, "Ġjammed": 45479, "ĠWaiting": 39669, "ĠGandhi": 22081, "ĠRudd": 36131, "Ġtrembling": 39228, "Ġcached": 39986, "Ġinfantry": 21548, "ĠRyu": 36936, "ĠAtlas": 22494, "Ġmaintain": 5529, "ĠChampions": 6662, "ĠChiefs": 18733, "FTWARE": 37485, "marriage": 45394, "ĠPepe": 49761, "orus": 15125, "Ġsimulated": 28590, "Ġmetab": 10523, "Ġnegotiator": 49194, "Ġtimer": 19781, "ĠMid": 7215, "Ġbackward": 19528, "asive": 17443, "cigarette": 46040, "ĠVolt": 22702, "but": 4360, "ĠDalai": 41180, "Ġridden": 46715, "Ġcolor": 3124, "Ġincidents": 10207, "ĠCONTR": 27342, "ĠHuh": 45412, "Ġpsychiatric": 19906, "Ġstirring": 26547, "Ġapps": 6725, "Female": 27273, "Ġsympt": 6585, "Ġidol": 21580, "Ġsinister": 26592, "sync": 27261, "breakers": 49295, "Education": 41183, "19": 1129, "Ġharmony": 22471, "Ġprevent": 2948, "ĠAward": 11289, "éĸ": 38461, "Ġpoem": 21247, "Ġunfolds": 45995, "Bloom": 38941, "Ġbowl": 9396, "Ġrebellious": 43860, "SIGN": 46224, "Ġprolific": 28892, "ĠâĪ": 18872, "airy": 13021, "inion": 23971, "uthor": 1457, "Ġfet": 11351, "ĠMick": 32722, "Ġforefront": 26401, "ĠNicaragua": 38252, "ĠFitz": 16703, "ĠMild": 29087, "ĠBian": 41227, "(": 7, "ers": 364, "Ġthrone": 19262, "icide": 5285, "ĠPly": 36526, "Ġsausage": 31889, "Ġ3000": 20343, "Ġanatomical": 48631, "aito": 38995, "ĠRee": 29030, "Ġdismantle": 37890, "Ġexempted": 48521, "ispers": 27148, "driving": 24255, "968": 38956, "enery": 24156, "ĠGrow": 26936, "Off": 9362, "Ġfaces": 6698, "Ġdemon": 3222, "Ġcomplexities": 42292, "ĠPut": 5930, "ĠEric": 7651, "Ġcontested": 24163, "Ġpromotional": 18767, "Thousands": 37482, "Ġprowess": 30721, "ĠEquip": 47636, "ĠMoz": 28036, "broken": 25826, "backs": 10146, "ĠFAA": 26228, "ey": 2959, "Ġexceeds": 21695, "irming": 29808, "ulner": 5697, "Adjust": 39668, "Ġbloodshed": 40859, "ĠPrelude": 46897, "Ġreliever": 48460, "Ġactivation": 14916, "Ġdivul": 43373, "Ġrespond": 3031, "ĠAlas": 45315, "ribut": 2455, "ouf": 37116, "ĠNepal": 27026, "ennett": 48151, "word": 4775, "Ġconv": 3063, "ĠMehran": 42558, "Russian": 16220, "Cra": 33800, "ĠDragon": 2851, ",'": 4032, "ĠYork": 1971, "Ġflickering": 50104, "Ġclust": 32966, "ĠRec": 3311, "ĠDiamond": 13566, "ĠZin": 36971, "ui": 9019, "Ġaxes": 34197, "Ġmarine": 16050, "ĠAbrams": 32414, "Ġpatron": 19686, "ish": 680, "ĠTent": 30765, "ĠBas": 6455, "Ġstart": 923, "Ġdiscord": 36446, "Ġsque": 35776, "ĠModerate": 43668, "Stand": 15480, "Ġinst": 916, "fn": 22184, "anim": 11227, "icidal": 21488, "ĠAcceler": 29805, "uran": 42211, "Ġtries": 8404, "ĠSanders": 5831, "AP": 2969, "\"[": 17912, "Ġshadowy": 40175, "Ġfalsely": 24566, "ĠFemales": 44727, "rational": 20310, "Ġkh": 44081, "ĠFreedom": 10204, "idepress": 25895, "ĠDestroyer": 30414, "Ç": 131, "ĠFas": 38971, "Ġ338": 40736, "interest": 9446, "Ġattached": 7223, "aila": 39460, "Core": 14055, "ĠFrances": 27025, "Ġchalleng": 4010, "Ġclass": 1398, "Ġrupture": 46836, "Ġserum": 20502, "Ġ##": 22492, "522": 49542, "Ġsilly": 14397, "at": 265, "Ġbarrel": 9036, "Ġ1946": 22717, "rete": 8374, "ĠIsraelis": 21137, "Ġmages": 45520, "ĠOttoman": 34158, "Ġduly": 35489, "clock": 15750, "irst": 667, "Ġhighways": 27239, "odder": 35346, "ĠAch": 26219, "ORS": 20673, "ĠUX": 38179, "ĠAssy": 39881, "ingle": 17697, "Ġunsustainable": 39554, "Ġcollaborations": 48421, "Ġconglomer": 38092, "Ġavailable": 1695, "ĠBIT": 36992, "ĠComcast": 21830, "5": 20, "Ġunde": 44192, "Ġ39": 5014, "mil": 25433, "Ġbrake": 20439, "Ġway": 835, "ma": 2611, "liest": 11318, "Ġfences": 35771, "ĠTribunal": 31189, "Ġpress": 1803, "Ġmessenger": 31228, "ĠStealth": 23293, "ĠPRESS": 44310, "Ġtrump": 19997, "Ġmasc": 23977, "Ġplugged": 30601, "ĠCorpus": 44874, "Ġssh": 26678, "Fox": 19399, "character": 22769, "Ġrecognizes": 21570, "Ġsu": 424, "Laura": 43687, "rily": 28904, "Screenshot": 34204, "tip": 22504, "ronics": 20844, "iol": 1669, "Ġtechnologically": 48299, "Q": 48, "Ġfishes": 49765, "Ġmosa": 39788, "ĠLands": 24182, "ĠChecking": 39432, "ĠNasa": 48673, "iscopal": 42522, "ĠAreas": 38662, "Ġordinance": 19784, "ĠYemeni": 38534, "ĠBarb": 10593, "Ġstudying": 11065, "Ġ1989": 11104, "ĠYorker": 27980, "atherine": 15289, "Ġroar": 34532, "Jon": 18219, "ĠCinnamon": 48932, "Ġ107": 16226, "Ġinvaders": 39417, "ĠMade": 14446, "ĠLIN": 43277, "iminary": 38429, "ĠÎĶ": 37455, "Ġmatters": 6067, "++++++++++++++++": 44627, "Ġtotalitarian": 34524, "ĠRefer": 33973, "Ġzo": 40565, "embedreportprint": 30898, "Ġsuspic": 12486, "amples": 12629, "Ġactress": 14549, "jud": 10456, "row": 808, "pard": 26037, "Ġparty": 2151, "IFIC": 30643, "ĠFou": 34296, "ĠNutrition": 23285, "712": 49517, "oma": 6086, "ĠFavor": 38196, "ĠTs": 13146, "ĠDor": 12528, "io": 952, "pur": 14225, "abil": 14991, "comfort": 21598, "ĠLiverpool": 11761, "Ġoverpower": 42905, "Freedom": 38885, "comm": 9503, "atch": 963, "cult": 40820, "washer": 45146, "Ġelev": 7662, "Ġinfected": 14112, "ĠEither": 15467, "ĠTyrann": 38401, "ĠPE": 18468, "Ġdifferentiation": 32488, "Ġpractice": 3357, "masters": 40706, "Doctor": 37564, "Ġsails": 48370, "Ġtouch": 3638, "Ġhistorical": 6754, "ĠRyder": 40238, "270": 20233, "another": 29214, "ĠDid": 7731, "ĠCanal": 31314, "Ġtelev": 22884, "istle": 12535, "ellery": 41800, "Ġpolicies": 4788, "alli": 36546, "Ġgame": 983, "zbek": 40413, "Ġskeletons": 25612, "Woman": 48081, "Ġscreaming": 14788, "bp": 46583, "Ġarchived": 33962, "ĠWilliamson": 34974, "houses": 20089, "Ġcounter": 3753, "Ġdegradation": 27486, "Ġsensit": 44752, "Ġholistic": 42923, "ĠB": 347, "Ġdeficit": 11807, "ĠOverall": 14674, "aturated": 30192, "Cent": 19085, "Ġaka": 22430, "ĠIdlib": 33254, "etition": 15620, "ĠChill": 38290, "Ġstat": 1185, "Ġsubsystem": 39335, "ĠFlying": 19903, "ĠTick": 46093, "Ġheadlines": 14408, "icity": 8467, "compatible": 38532, "orous": 9610, "Ġstalled": 29759, "Ġambush": 34298, "ĠDaisy": 40355, "yout": 32015, "ĠGarr": 46619, "POSE": 48933, "ĠAlone": 28043, "Ġchemically": 49966, "ĠHik": 39790, "directed": 34762, "ĠSeverus": 41343, "ĠDown": 5588, "Cart": 43476, "ĠRated": 49949, "PD": 5760, "fake": 30706, "ĠBicycle": 48444, "snap": 45380, "agree": 49221, "feature": 30053, "Ġfetal": 27652, "Ġleftist": 28318, "Ġengaging": 11932, "412": 39226, "Track": 24802, "Ġarrests": 14794, "Ġchallenging": 9389, "imble": 34477, "ĠCreated": 15622, "ĠDaughter": 30332, "wd": 16993, "anon": 36902, "Ġretention": 21545, "ĠLuk": 28102, "Ġcondom": 33791, "ĠHendricks": 42476, "daq": 48539, "99": 2079, "Lens": 49479, "ouses": 11370, "Edge": 37021, "Ġsince": 1201, "Char": 12441, "Ġvoucher": 40621, "Ġlining": 20883, "Ġbrute": 33908, "ĠWay": 6378, "atonin": 44248, "ĠLau": 40014, "ĠSupplemental": 48165, "Ġexclus": 10293, "ÑĢ": 21169, "udget": 29427, "lem": 10671, "ĠWo": 22173, "438": 43704, "aque": 18251, "Ġexperiencing": 13456, "clone": 21018, "ĠLegend": 9883, "ĠKane": 20055, "ĠWilmington": 47251, "Ġdesire": 6227, "ĠKay": 17356, "Ġpassion": 7506, "Ġbrain": 3632, "Ġwording": 26814, "Ġsecond": 1218, "Ġphenomenon": 10733, "ĠTuesday": 3431, "Ġmystery": 10715, "Ġresult": 1255, "ampoo": 40239, "Ġmish": 29406, "MX": 43243, "áµ": 39611, "ĠSachs": 25158, "Ġgulf": 41593, "ĠCris": 15088, "Ġinvite": 14037, "quila": 43652, "ĠDisc": 8444, "Ġrift": 36788, "ĠShit": 41356, "Ġmadness": 23208, "Ġmosque": 18575, "Ġglimps": 41226, "/\"": 30487, "ĠMode": 10363, "Ġhappier": 23030, "jer": 44009, "Ġlightly": 15376, "KE": 7336, "Ġcourts": 8028, "Ġbesie": 38128, "Ġmud": 17492, "Ġath": 5782, "three": 15542, "rogens": 48686, "Ġunite": 24558, "Night": 24732, "Ġdownloaded": 15680, "Ġtuning": 24549, "104": 13464, "inho": 20327, "Ġsolid": 4735, "Vol": 16598, "ĠExperience": 16386, "ĠLogic": 30146, "Warren": 43464, "oton": 18970, "Ġsudden": 4802, "ĠTumblr": 24434, "ĠTechnique": 41317, "yne": 39547, "Ġoutburst": 49088, "vous": 31222, "Ġfidelity": 37744, "Ġentails": 35445, "onica": 32752, "ĠBase": 7308, "Ġtiers": 33355, "Ġincentiv": 39678, "Ġprinciple": 7989, "ĠTAMADRA": 41297, "Ġacquiring": 22488, "ĠDalton": 33261, "ĠAlps": 46312, "annot": 34574, "Thirty": 38856, "ane": 1531, "Ġspit": 27591, "Ġexempt": 13068, "Ġexper": 1121, "angible": 39639, "Ġblog": 4130, "session": 29891, "Ġnun": 48157, "Ġtid": 29770, "ĠPhotoshop": 29153, "ĠTHC": 25728, "040": 36676, "Ġcompeted": 32440, "Jar": 47511, "ĠTimeline": 43040, "ĠToro": 42952, "ãĢı": 40549, "Fly": 33771, "ĠFIGHT": 39941, "rawler": 39464, "fect": 2309, "Ġultimate": 8713, "Ġbent": 17157, "Ġprostitute": 37833, "ĠStro": 30183, "Ġcomprises": 28800, "ĠBrave": 22813, "ĠQuarter": 17264, "Ġwoo": 36440, "Ġbound": 5421, "ĠAgenda": 37029, "ĠMEP": 40771, "200": 2167, "Ġredirect": 18941, "ĠHolly": 7764, "ĠBrooks": 17704, "JJ": 32178, "ys": 893, "ĠCarney": 40775, "Ġdecreases": 20638, "Ġblaster": 48131, "medical": 41693, "Ġpinned": 25711, "ĠVaj": 39838, "ĠFixed": 10832, "Ġargues": 11673, "ãģ§": 30640, "antz": 46269, "ĠOrig": 6913, "Ġplent": 38145, "Ġnewspapers": 14741, "Ġpredators": 23311, "ĠMarie": 20492, "anges": 6231, "Close": 26125, "rics": 10466, "ousing": 12752, "Cho": 22164, "Ġpostpone": 47328, "yll": 25727, ":/": 14079, "ollar": 13228, "ĠSAT": 29020, "ĠEngel": 46073, "ĠENTER": 46962, "ĠMine": 11517, "Wil": 22327, "ĠRabbi": 31807, "ĠHarden": 35017, "ĠPositive": 33733, "Ġtakes": 2753, "Ġinsistence": 30696, "ĠPlane": 36829, "ĠManit": 24394, "Ġmisrepresent": 26521, "Ġresponds": 20067, "love": 23205, "Proxy": 44148, "ĠÂ£": 4248, "udden": 16557, "ĠLimbaugh": 43306, "ĠWolver": 26328, "ĠChel": 11425, "ĠEuros": 40745, "gest": 3495, "Ġnons": 14011, "ĠUnleashed": 44747, "adh": 24411, "ĠDah": 44864, "Ġenvironment": 2858, "WD": 22332, "Ġincarnation": 29185, "................": 4181, "Money": 26788, "åĬ": 27950, "here": 1456, "oidal": 47502, "Ġutility": 10361, "casts": 40924, "Ġemulation": 47065, "morning": 43911, "Ġ1862": 49658, "yond": 3243, "Ġunanimous": 28085, "avored": 48275, "resolution": 29268, "ĠPhillips": 17630, "Ġpowerless": 34209, "Ġtin": 19783, "night": 3847, "Ġnoble": 15581, "ĠJen": 13364, "ĠFah": 27361, "Ġunquestion": 38766, "Ġstandby": 42020, "AAF": 38540, "Live": 18947, "ĠDevelopers": 34152, "Ġappar": 17956, "fal": 42932, "ĠdÃ©": 39073, "ĠFE": 18630, "Ġaccording": 1864, "Poor": 43920, "den": 6559, "ĠAnti": 12297, "Ġstatements": 6299, "Ġtipping": 31639, "Ġsalsa": 49529, "Reports": 37844, "aughter": 3637, "fax": 23560, "axy": 6969, "Ġwaterfront": 40250, "ĠClouds": 46298, "Ġrenamed": 25121, "Ġallocations": 49157, "Fram": 21055, "Ġstaggering": 23508, "ĠMari": 29423, "ANCE": 19240, "Ġvi": 25357, "Ġoh": 11752, "Ġfacilities": 7291, "Ġfing": 8038, "Ġ420": 28262, "ĠLogan": 22221, "Â²": 31185, "apon": 9184, "Bad": 22069, "Ġunwittingly": 48726, "ĠLambert": 36978, "Ġdecriminal": 38126, "640": 31102, "rupal": 34585, "158": 21273, "Ġcriticize": 24628, "Ġfootsteps": 27146, "Bel": 12193, "Ġoperators": 12879, "Ġmodulation": 39007, "iless": 30608, "Ġhypers": 45086, "Ġprovided": 2810, "rak": 17716, "Ġpassages": 22674, "Ġcontracted": 23407, "ĠIssa": 47410, "Ġpuzzling": 42695, "Ġdw": 43756, "ĠBarbara": 16685, "iz": 528, "Ġbeneath": 11061, "tre": 33945, "ĠRestaurant": 26078, "ĠBuch": 23670, "aber": 27359, "Ġscaled": 27464, "Ġcaucus": 24402, "Ġpatriotic": 33453, "Ġfive": 1936, "olit": 6212, "Ġsmiles": 21845, "ĠYong": 40633, "ĠRI": 37271, "Ġugly": 13400, "Ġresistant": 18290, "Reading": 36120, "ĠMets": 26053, "Ġ300": 5867, "ĠSil": 4243, "}\\": 32239, "Team": 15592, "ĠDeath": 5830, "Ġransomware": 49134, "wrote": 42910, "Ġstylish": 30511, "oids": 10994, "ĠCurse": 19739, "lets": 5289, "Ġharm": 4419, "Ġadvertis": 23789, "Ġrecreational": 18136, "ix": 844, "ĠDillon": 40057, "rer": 11751, "Ġswear": 21192, "Ġparticularly": 3573, "forge": 30293, "pee": 39463, "Ġ1935": 30704, ">[": 36937, "broad": 36654, "ÂłÂłÂłÂł": 8828, "Ġplacing": 12560, "Neigh": 46445, "Ġcorrelations": 35811, "Ġunlike": 5023, "Ġlikelihood": 14955, "inatory": 23132, "Ġlifestyles": 43644, "ĠTHIS": 12680, "ample": 1403, "Ġpharmacies": 49661, "ĠJak": 25845, "ĠDC": 6257, "ĠGeneric": 42044, "Bra": 42333, "Ġgazed": 50255, "Ġ409": 48132, "eeper": 41278, "ominated": 50251, "Ġshells": 19679, "cious": 4680, "Ġpenis": 16360, "ffiti": 25198, "Ġexhibits": 27508, "Ġ97": 10111, "Ġboots": 14412, "ĠCuban": 18147, "ĠGraphic": 43029, "Ġexhausting": 39663, "Ġclipped": 49305, "estic": 4699, "\"...": 26214, "ĠFigure": 11291, "070": 43509, "Ġundercut": 43726, "oÄŁ": 45492, "âĸ¬": 47530, "ĠEnc": 14711, "ĠBO": 16494, "ĠWash": 22892, "me": 1326, "28": 2078, "ISO": 40734, "Ġwitnessed": 13923, "ĠSkill": 16023, "686": 33808, "Ġankle": 19847, "Ġvariation": 12291, "Ġreturn": 1441, "Ho": 28900, "Ġunavoid": 34804, "mine": 3810, "ĠBever": 22185, "ĠDwell": 42979, "pection": 14978, "Ġtariff": 36427, "ĠHots": 41239, "Ġseafood": 31473, "Aust": 15160, "Johnny": 44960, "ĠCrim": 9822, "secondary": 38238, "Ġabusive": 19546, "Ġbaseline": 14805, "anova": 40993, "Ġburg": 15601, "Ġfacet": 39144, "Mi": 41541, "Ġnever": 1239, "Ġneglected": 24007, "ospels": 41908, "Ġdamning": 36706, "Point": 12727, "ĠGrimm": 27145, "sie": 44524, "ĠContent": 14041, "carb": 35684, "Ġenrollment": 20753, "ÃĥÃĤ": 5808, "Ġunmanned": 35272, "ĠCOR": 23929, "ĠKend": 19274, "Ġoutings": 47280, "Ġcartridges": 37852, "Ġcareers": 16179, "ĠVehicles": 31365, "Ġsing": 1702, "hai": 44488, "ĠCapcom": 35936, "Ġrender": 8543, "Ġunnatural": 33975, "VIDIA": 13171, "Ġreplication": 30330, "Ġaffair": 14669, "stock": 13578, "Ġfigures": 5538, "haus": 30404, "ĠAmes": 46843, "environment": 38986, "ĠPend": 36865, "Ġfiber": 13608, "Ġgrotesque": 40505, "Ġchew": 34722, "Ġsepar": 2880, "Solution": 46344, "rate": 4873, "Capture": 49630, "Mobile": 17066, "heet": 25473, "ĠYs": 43740, "Ġfant": 5113, "Ġfared": 43688, "Ġinsulted": 40102, "Ġveterans": 11255, "Ġpoked": 47320, "Tx": 46047, "Ġperceive": 19973, "Ġendurance": 22965, "fashioned": 28776, "Ġbreathe": 18044, "Ġrecalled": 12433, "Ġquaint": 50127, "ĠDifferent": 20615, "ĠattRot": 35207, "htt": 2804, "lv": 6780, "Ġexpectation": 17507, "Ġsweat": 15488, "Ġappellant": 44975, "ĠCommissioners": 48053, "Ġmars": 48962, "Ġexhibiting": 46017, "ĠWall": 5007, "Ġlamented": 40176, "ĠKat": 8595, "969": 38819, "352": 33394, "izz": 6457, "Ġsto": 3995, "ĠNak": 22255, "EY": 22348, "sid": 30255, "herer": 48386, "Ġtown": 3240, "Ġbriefs": 50011, "Ġexcited": 6568, "ĠexternalTo": 30208, "ASON": 36033, "Ġextensions": 18366, "160": 14198, "ĠSays": 28628, "ĠRicky": 31668, "ĠPal": 3175, "Ġunsurprisingly": 49619, "lot": 26487, "ĠTob": 13695, "********": 4557, "hops": 21936, "Brend": 48015, "iry": 9045, "Ġ264": 32158, "vic": 25531, "ATION": 6234, "crow": 47114, "ĠSkydragon": 38250, "Ġdisabling": 34909, "Ġmatchups": 32033, "ĠBaghdad": 19761, "nm": 21533, "Ġgrowth": 3349, "thodox": 12836, "zig": 38262, "Ġreunited": 35440, "Ġoutcry": 34334, "Ġmorph": 17488, "vernight": 47443, "Update": 10260, "Ġlawsuit": 8087, "ĠCabinet": 20384, "Ġwiring": 29477, "Ġfabrication": 38876, "ĠMagicka": 44546, "Ġdirectories": 29196, "Ġknots": 33620, "ĠProf": 4415, "ĠLans": 34176, "alloween": 50107, "Ġ___": 46444, "Ġcookie": 19751, "Works": 23044, "ICE": 8476, "ĠBringing": 48985, "ĠPhase": 18983, "Ġknob": 36842, "ĠMilk": 24796, "Ġ502": 47233, "rolog": 40329, "Ġstud": 941, "Ġadults": 6490, "licts": 42267, "ĠTar": 14110, "Ġamygdala": 44562, "Ġnecks": 44184, "ĠCind": 24445, "lived": 24489, "Ġcat": 3797, "Recently": 24661, "Ġcones": 47314, "Games": 24474, "Ġeleven": 22216, "Ġalum": 46518, "Ġinver": 40631, "Ġcyn": 19768, "Ġtorment": 33378, "Image": 5159, "ĠFilms": 30198, "ĠOut": 3806, "adden": 38014, "Ġstd": 14367, "Minecraft": 39194, ".\"": 526, "ĠRandom": 14534, "ĠDiversity": 36188, "Ġborrowers": 31617, "Ġaccusations": 14227, "ĠGarden": 11652, "ĠPolly": 36898, "Ġafar": 44246, "Ġregretted": 44652, "Ġabortions": 19985, "ĠForum": 14867, "Ġmediation": 41077, "Ġplasma": 16074, "Ġseat": 5852, "Ġopenness": 30913, "ĠProblems": 32093, "Ġvibrant": 21266, "Ġmurdered": 12864, "ASY": 26483, "ĠComing": 21808, "ĠBorn": 18889, "ĠAlice": 14862, "hart": 18647, "stic": 11268, "ymes": 22009, "238": 23721, "Ġbloated": 45709, "Ġpenetrating": 41456, "Ġcannabin": 30716, "Ġ52": 6740, "Ġpricing": 13045, "ĠGent": 27391, "Ġmostly": 4632, "Ġimb": 33966, "Ġtease": 34691, "Ġraiding": 48717, "nr": 48624, "ĠDoesn": 28048, "study": 44517, "intage": 14630, "Ġroutine": 8027, "Ġcritical": 4688, "ĠRou": 13876, "lev": 2768, "centered": 38050, "Ġhen": 30963, "Ġwasteland": 46045, "minute": 11374, "ĠEnd": 5268, "ĠCustoms": 23888, "leground": 28272, "ĠSchr": 49871, "Ġvault": 22563, "Ġpipelines": 31108, "ĠNewsletter": 35798, "Ġeconomics": 12446, "OSH": 45704, "ĠBreast": 37476, "Ġparas": 17850, "Ġtakedown": 33341, "develop": 16244, "Ġspeaks": 9209, "122": 18376, "Accept": 38855, "Critics": 36623, "orians": 45825, "aths": 33148, "ĠMarkus": 46013, "ĠCath": 6250, "Ġilleg": 4416, "ĠWindows": 3964, "ĠKorea": 4969, "Ġredeem": 26509, "Dan": 21174, "ĠLightning": 12469, "Ġdepths": 21593, "Want": 19633, "orem": 29625, "Ġtheory": 4583, "hover": 43753, "hetti": 33392, "irement": 24615, "ĠHornets": 38602, "ĠHunter": 9055, "ĠFemale": 15396, "uffy": 15352, "cl": 565, "Ġpulling": 10427, "Ġlodged": 31984, "031": 43637, "1920": 40454, "Ġscans": 23824, "Ġplaza": 42433, "ĠCHO": 49143, "ĠReconstruction": 45060, "ĠGreenpeace": 42793, "ĠArabian": 33081, "Ġobscured": 40157, "Ġrevers": 10372, "Ġcamoufl": 31962, "Ġscrutiny": 14521, "iors": 12706, "ĠWait": 16314, "soever": 15485, "ital": 1287, "duration": 32257, "Ġdexterity": 50003, "ĠTYPE": 41876, "Ġunrel": 23232, "Ġprobing": 41034, "ĠDin": 23448, "from": 6738, "Chapter": 14126, "struction": 15019, "chief": 17351, "ighed": 12570, "bones": 35095, "perature": 21069, "olls": 33421, "Ġpractically": 14547, "Ġaccelerating": 32253, "Ġsurvived": 11803, "Frame": 19778, "ĠMachina": 36781, "ĠHak": 24734, "Ġdismay": 29793, "ĠInvestig": 16203, "Fab": 43957, "ima": 8083, "Ġcharismatic": 34996, "Ġfiction": 10165, "hate": 37035, "ĠCircuit": 13588, "opsy": 44522, "Ġlvl": 33309, "Synopsis": 49771, "Ġannotations": 37647, "ĠPatterson": 27042, "ĠOf": 3226, "Ġnort": 17605, "ĠMillions": 39830, "spons": 20587, "ĠBetween": 14307, "intendo": 8773, "ĠOF": 3963, "Ġrpm": 37542, "ued": 1739, "ĠSark": 36518, "ĠDund": 37921, "ĠObesity": 41936, "Ġrant": 30993, "ĠEarn": 22535, "Ġchronological": 45946, "Ġgrinning": 45702, "olated": 50027, "Ġapples": 22514, "onym": 5177, "Ġkinds": 6982, "ĠSecond": 5498, "Ġtomato": 24240, "Ġsugars": 34476, "LV": 30976, "Ġmun": 29856, "HTTP": 40717, "ĠOracle": 18650, "Ġactu": 43840, "NES": 37379, "ĠCrab": 32379, "ĠAction": 7561, "Ġflood": 6947, "Ġdull": 19222, "579": 41734, "Ġcafe": 26725, "ĠGustav": 43715, "=-": 10779, "idd": 1638, "ocard": 44412, "ĠFletcher": 31942, "ĠBoy": 6387, "åŃ": 27764, "Ġaccredited": 37237, "}": 92, "ĠBerm": 36967, "ĠBottle": 33608, "Ġhospitalized": 31736, "Ġlarg": 2552, "ĠSi": 15638, "Ġwhence": 44012, "Ġsuspension": 11461, "ĠUE": 27595, "Ġrecol": 26330, "Ġmultit": 41785, "Ġinfiltrate": 42111, "ĠFri": 19480, "ĠPlanning": 21913, "Ġlou": 21081, "led": 992, "ãĤ¯": 14099, "ĠHI": 36210, "Ġsponsoring": 42569, "Ġreputation": 8507, "rep": 7856, "Ġlegalized": 33071, "Ġplastic": 7309, "ARDS": 48294, "Ġhon": 3032, "$": 3, "ifts": 19265, "ĠFuture": 10898, "Ġwhom": 4150, "ĠGrimoire": 43077, "istan": 4103, "Ġdifferences": 5400, "romising": 47112, "anyl": 34816, "ĠINST": 40589, "confidence": 39745, "artz": 13636, "male": 22606, "Ġcelebrated": 13943, "mem": 11883, "ĠYankees": 20082, "ĠBowen": 46977, "Ġsecure": 5713, "Ġsaw": 2497, "ietal": 21587, "Ġconsolidate": 38562, "Ġstructural": 13204, "ĠTeam": 4816, "Ġdepiction": 33016, "ĠLash": 47137, "Ġmoment": 2589, "Ġherpes": 45287, "crew": 42276, "ich": 488, "Ġelf": 23878, "Ġsubmitting": 24353, "ĠTir": 39847, "ĠATP": 39046, "ĠDispatch": 35934, "chain": 7983, "Ġruns": 4539, "Ġbul": 4807, "rice": 20970, "dds": 33714, "Ġimage": 2939, "Ġmentions": 15802, "Ġexclaim": 48775, "Ã¸": 24172, "Ġmult": 1963, "Ġgrown": 7334, "Ġcheapest": 28918, "Ġmis": 2984, "dk": 34388, "cknow": 5319, "ĠVs": 31280, "ĠLevant": 42607, "Ġnarratives": 26274, "Ġpe": 613, "Ġwarned": 7728, "ĠDreams": 21527, "Ġestablishes": 30742, "Ġinterrupt": 11313, "1": 16, "ĠRik": 50067, "ĠNile": 38063, "Ġtoday": 1909, "Ġpiss": 18314, "Versions": 45150, "assador": 10623, "Ġoverfl": 32876, "ĠGrimes": 49462, "ĠParaly": 47552, "Gov": 23774, "Ġuntil": 1566, "cons": 5936, "Ġpsychiat": 19820, "Ġregulatory": 11344, "ĠAbsolutely": 28416, "ĠSquid": 48799, "Ġemployed": 9322, "Ġrefurb": 37969, "ĠFI": 18930, "ĠSix": 9699, "hound": 39047, "Ġcater": 20825, "ĠAlright": 40967, "ĠSeventh": 31848, "683": 47521, "Ġcinnamon": 29181, "âĪ": 24861, "Ġgardening": 46072, "HR": 17184, "ĠNight": 5265, "ĠIng": 17589, "Ġjailed": 22159, "ĠRecently": 23413, "ĠSpending": 43902, "ĠAtl": 5234, "132": 19924, "Ven": 37522, "Ġdiscreet": 38724, "ĠAustria": 17322, "Ġrestricting": 28267, "GH": 17511, "ĠWelfare": 32404, "Ġeasiest": 16638, "arde": 45093, "Ġtour": 4205, "Ġsettle": 12259, "Har": 13587, "zzo": 47802, "icist": 48187, "ĠHispan": 13600, "Global": 22289, "Ġrecipes": 14296, "-\"": 21215, "Ġlighthouse": 46371, "+(": 33747, "ĠIr": 5686, "Dex": 48875, "onduct": 12920, "Ġhygiene": 33306, "ason": 888, "Emily": 48640, "Ġpresenting": 17728, "Ġinfer": 13249, "ĠDrupal": 40452, "Ġfilling": 12591, "Ġbasal": 41202, "ĠSullivan": 18501, "Ġyield": 7800, "ĠGerry": 42196, "ĠRasmussen": 46549, "?ãĢį": 42943, "initialized": 17532, "ĠVanguard": 31507, "square": 23415, "Ġcouncils": 27174, "×": 147, "ĠPulse": 25062, "callback": 47423, "Ġsnake": 17522, "ald": 1940, "Ġcontends": 33799, "ĠFl": 1610, "bringing": 35749, "Ġ314": 34085, "Ġvirtue": 14675, "Ġrepentance": 45893, "Ġejac": 39426, "Ġe": 304, "Ġreports": 3136, "Sol": 36949, "Ġforgive": 20927, "Graphics": 18172, "Ġerg": 39035, "Az": 26903, "utions": 3508, "Ġfilibuster": 38940, "Ġyoga": 20351, "Ġfragment": 24225, "usk": 17990, "ĠVariable": 35748, "unny": 16948, "ĠAlexand": 21000, "ē": 207, "ĠReps": 47421, "Ġdeploying": 29682, "ĠlargeDownload": 42728, "Ġhere": 994, "Ġsurprise": 5975, "artist": 49016, "Ġoil": 3056, "/#": 31113, "Ġ1975": 15231, "Ġcavalry": 30891, "hemoth": 34394, "Ġelectric": 5186, "Ġcarniv": 41919, "ĠVerizon": 18062, "Ġprinters": 34654, "atson": 13506, "river": 38291, "rehensible": 34718, "Ġbanners": 31931, "hour": 9769, "luence": 23079, "Mob": 44702, "Ġblacklist": 38810, "æĹ": 33768, "aryl": 36822, "Ġrestless": 42537, "Ġ60": 3126, "quiet": 39624, "ĠNav": 13244, "ĠAvatar": 26703, "Make": 12050, "ĠGod": 1793, "Ġicon": 7196, "Ġseem": 1283, "Ġmurm": 38023, "Ġperl": 48746, "inct": 4612, "Ġdestroys": 27838, "ĠFrog": 28328, "496": 37747, "ĠViz": 36339, "Ay": 42012, "ĠRedskins": 22038, "Ġedges": 13015, "Ġreflective": 28962, "Ġrid": 5755, "actory": 9548, "ĠParamount": 38153, "ĠJoy": 14087, "ĠXia": 22450, "ALL": 7036, "image": 9060, "Ġfibers": 26742, "Ġsomebody": 8276, "ĠCox": 18014, "ĠClim": 28573, "reset": 42503, "powers": 30132, "AH": 18429, "uum": 13814, "Package": 27813, "ĠVanity": 46584, "ĠArchdemon": 44555, "aqu": 36129, "trans": 7645, "æ©": 43897, "arity": 6806, "Ġcock": 7540, "attering": 16475, "ĠGrac": 38099, "Ġsurprised": 6655, "ashtra": 38535, "listed": 17935, "Ġ426": 48065, "lock": 5354, "EFF": 37267, "ua": 6413, "ĠMbps": 41022, "ĠIM": 8959, "Ġbottleneck": 49936, "Ġ402": 42622, "oka": 17411, "ĠShaman": 34805, "Ġide": 1405, "Ġdropped": 5710, "Alternatively": 44163, "Feed": 18332, "ĠLockheed": 34238, "¥µ": 35069, "Ġcentral": 4318, "ĠRecon": 23419, "Ġoutfield": 28307, "ĠLatino": 20496, "ĠXiao": 28249, "ols": 10220, "ĠCome": 7911, "ĠGabe": 45513, "innon": 45067, "Ġ29": 2808, "Ġvac": 6658, "Ġupl": 28996, "ordan": 7350, "ĠDudley": 37198, "Ġrelapse": 47861, "ĠStructure": 32522, "ĠPorts": 30824, "Ġtutor": 48680, "Ġmainly": 8384, "ĠCro": 9325, "Ġdiffuse": 42864, "Karl": 46063, "grey": 49502, "Ġjaw": 19218, "Ġspecimens": 27569, "ĠNYT": 47243, "upon": 27287, "Ġdrunken": 26680, "Stats": 29668, "gender": 8388, "Ġenforced": 20326, "Ġsmells": 25760, "Ġplumbing": 40199, "Pref": 36698, "Ġjournalism": 14033, "ĠCould": 10347, "ĠClifford": 43159, "ĠTweet": 18752, "258": 25600, "ako": 25496, "ooth": 5226, "ĠUri": 46688, "country": 19315, "sheets": 42011, "Ġlegislators": 19964, "Ġinstructed": 17767, "Arizona": 40732, "ĠRig": 24666, "Ġaerial": 17789, "Ġabused": 15519, "ä¹ĭ": 45298, "ĠBroken": 22607, "Ġgeometric": 38445, "eeks": 32201, "disabled": 47730, "\").": 11074, "ĠOD": 31245, "ITED": 22061, "Ġreeling": 45341, "Ġexpects": 13423, "Ġadequately": 22668, "pas": 44429, "itches": 9249, "ĠDirectors": 29200, "Ġrobber": 29979, "hare": 43466, "ĠDug": 27436, "TV": 6849, "ĠLOW": 46663, "023": 45310, "Ġcrawled": 45668, "Ġ][": 41832, "third": 17089, "Ġmanufacturing": 9138, "Ġdisorderly": 46191, "nee": 21381, "February": 21816, "manent": 44172, "ĠWhy": 4162, "Ġboarded": 35032, "Ġclinics": 21434, "Ironically": 44850, "eking": 18754, "Ġnoises": 26782, "uttering": 33598, "TPPStreamerBot": 37579, "ĠGNU": 22961, "ĠUb": 12021, "ĠAG": 13077, "ĠRamsey": 30552, "Ġtraps": 20348, "arg": 853, "ĠAES": 34329, "ĠExplain": 48605, "Skip": 50232, "Ġsafegu": 17937, "lying": 3157, "ĠBulg": 37957, "),\"": 27267, "urious": 16421, "alsh": 22114, "osaurs": 22344, "Parser": 46677, "ĠCongo": 25935, "Ġunman": 29389, "Ġsurviv": 10132, "Ġsubp": 22718, "Ġextravagant": 45997, "OT": 2394, "ipples": 27844, "otonin": 29613, "ĠEnter": 6062, "ĠBle": 17175, "Roy": 32027, "Ġbra": 8290, "Ġwrapper": 29908, "Ġhouses": 7777, "Ġover": 625, "Ġphysics": 11887, "Ġsquat": 22713, "ĠINFORMATION": 38044, "ĠQing": 28927, "osp": 2117, "Ġbroadcaster": 26661, "Ġgambling": 19029, "ĠSam": 3409, "Ġthread": 4704, "ĠMeadow": 43868, "Ġvitro": 30590, "///": 20379, "cli": 44506, "Ġcaught": 4978, "including": 8201, "lies": 13508, "Ġparentheses": 46672, "ĠPesh": 39654, "ĠJiang": 32294, "Ġsubjug": 43629, "oro": 16522, "VALUE": 39488, "prisingly": 20859, "ĠPleasant": 35469, "Ġsne": 10505, "ĠGREEN": 47606, "Ġresidents": 5085, "Ġimperfect": 23162, "Ġtrunk": 21427, "serving": 31293, "ĠHonolulu": 43296, "Ġsubmerged": 37930, "onde": 14378, "Ġmammal": 46103, "Ġaspiring": 31483, "Ġcryst": 17787, "appers": 46629, "Ġundermines": 37001, "Ġexecut": 3121, "Ġrhetorical": 38505, "Ġundead": 26805, "ĠBuddhism": 25932, "Ġloan": 8063, "ogh": 46664, "qt": 39568, "pop": 12924, "ommel": 48990, "ĠPLAY": 28180, "Ġhippocamp": 28253, "Ġexacerbate": 49522, "una": 9613, "cre": 7513, "search": 12947, "Ġbuffer": 11876, "Ġbeneficial": 13205, "ĠLGBTQ": 25172, "Calling": 48593, "terior": 14172, "Ġdesc": 1715, "Ġseparating": 27259, "Ġquotation": 35777, "Ġstrawberries": 36973, "Ġtheorists": 33142, "ameda": 49637, "ĠCultural": 23897, "Keith": 46868, "ĠWiley": 43424, "ĠShall": 38451, "Soviet": 40408, "ĠWelcome": 19134, "Ġdrums": 24730, "ĠGG": 37442, "cv": 33967, "Ġsavvy": 32800, "Ġstrat": 25369, "Ġsomeone": 2130, "ĠAmount": 26308, "PLAY": 31519, "Ġdisag": 7969, "ĠOrb": 15839, "1960": 38503, "Ġpipeline": 11523, "claim": 6604, "Ġrighteousness": 33738, "Ġcasts": 26217, "end": 437, "Ġsuffered": 6989, "Ġprevailing": 26602, "Ġlinking": 17795, "Ġboolean": 25131, "ĠGU": 19348, "Ġblurred": 38258, "onew": 44181, "ĠAlger": 26832, "Ġrecorder": 38156, "Ġdatasets": 40522, "ĠDifferences": 41937, "Ġaffects": 10975, "ite": 578, "Ġconfigure": 17425, "Ġhybrid": 14554, "Ġclaimed": 4752, "uddy": 21584, "Ġslang": 39306, "ĠHPV": 32395, "Ġworst": 5290, "Ġmalice": 41962, "Ġrou": 13805, "ĠLynch": 16093, "Res": 4965, "password": 28712, "Ġsustainability": 26809, "Ġimportantly": 11003, "atchewan": 29736, "Tok": 19042, "³": 111, "aters": 8605, "Ġbasement": 17012, "hum": 17047, "inline": 45145, "ĠLemon": 27252, "165": 20986, "Ġnerv": 8660, "ĠOper": 6564, "ibur": 38616, "ĠCandle": 44973, "Pic": 39507, "Ġfilmed": 18976, "girlfriend": 45189, "ĠIsraeli": 6085, "ĠElijah": 38646, "Ġradar": 13428, "Ġfaith": 4562, "oler": 13625, "ĠPhi": 47256, "Ġcostume": 16569, "nce": 1198, "ĠVoters": 35689, "Ġcouples": 11886, "ĠSochi": 37126, "equ": 4853, "visual": 41464, "Ġfrustrating": 16655, "stros": 48288, "Ġprocure": 23364, "Ġrefuted": 49402, "ĠLakes": 24153, "Ġgang": 7706, "ĠMahmoud": 38554, "Ġâľ": 14519, "×Ļ": 25529, "ilty": 6267, "ĠCLASS": 42715, "Ġgems": 23685, "Ġexcessive": 13181, "Ġacre": 31244, "Ġperpetrator": 33599, "assian": 46091, "Ġ666": 43364, "roph": 10051, "kins": 5331, "ĠAlam": 41514, "phal": 27451, "Ġtiming": 10576, "ĠGone": 26893, "Ġgp": 27809, "ĠSyrians": 26648, "itions": 1756, "ĠLH": 49730, "Ġprox": 14793, "packed": 34860, "Population": 45251, "ript": 1968, "Ġtipped": 28395, "inger": 3889, "atin": 10680, "endum": 43755, "Ġlinen": 41822, "lopp": 39590, "ĠÂ¶": 30581, "ĠMobility": 34505, "Allow": 35265, "Ġslur": 40066, "fil": 10379, "Ġseemed": 3947, "Ġamused": 36979, "rians": 19151, "oxic": 18047, "Ġmansion": 24141, "Ġrot": 5724, "ĠFunny": 40473, "Ġoverly": 17698, "ernal": 35220, "Ġbruising": 45468, "Ġhosts": 11453, "ĠGarc": 16364, "Ġabsor": 8256, "Ġeuph": 40381, "Ġsignings": 42113, "Ġsuffers": 21046, "Sup": 40784, "Ġpneumonia": 35647, "ĠSheep": 35418, "ï¸": 35266, "Ze": 36056, "entin": 31371, "ĠSpur": 47788, "ĠRepair": 28912, "Ġdinner": 8073, "defined": 23211, "Ġfumble": 41405, "Ġactivism": 23034, "ĠPolish": 15945, "ĠPuerto": 15295, "Ġtabl": 36148, "Ġpadded": 44582, "Ġrecapt": 36791, "572": 48724, "ĠCasino": 32802, "Ġbathing": 39153, "ĠCAR": 17368, "Ġshortstop": 40388, "Ġrumors": 14923, "introdu": 27427, "Ġcriteria": 9987, "limit": 32374, "ĠAppalachian": 45375, "Ġcom": 401, "ulation": 1741, "ĠSuff": 24974, "ĠUtah": 10202, "VS": 20304, "Ġflashed": 30050, "Hur": 42633, "Ġdestroyer": 41056, "Ġhonoured": 45870, "ĠContinue": 10054, "Ġteleport": 32713, "ĠReign": 29297, "atinum": 16881, "ieval": 14671, "ĠGlobe": 18260, "winter": 40078, ").\"": 21387, "unt": 2797, "ĠFree": 3232, "IC": 2149, "ĠstrutConnector": 50009, "Ġad": 512, "Ġgangs": 22561, "ĠOptim": 30011, "Oracle": 48625, "Ġfend": 41229, "Ġvampire": 23952, "Ġbore": 18631, "ĠNicholson": 40365, "matched": 31409, "Ġmenacing": 39579, "ĠHorus": 29698, "Ġsoak": 33182, "roy": 3287, "ĠBent": 20421, "Ġaliases": 47217, "chains": 38861, "ĠSpart": 20711, "ĠLuxem": 29017, "uine": 8327, "ĠLead": 20116, "owan": 45197, "minded": 14543, "ĠPotential": 32480, "Ġ225": 18500, "145": 18781, "Ġgenerator": 17301, "ĠBows": 31417, "ĠFactors": 41140, "Ġencamp": 48020, "fs": 9501, "not": 1662, "sm": 5796, "Ġnonetheless": 19018, "Exactly": 47173, "Remember": 16676, "Ġming": 42434, "ĠWik": 11145, "ĠWalls": 40699, "ĠFew": 20463, "umbn": 10269, "mobile": 24896, "ĠLing": 25116, "Ġfrightened": 24776, "Within": 22005, "Perhaps": 13710, "797": 44673, "ĠSlave": 38795, "ĠReserv": 40425, "canon": 49883, "ĠCentre": 9072, "Ġexplored": 18782, "vae": 33353, "Ġ1903": 41625, "378": 30695, "Example": 16281, "Ġext": 1070, "ĠRatings": 36826, "Even": 6104, "Ġrare": 4071, "ĠKirk": 13855, "Ġmotivation": 14052, "Ġhunters": 21490, "ĠSteam": 9094, "ursday": 3479, "Ġvic": 20429, "Ġcalculation": 17952, "BY": 17513, "Ġgrin": 16770, "Ġscrambled": 34351, "Ġdispatch": 27965, "Ġattempt": 2230, "485": 32642, "ĠLater": 11450, "ĠLab": 3498, "osion": 18442, "Financial": 43621, "Ġprogressive": 10393, "Ġgroundwater": 34573, "Ġthicker": 29175, "Wra": 36918, "M": 44, "ĠOrwell": 32226, "Ġcrystal": 15121, "Ġunsub": 32793, "Ġ///": 34013, "ury": 1601, "ĠEmer": 10320, "Ġingenuity": 45207, "Ġjur": 8174, "Ġmove": 1445, "Ġforests": 17039, "ĠProper": 45989, "Ġwives": 17743, "Ġanonymously": 35373, "Ġsubscribe": 12383, "meta": 28961, "Ġpairs": 14729, "ivering": 35598, "Ġinmates": 16831, "Ġinstrumental": 21543, "relative": 43762, "Ġrhetoric": 13214, "å¸": 30585, "Ġcheckpoint": 26954, "Ġration": 36535, "ĠMurray": 12164, "told": 44040, "Ġidiot": 22324, "Ġfocus": 2962, "sonian": 35202, "year": 1941, "Ġ267": 37364, "Autom": 38062, "ewski": 46151, "Ġleftists": 45224, "Query": 20746, "Ġsorts": 10524, "Ġinfrastructure": 6884, "ĠTRA": 29125, "ĠMARK": 39641, "Ġcac": 40428, "Ġemailed": 24315, "ĠJazeera": 32409, "ackets": 25180, "ĠCanary": 50206, "Ġdispose": 34291, "Ġinstruct": 5048, "ĠIDF": 33389, "Ġtutorials": 27992, "ĠEpisode": 7922, "Ġpresiding": 44851, "ĠArts": 11536, "Ġexceptional": 15313, "Ġbackbone": 32774, "ĠProduction": 19174, "afi": 19910, "incre": 24988, "Ġprotected": 6861, "Orig": 11610, "actly": 24342, "ĠDame": 20377, "Ġstricken": 47455, "Â±": 22519, "ĠSHE": 48052, "ĠBlog": 14001, "complex": 41887, "Ġ361": 47744, "iership": 36689, "Introduced": 37143, "Ġadvent": 19980, "mer": 647, "boot": 18769, "753": 44550, "Ġmicrow": 23479, "Ġsparse": 29877, "high": 8929, "Ġcontemporary": 11811, "Catal": 39075, "ĠAlison": 33629, "193": 24943, "Ġrobotic": 25810, "05": 2713, "ĠCirc": 7672, "Ã³n": 18840, "Ġqui": 45567, "Tw": 5080, "Ġabandon": 6871, "bole": 45693, "ĠYas": 25957, "Ġperceived": 11067, "ĠBS": 24218, "ĠRifle": 19685, "ĠUnion": 4479, "Ġrough": 5210, "Ġsites": 5043, "ĠControlled": 43253, "iak": 32994, "peria": 38032, "ĠHes": 44773, "Ġrefer": 3522, "Ġunderwear": 26170, "ĠDenmark": 16490, "abet": 8380, "ĠTide": 31105, "anticipated": 45178, "ĠTrafford": 41107, "acebook": 2887, "TER": 5781, "Ġeditor": 5464, "ĠLauderdale": 45577, "Ġspec": 1020, "ectar": 44504, "Ġimpress": 14947, "Ġpossession": 7797, "Ġrituals": 25797, "Ġaccessibility": 28969, "iod": 2101, "ĠYon": 46340, "aut": 2306, "ĠAttorney": 8123, "ĠCourtney": 36677, "ãĤ¡": 25362, "Neil": 29354, "Ġdemonstrators": 25016, "Ġfluid": 11711, "akers": 3979, "Ġacupuncture": 48647, "Ġchat": 8537, "ĠCalais": 48025, "Ġdefends": 33446, "Rev": 18009, "uppet": 44933, "Ġdining": 17423, "Ġemphasized": 20047, "Ġ327": 36203, "ĠUnivers": 26986, "ĠMason": 14737, "char": 10641, "Ġexpiration": 28385, "Ġcome": 1282, "Ġ303": 30727, "attribute": 42348, "Ġtransport": 4839, "Ġinvestigates": 44846, "Ġ460": 34091, "Ġcontiguous": 48627, "iddle": 2509, "ĠTit": 7659, "Ġmosquito": 35446, "yright": 4766, "ĠTowards": 49953, "ffield": 31374, "Ġfairness": 22692, "ĠVideo": 7623, "ultan": 30454, "Ġpreparation": 11824, "ĠMDMA": 34883, "ĠTown": 8329, "Gab": 46079, "ĠPain": 15627, "Ġlooph": 24307, "ĠSort": 33947, "Charges": 36970, "iblical": 16897, "Ġlord": 15876, "Ġrespiratory": 22949, "ĠFees": 37691, "asty": 7833, "votes": 29307, "Ġstorefront": 45527, "Ġmanip": 7704, "Exception": 16922, "Ġinaccessible": 40604, "Ġair": 1633, "ĠSongs": 31772, "ĠYam": 14063, "izu": 47775, "Ġgall": 7976, "With": 3152, "Ġhalt": 17369, "Ġcollapsed": 14707, "cko": 37549, "Tact": 45803, "ession": 2521, "figured": 46296, "Ġsize": 2546, "ĠExplan": 50125, "verbs": 46211, "olas": 12456, "Ġreducing": 8868, "ĠBattery": 23490, "Ġwor": 476, "attr": 35226, "ĠJade": 23386, "576": 37452, "Ġinterpersonal": 43146, "ĠGhost": 9897, "ĠAdvice": 42708, "Ġfem": 2796, "ĠShe": 1375, "21": 2481, "Ġcoincided": 41085, "Ġcasually": 27793, "Ġreached": 4251, "Ġsuggestive": 42789, "Ġbrewing": 21778, "Think": 22073, "esm": 45798, "BILITY": 25382, "ĠIslanders": 32868, "umers": 31260, "Ġbene": 10004, "QU": 10917, "Ġunint": 17679, "Ġrebell": 17203, "weapon": 28741, "Ġpat": 1458, "Ġcomplement": 16829, "ĠBhar": 33653, "Ġturbulence": 47741, "Ġinfl": 28472, "ĠDK": 32975, "ĠDG": 46133, "Ġtoo": 1165, ".........": 34617, "ĠKh": 5311, "ĠIndust": 9054, "Add": 4550, "PG": 6968, "errilla": 31859, "Ġfisheries": 41440, "gem": 24090, "\":[\"": 26358, "ĠMaul": 40580, "\"": 1, "âĸĪâĸĪ": 9968, "Ġvag": 14334, "Ġenthusiasm": 17131, "Ġ1863": 47072, "Ġdrank": 24070, "Ġunderside": 44929, "Mix": 35608, "Ġ.\"": 22135, "Ġgoof": 31644, "icals": 20155, "ĠCarm": 17998, "DOM": 39170, "ĠHeart": 8894, "Ġproject": 1628, "itures": 20686, "Ġstealing": 16568, "ĠInstallation": 32588, "Ġtemplate": 11055, "Ġ1880": 34865, "ĠBachelor": 33399, "Ġpraising": 33557, "Ġcyl": 17327, "Ġsusceptible": 22084, "ĠHarris": 10026, "Ġconduc": 45201, "Ġappendix": 43600, "ĠReader": 25342, "Ġassertions": 29965, "Ġunderscore": 44810, "rick": 5557, "ĠAlabama": 9266, "ilateral": 14796, "outs": 5269, "×Ķ": 38269, "gan": 1030, "411": 42224, "Ġaccordingly": 16062, "Ġpreventive": 37197, "<|endoftext|>": 50256, "Robin": 40656, "Ġdiscipl": 8311, "concert": 48415, "Ġinto": 656, "Ġpotato": 21219, "Ġthreat": 2372, "Ġsoil": 9260, "Ġ342": 44341, "Ġeyed": 45320, "ĠMVP": 12742, "å¤§": 32014, "Copyright": 15269, "Ġrefill": 47539, "aco": 10602, "child": 9410, "Ġtransl": 4779, "ĠHarlem": 39735, "Ġbelong": 5594, "Ġcoordinates": 22715, "ĠDetective": 20220, "''''": 39115, "fts": 35594, "Ġ164": 25307, "Ġdiving": 23186, "Ġamassed": 39025, "Ġ---": 11420, "ĠDuff": 50209, "Ġspanning": 32557, "Ġgearing": 40592, "Ġgmaxwell": 31886, "ĠPieces": 44676, "Ġcheering": 29732, "Ġcounterparts": 16054, "ĠGiant": 17384, "icient": 11373, "alus": 46781, "ification": 2649, "Ġlessen": 40856, "Leon": 36185, "ĠRodgers": 19947, "Ġ57": 7632, "ĠWordPress": 22477, "Ġjan": 42897, "But": 1537, "Ġprobes": 33124, "MSN": 30295, "ulkan": 31263, "pub": 12984, "Ġsection": 2665, "mr": 43395, "Ġschool": 1524, "ific": 811, "Dro": 35442, "boys": 13202, "Ġdisciplinary": 24737, "FK": 26236, "Ġer": 1931, "Ġmailed": 37789, "Talk": 25685, "Ġbeautiful": 4950, "Ġdelegation": 22635, "Ġlaboratory": 14010, "ĠSh": 911, "Ġhastily": 37205, "Ġpric": 38151, "ĠOmaha": 37053, "Ġinsect": 12833, "ĠClarke": 19635, "cy": 948, "ocom": 42829, "umes": 8139, "Ġwould": 561, "Beginning": 45198, "Ġdiscour": 15117, "Åį": 13090, "ĠAPP": 43504, "Ġporn": 8483, "Ġlace": 35938, "www": 2503, "Raw": 27369, "Ġrepresentative": 8852, "ura": 5330, "atisf": 17403, "ĠMÃ¼": 40790, "Bright": 41267, "ĠLyons": 43728, "Ġcrisis": 4902, "Ġub": 20967, "ĠAph": 47067, "Ġinterpreter": 28846, "oute": 13192, "ĠUtility": 34030, "Ġcoaster": 42450, "Ġfoam": 19828, "Ġlimbs": 21755, "ĠTyph": 27282, "ĠFlint": 21660, "Ġcame": 1625, "ROM": 33676, "Wheel": 45307, "Ġrealize": 6537, "Kind": 35854, "ĠHelic": 48574, "mire": 47004, "Ġcuriosity": 20136, "Ġ333": 23460, "Ġurge": 14960, "Ġgreet": 12589, "Ġtreacher": 32550, "Ġhypothesized": 43714, "ĠReplay": 23635, "ĠNicholas": 20320, "ĠConj": 37587, "Ġdebated": 24594, "Ġmeasurable": 40757, "goo": 42469, "ĠIngredients": 33474, "Ġbuckets": 38674, "80": 1795, "Ġirritation": 35164, "Ġintervals": 20016, "ees": 2841, "N": 45, "Tile": 35103, "ĠTerminal": 24523, "ansk": 34738, "Ġluc": 17115, "BR": 11473, "Ġcoupling": 40204, "Ġevenly": 21894, "they": 9930, "Ġunle": 15809, "Ġliberation": 22256, "tech": 13670, "ĠSin": 10884, "Ġsneakers": 42649, "Ġreinforcement": 37414, "ĠBEN": 44849, "ischer": 24645, "ĠJournals": 48608, "ĠLeonardo": 38083, "Rod": 27917, "Ġcircumcision": 25513, "Ġsue": 20889, ".............": 44274, "Ġcoinc": 11194, "Ġincentives": 16538, "deb": 11275, "Ġincreasingly": 6481, "Ġcheating": 21608, "utm": 26841, "Ġbouncing": 30713, "ĠHex": 22212, "vey": 3304, "ĠYus": 41749, "funded": 18246, "ĠTH": 2320, "Clearly": 30638, "Ġbalancing": 22486, "40": 1821, "Ġdiscrim": 6534, "amel": 17983, "Ġmillennium": 39210, "Ġtraged": 12208, "effective": 16803, "Ġfisher": 17685, "Ġfracture": 31846, "Ġanalytic": 49166, "ĠAgg": 19015, "Neill": 26538, "rod": 14892, "Ġvisiting": 10013, "igmatic": 38860, "Ġincap": 17505, "antha": 32589, "Scene": 36542, "inky": 29246, "alg": 14016, "rina": 22267, "ĠWhich": 9022, "Ġsequels": 45176, "Cost": 13729, "STON": 41924, "Ġstripped": 18818, "Ġattracting": 25142, "shit": 16211, "Ġdetectives": 24304, "433": 42117, "ptic": 17459, "this": 5661, "ulo": 43348, "Ġmelting": 24203, "Ġvisual": 5874, "Ġoverload": 31754, "592": 45839, "rica": 30997, "ĠInvestor": 47979, "Ġmidterm": 44066, "ĠChilean": 48014, "Ġhippocampus": 38587, "Ġdrafting": 26931, "ĠFer": 12880, "Ġrecourse": 38424, "Ġsmuggling": 29529, "ĠRiy": 33542, "Ġwriter": 6260, "Ġchefs": 36236, "Ġassistant": 8796, "571": 42875, "371": 38056, "73": 4790, "Ġdefe": 7503, "ĠWellington": 30597, "ãģ®": 5641, "find": 19796, "============": 25609, "Footnote": 33795, "Ġsemester": 24878, "Ġ276": 38147, "Cole": 46509, "Ide": 41452, "omo": 17902, "ĠÂ§Â§": 47171, "resses": 16746, "ĠNON": 44521, "Ġpatio": 39660, "ĠInsurance": 17541, "Ġneed": 761, "entanyl": 41455, "éĢ": 34460, "Ġanything": 1997, "advert": 17904, "Ġdrained": 29738, "ĠSEAL": 36160, "ioned": 14994, "ĠShinra": 47981, "ĠDice": 34381, "ĠDied": 34288, "akuya": 29863, "opia": 24464, "APE": 45721, "Ġgently": 15165, "ĠFO": 11895, "September": 17543, "engers": 9302, ")[": 38381, "Ġcautioned": 34105, "Ġlending": 20983, "Tra": 15721, "reads": 40779, "Ġinherent": 11519, "BA": 4339, "Ġcompanions": 19429, "ĠMissouri": 11565, "Ġbeneficiary": 33867, "ĠLew": 8260, "Ġpersona": 27822, "aligned": 41634, "Ġcared": 19951, "Ġ2048": 36117, "FAQ": 42680, "Ġscope": 8354, "Ġinvitations": 42851, "Ġweap": 2432, "international": 45609, "PLIC": 31484, "ĠCombine": 29176, "Ġaux": 27506, "ÃŃa": 29690, "ĠIw": 44316, "blast": 39806, "Ġfallacy": 39104, "Ġdeployments": 40854, "Ġbrill": 9547, "poll": 30393, "Ġhust": 33376, "Ġsaints": 31728, "ĠPilgrim": 46440, "etry": 11973, "Ġliberalism": 33108, "oles": 4316, "Ġversion": 2196, "Ġbreakup": 41584, "Ġignorance": 17010, "rich": 7527, "sometimes": 29810, "Ġlot": 1256, "ĠRegarding": 38687, "Sync": 28985, "ĠColony": 34480, "Ġportrayal": 33578, "Ġthroat": 13589, "2200": 34294, "Ġengraved": 41136, "Ġsurpass": 17341, "Ġsystemd": 31490, "Ġinoc": 49027, "Ġoddly": 31414, "Ġreviewing": 17217, "haired": 29972, "Ġkinetic": 37892, "ority": 29134, "ĠOd": 10529, "Ġdeteriorating": 43229, "ĠFerr": 19130, "cp": 13155, "Ġ259": 37831, "Ġ1902": 45611, "ELD": 24639, "Ġt": 256, "Ġstrongest": 12841, "impl": 23928, "Nine": 37603, "Ins": 20376, "Ġwages": 9400, "ĠMarathon": 24828, "sequent": 44399, "elines": 20655, "Ġ120": 7982, "hedral": 21962, "cept": 984, "kish": 31501, "Ġvolunt": 11631, "Ġshr": 10157, "alth": 1094, "Ġunsuspecting": 41975, "Ġtrophy": 16383, "98": 4089, "ĠSession": 23575, "iculty": 22402, "ĠPages": 28221, "Ġzone": 6516, "RAY": 30631, "ĠSweden": 10710, "cars": 37993, "Ġdestroying": 13897, "Ġrejo": 30668, "LAN": 25697, "Ġimpressed": 12617, "ĠXML": 23735, "Ġembryo": 39880, "Ġverdict": 15593, "engineering": 40321, "ĠBoth": 5747, "Ġmigration": 13472, "ĠMedal": 9064, "unciation": 24978, "ĠTheir": 5334, "Ġmyriad": 24862, "adows": 9797, "Ġlist": 1351, "acteria": 10634, "Ġgenres": 27962, "ĠBrah": 36415, "ĠZub": 47828, "idious": 33243, "ĠLSU": 28078, "ĠFrankenstein": 45738, "Ġwhopping": 27833, "ĠIslamabad": 36878, "rieg": 48429, "Ġpreferences": 15387, "ĠImplementation": 46333, "âĢĲ": 9333, "Ġproprietary": 20622, "Ġconfinement": 28739, "Ġvanilla": 16858, "Ġtelescopes": 42067, "Ġsnack": 26906, "!": 0, "Ġcreek": 39459, "ĠCardiff": 34910, "ĠOnline": 7467, "Ġlibrary": 5888, "Ġpsychologist": 23540, "ĠSpot": 15899, "protection": 42846, "Ġutil": 7736, "Ö¼": 47903, "imedia": 20626, "har": 9869, "wald": 21667, "ĠLamar": 26907, "inki": 38799, "Ġflag": 6056, "Ġabilities": 7883, "Ġconced": 15096, "Ġconstellation": 38712, "holiday": 37689, "auld": 30406, "Ġforesee": 25511, "ĠPry": 32500, "PLE": 16437, "Ġaffinity": 28430, "Ġi": 1312, "Ġrap": 4095, "Ġplun": 19324, "Ġproblems": 2761, "uba": 22013, "erves": 11184, "Ġantidepress": 27293, "ledge": 2965, "old": 727, "received": 47844, "Ġvoters": 4446, "Ġextinguished": 42774, "ĠAmateur": 48576, "ĠWeird": 34097, "ĠAvenger": 45270, "ĠEnder": 45322, "asio": 29831, "Ġrepairs": 20097, "Ġpledge": 13995, "ĠBulgar": 26163, "Ġ--": 1377, "ĠFrazier": 44145, "chy": 29658, "del": 12381, "Ġrestraining": 35078, "sports": 32945, "Answer": 33706, "rem": 2787, "ĠPearl": 18482, "ĠRH": 35662, "ĠConf": 7326, "Ġref": 1006, "Grid": 41339, "feld": 16265, "Ġrefinement": 47517, "ĠExpansion": 25042, "cox": 40359, "Ġpayments": 7524, "ĠUSAF": 45353, "Ġcongressional": 11702, "inished": 30603, "169": 22172, "Ġ186": 28481, "Ġ58": 7618, "aces": 2114, "ĠCooper": 10382, "enary": 21629, "ĠReincarn": 15083, "ĠDylan": 21371, "Ġmountains": 12269, "Ġheir": 28625, "Ġquotes": 13386, "Ġ46": 6337, "grim": 33563, "ĠRox": 34821, "ĠRuns": 44743, "gers": 5355, "tif": 49929, "Ġdefects": 22448, "Ġworse": 4785, "Ġturned": 2900, "Ġcopyrighted": 33696, "ĠChaos": 13903, "ylene": 37880, "laim": 20438, "Ġlaid": 8104, "creat": 20123, "Ġfurious": 21799, "Ġoccult": 31587, "okemon": 12717, "Ġdecay": 22119, "Ġpel": 16176, "assemb": 34455, "tv": 14981, "Andy": 35314, "Ġponies": 46370, "Ġbadass": 37289, "ĠAz": 7578, "Ġdiscriminated": 41117, "ĠRoche": 47765, "Ġsovereign": 18901, "Ġsubter": 43148, "Ġpublishers": 17604, "Ġpresses": 31048, "ĠCelebrity": 46289, "Ġconsultancy": 47827, "Ġcakes": 30849, "athering": 25545, "Ġslaughter": 17968, "Ġarmored": 24856, "ĠWes": 18622, "ĠRetro": 29884, "aning": 7574, "PokÃ©": 41386, "Ġinconven": 20488, "ĠMarvin": 35105, "md": 9132, "Ġreplica": 30069, "hene": 29473, "pering": 21255, "ĠSnow": 7967, "ĠInflu": 46631, "Ġterminology": 29191, "Ġbeg": 4123, "Hu": 38202, "et": 316, "ĠCold": 10250, "406": 29703, "Ä«": 18962, "aturally": 7436, "Ġcogn": 8866, "Ġanesthesia": 49592, "ĠSing": 5573, "Ku": 41733, "31": 3132, "estone": 13631, "Ġ1998": 7795, "Similarly": 28039, "KEN": 43959, "Ġoverc": 25676, "identified": 19107, "ĠSending": 32038, "Ġworker": 8383, "Van": 25298, "ienne": 37938, "incible": 33494, "iber": 1856, "ĠNut": 11959, "Ġdocumenting": 33045, "WR": 18564, "¶": 114, "houn": 47714, "ĠHughes": 19712, "794": 50242, "rench": 3532, "tick": 42298, "ĠGuam": 39282, "Ġproper": 1774, "Ġlightning": 14357, "gallery": 24460, "ĠSQ": 49747, "Ġheck": 22574, "ĠSupply": 22663, "custom": 23144, "Ġbreaths": 45576, "effic": 24531, "agar": 32452, "Ġsher": 15059, "eline": 4470, "Ġmt": 45079, "161": 25948, "Ġunl": 9642, "Ġrestruct": 27596, "ĠSpice": 43537, "ĠWikiLeaks": 19766, "dule": 5950, "ĠEM": 17228, "imated": 15655, "Ġresolved": 12939, "Ġsecondly": 48550, "ĠIND": 24413, "Ġprophecy": 28322, "ĠRd": 20769, "ĠYear": 6280, "ĠVari": 15965, "ĠPur": 9330, "Ġsecret": 3200, "ĠRestoration": 36155, "Proof": 44683, "Ġsimplest": 24043, "Ġcontribut": 4076, "Ġterminals": 30237, "Ġproficient": 39318, "ĠShia": 27424, "1978": 37950, "Ġ680": 40554, "Ġanarchism": 41661, "rived": 36207, "ĠTrue": 6407, "ĠStarCraft": 38460, "Ġclashed": 37003, "Ġ=====": 29335, "rils": 41408, "ĠLate": 18319, "ĠWP": 28993, "ĠHolmes": 17628, "bec": 9423, "Ġlesson": 11483, "Ġexploring": 13504, "Ġfid": 49909, "Ġ1700": 35665, "ĠLEVEL": 49277, "ized": 1143, "Ġmatured": 48491, "oric": 8146, "Ġbananas": 35484, "Ġdisagree": 12546, "uf": 3046, "ĠLud": 24177, "ĠDexterity": 40537, "hog": 31897, "Ġcardiovascular": 21134, "Ġwelfare": 9490, "assembly": 41873, "uberty": 34237, "Ġthirsty": 47124, "Ġassignment": 16237, "ĠRebell": 32032, "Ġprelim": 14541, "Ġdied": 3724, "Ġbrokers": 36139, "Gb": 49017, "bus": 10885, "\":[{\"": 32509, "61": 5333, "Day": 12393, "ĠAHL": 35297, "45": 2231, "Ġshowcases": 45064, "ĠErit": 43349, "ĠSocket": 47068, "ĠNickel": 38398, "Ġpercept": 34953, "killers": 43492, "ĠEmma": 18966, "Mu": 33239, "Ġoverr": 23170, "Ġcontin": 1261, "ĠPortugal": 19101, "Ġ355": 36561, "Ġlikened": 41679, "Ġshelters": 23629, "Ġremarked": 24998, "leave": 47408, "Ġemph": 33595, "Ġmusic": 2647, "Ġruthless": 29541, "Ġflushed": 44869, "ĠPru": 35511, "Ġside": 1735, "ĠPro": 1041, "Ġstaying": 10589, "Ġlicence": 17098, "Ġconcentrating": 37367, "ĠAustralian": 6638, "Ġslim": 18862, "ĠEp": 4551, "åĩ": 49035, "owicz": 47982, "ĠSands": 35359, "243": 26660, "ĠWORK": 30936, "Ġtempt": 12475, "iveness": 6517, "ĠExpand": 49368, "Phones": 32212, "augh": 1567, "Ġworld": 995, "Ġproclaim": 23930, "Â¯Â¯Â¯Â¯Â¯Â¯Â¯Â¯Â¯Â¯Â¯Â¯Â¯Â¯Â¯Â¯": 27006, "Ġhope": 2911, "Ġsemen": 34972, "Ġpromotes": 21068, "Ġdeficits": 22729, "Pie": 48223, "Ġgui": 11774, "Ã¨": 14064, "ĠThose": 5845, "aiman": 47840, "Ġrefere": 6773, "ĠXXX": 27713, "ĠProcessor": 32893, "ĠRoland": 29761, "anch": 3702, "Ġinitialization": 37588, "Ġquery": 12405, "Ġnonpartisan": 42157, "Ġsocioeconomic": 34406, "Ġserver": 4382, "Ġgri": 11120, "Ġfiltered": 29083, "ĠLET": 37994, "ĠMeeting": 22244, "Ġbartender": 41118, "=$": 43641, "Success": 33244, "issy": 36419, "ĠDigest": 44255, "Ġsexes": 32487, "parent": 8000, "Ġcorners": 14371, "Ġvolunteering": 41434, "Ġrecre": 11027, "Ġanalyze": 16602, "KC": 36222, "Ġrecruit": 10960, "Ġgroup": 1448, "Ġprosec": 19306, "Ġaffirmative": 27990, "Ġcliffs": 41724, "Ġtallied": 48729, "Ġconsidering": 6402, "UE": 8924, "VERT": 15858, "1980": 23664, "Ġlawy": 4840, "Ġinjected": 25077, "mination": 17928, "Ġ119": 15136, "Nev": 43555, "ĠFiat": 23327, "Ġbothering": 41656, "Ġtopp": 23126, "Run": 10987, "ĠCadillac": 46089, "Ġnaive": 24354, "Ġmoon": 8824, "Appearances": 47569, "ĠRiver": 5866, "Includes": 42986, "ĠTot": 20323, "ock": 735, "Ġterminate": 23654, "ractor": 40450, "Ġexacerb": 22907, "ĠTap": 16880, "ĠEvangel": 27834, "mes": 6880, "Ġviolin": 38283, "Ġradial": 44503, "currency": 34415, "Ġwarr": 32207, "Ġreiterated": 27116, "ESSION": 47621, "ĠMages": 46796, "Ġcracked": 21368, "Ġdusk": 46166, "Ġlaud": 28907, "ĠShake": 41113, "dt": 28664, "Eng": 7936, "Ġshoes": 10012, "pload": 7304, "gr": 2164, "ĠAAC": 47943, "ĠStoke": 36178, "_{": 23330, "Ġcompose": 36664, "Ġ1952": 26352, "]]": 11907, "ĠMatch": 13225, "Ġresidual": 29598, "ĠNau": 50071, "Ġrelieve": 26958, "1027": 40403, "Ġdemocratic": 10518, "ontent": 38564, "Ġpic": 8301, "ĠCinem": 21932, "Ġutilized": 21487, "Ġrelying": 17965, "GMT": 49424, "lees": 49410, "Ġthw": 41964, "bone": 15992, "ĠHoy": 49873, "Bet": 13056, "Ġsingular": 18032, "ox": 1140, "endium": 49811, "Blu": 38676, "Discussion": 34255, "ark": 668, "ĠJessie": 43425, "LEASE": 22781, "Ġtorn": 12445, "Ġhappening": 5836, "Ġsystem": 1080, "ove": 659, "ĠNeighborhood": 37914, "ĠSAF": 37630, "Ġindirect": 12913, "Ġpending": 13310, "ĠCollabor": 37322, "Five": 20029, "raf": 32188, "ressing": 11697, "Eventually": 28724, "Ġphoton": 48190, "vind": 50172, "Ġpreferred": 9871, "Ġoverturn": 17586, "lime": 27299, "000": 830, "ĠHolt": 28330, "ĠPenny": 25965, "ĠGil": 10689, "ĠPit": 16889, "Ġremod": 38977, "Universal": 38747, "CRIP": 36584, "Ġcompute": 24061, "ãĥīãĥ©": 19073, "ĠReligion": 21741, "ĠUkraine": 7049, "secure": 22390, "Ġwiden": 45676, "ĠExtract": 29677, "Ġupdated": 6153, "Ġanterior": 32700, "ĠDism": 44955, "ĠInclude": 40348, "Ġwhispered": 25029, "ĠPlain": 28847, "Ġpackages": 10392, "Ġcounting": 14143, "Ġsupplying": 28099, "ĠBio": 16024, "ĠInput": 23412, "Ġpremium": 8683, "oya": 23790, "ĠMinnesota": 8919, "');": 24036, "ĠRAID": 37450, "ĠFinance": 15007, "Ġsnapped": 20821, "ĠTags": 44789, "phony": 23021, "ĠThought": 27522, "Ġbulbs": 34122, "Ġlandslide": 36348, "ĠVas": 23663, "Ġprinting": 13570, "Ġexempl": 21433, "Ġgloom": 30338, "Ġpinnacle": 45985, "Ġtriglycer": 47937, "ĠPope": 13258, "âĤ¬": 26391, "Ġadventures": 17545, "ĠDenis": 33089, "yr": 2417, "Ġdawn": 17577, "Ġconflicting": 24916, "273": 27367, "Ġ370": 28687, "Ġsequential": 35582, "Nov": 20795, "Ġvines": 44439, "Ġspecificity": 40763, "r": 81, "ossible": 4733, "Invest": 19070, "Ġwithheld": 31453, "Abs": 24849, "CA": 8141, "ĠIU": 42564, "ĠAges": 21449, "Ġmaneuver": 20186, "Ġcarrier": 11920, "Ġgoofy": 44089, "ĠPir": 10334, "avorable": 32006, "Ġgene": 9779, "'m": 1101, "ĠExec": 8393, "ĠMankind": 44231, "productive": 27781, "Ġpretending": 23662, "ĠâĶ": 13305, "Ġsprawling": 30190, "iddles": 29319, "ĠRevelation": 33722, "iance": 3610, "Ġexceed": 7074, "Ren": 26764, "Ġhot": 3024, "apps": 18211, "atell": 7528, "Ġinward": 29879, "ĠMonk": 28854, "ĠRouge": 27478, "Ġroaming": 31665, "Ġspeculation": 13367, "Yesterday": 28065, "Ġnurturing": 47416, "ĠBlink": 41732, "ocaust": 16377, "ĠSolution": 28186, "utical": 14224, "Ġregardless": 7692, "Ġhandwritten": 45916, "Ġbast": 19918, "Ġremed": 20100, "ĠHof": 37745, "Ġamplified": 37479, "çĽ": 33566, "IFA": 19071, "Ġelim": 5687, "Ġyoungest": 18887, "Ġyoungster": 40944, "affected": 43958, "escap": 50141, "Ġleukemia": 49030, "Ġslide": 10649, "Ġpsychosis": 37926, "exc": 41194, "Ġtwice": 5403, "ĠCarlos": 17409, "ĠDropbox": 38930, "ĠCollection": 12251, "ĠRÃ©": 47957, "IT": 2043, "Ġhouseholds": 12503, "ĠAuthorities": 30756, "ĠHollande": 33590, "ĠFlickr": 27085, "ĠGas": 14345, "icc": 44240, "WAR": 16279, "Ġtool": 2891, "Ġalot": 43158, "ĠNap": 14332, "Move": 21774, "ĠChancellor": 19477, "wich": 11451, "Ġharassment": 10556, "Ġmotivated": 13338, "chrome": 46659, "hed": 704, "Ġbroadcasts": 30423, "ĠLive": 7547, "urchase": 18737, "ĠPutting": 39956, "Ġmemes": 32905, "Sing": 29974, "505": 31654, "Ġorc": 26393, "ĠUkrain": 5435, "ĠCafe": 26965, "ĠIg": 28818, "Ġsmug": 27590, "ĠShak": 35274, "ĠCass": 14154, "MT": 13752, "vell": 29333, "Ġmultiply": 29162, "Ġstale": 39985, "ĠGreenberg": 46702, "ĠPos": 18574, "Ġrepent": 28787, "ĠClarkson": 40524, "ĠMerchant": 33508, "Ġmiscarriage": 45931, "Pitt": 47627, "ku": 23063, "Ġenvironmentally": 34132, "ĠNIGHT": 37707, "ĠSomehow": 36651, "Ġfeasible": 23498, "Ġunorthodox": 49830, "ĠVirgin": 5283, "ĠBrewing": 19321, "Ġtentacles": 41192, "ĠCavs": 38943, "ĠHayward": 41960, "Pet": 25803, "Ġintrigue": 38520, "241": 28872, "Ġportfolios": 47837, "Ġ1899": 47465, "Ġsomething": 1223, "################################": 29113, "}}": 11709, "Ġunex": 8522, "Ġdesper": 8029, "ĠRoyal": 8111, "ĠPTS": 20907, "apses": 45903, "Ġcoll": 2927, "Ġreverse": 9575, "ĠPenet": 46975, "Ġideologies": 35871, "ĠExtrem": 47871, "irlfriend": 9872, "Ġinsecurity": 33837, "Ġsubscribed": 45794, "Ġredundancy": 49052, "Ġroomm": 26255, "Ġhonorary": 44358, "ĠJoe": 5689, "Ġfill": 6070, "Ġscript": 4226, "ĠSupport": 7929, "Ġmercenary": 39876, "Water": 19184, "Deep": 29744, "ĠTobacco": 28603, "Ġwellbeing": 40013, "Ġcrib": 48083, "Je": 40932, "Ġtransformed": 14434, "Fighting": 46375, "Ġknit": 30495, "Ġdetainee": 49436, "caps": 27979, "isle": 20919, "ĠRetail": 26702, "ubb": 33670, "Ġincrease": 2620, "Ġsurrounding": 7346, "Ġascert": 48818, "Ġrevocation": 47275, "ying": 1112, "Ġcyclist": 34632, "Ġhistorians": 21262, "ora": 5799, "Ġpunt": 35363, "ĠIndie": 31527, "Ġintroduces": 20718, "Account": 30116, "Jer": 36134, "ĠAleppo": 18593, "Ġraced": 32897, "ĠGins": 39083, "Ġcultivation": 23089, "ĠCommunication": 26117, "Ġinequ": 11082, "Ġtower": 10580, "Ġunilaterally": 44486, "Having": 14698, "What": 2061, "Alien": 44501, "Ġthings": 1243, "ĠExcel": 24134, "pling": 11347, "ummer": 31647, "55": 2816, "NOT": 11929, "ï¿½": 4210, "Ġvortex": 42726, "Á": 125, "ĠAhmad": 24152, "Ġcovenant": 28173, "ĠDRAG": 44779, "ĠHack": 18281, "Ġflare": 30239, "ĠFernando": 31063, "ĠSpread": 31843, "Ġdiligence": 34136, "ĠGeorgetown": 31393, "Tem": 12966, "Ġpresidents": 19033, "decl": 32446, "ĠMill": 9212, "ĠVisitors": 44535, "ĠNAD": 49204, "archment": 36767, "ellig": 2976, "Ġcaut": 17258, "Ġsubmarines": 34031, "Ġwaged": 34225, "osph": 14222, "Ġmediocre": 29956, "ĠGenocide": 48721, "ãĥĸ": 24001, "Ġblame": 8138, "ĠMicro": 4527, "ographically": 33145, "428": 40173, "ĠCalculator": 43597, "...]": 22345, "ordial": 31223, "Ġburger": 26593, "Ġperv": 48435, "ĠDoct": 32155, "Ġoats": 47009, "Ġtomatoes": 23972, "ĠCFR": 38233, "Ġcaliphate": 48051, "ĠNS": 10896, "Ġcovari": 44829, "Ġboards": 11490, "Ġsellers": 23531, "Ġlied": 19837, "activate": 39022, "ancies": 16183, "Ġgradient": 31312, "ihil": 20898, "Thumbnail": 35523, "ĠLearn": 14365, "Price": 18124, "ĠTa": 11940, "Ġdrummer": 34269, "ĠFaces": 48463, "zos": 37925, "TM": 15972, "Ġworkload": 26211, "ĠUncle": 23169, "asonic": 30189, "ĠMonster": 12635, "ĠLazarus": 49093, "FP": 5837, "around": 14145, "mitt": 20124, "ĠExplosion": 45742, "Ġlambda": 37456, "Ġregulate": 16697, "Ġworth": 2861, "ĠMerchants": 44682, "Ġrepeats": 29819, "ĠSultan": 37399, "Ġstops": 9911, "Ġartificially": 32455, "Ġfirsthand": 37318, "Ġlever": 17124, "Ġadvertisement": 15422, "TAIN": 30339, "Ġscrapped": 35034, "Ġpersuasion": 41784, "Ġagre": 2477, "IDE": 14114, "Ġsuch": 884, "232": 24339, "ĠCBI": 47970, "ĠScouts": 30456, "Ġtasked": 23052, "Ġgreedy": 31828, "ĠBatt": 12350, "eting": 13629, "Ġkidnap": 49679, "Ġdaddy": 35822, "ocobo": 37642, "ribed": 8725, "Fin": 18467, "ĠDialogue": 34709, "Ġopposes": 28928, "Ġocean": 9151, "Ġrepeated": 5100, "Ġpeaceful": 12309, "Ġdisclaimer": 37592, "Later": 18602, "missing": 45688, "Friend": 23331, "olitical": 13781, "Ġsolic": 25806, "ĠRuk": 49037, "Ġexcerpt": 20911, "ĠPioneer": 31437, "Ġcup": 6508, "Ġinitiative": 10219, "Ġgamma": 34236, "Prom": 24129, "gent": 6783, "ĠBuddy": 36896, "Ġlisted": 5610, "Ġwart": 32943, "wikipedia": 31266, "Ġreins": 35627, "ĠYoga": 32856, "ĠSecurities": 22971, "/(": 29006, "ĠWriters": 37732, "ĠLexington": 39540, "Ġadject": 31129, "ĠGeneral": 3611, "ĠKits": 40297, "ĠBrun": 15700, "adic": 23876, "Vari": 23907, "Ġresemble": 22464, "Ġobesity": 13825, "Ġreb": 3405, "Response": 31077, "Ġstacks": 24285, "hander": 44510, "ĠPHP": 19599, "Ġ169": 27191, "run": 5143, "Ġslick": 29395, "Ġsuspicion": 15123, "ivered": 6396, "ĠUnch": 34867, "ORGE": 49697, "Ġupright": 24826, "ito": 10094, "Ġsituation": 3074, "alties": 10355, "comb": 24011, "Ġreceiver": 9733, "Ġconfronted": 16675, "ĠPreservation": 47805, "ĠWeaver": 29594, "pers": 19276, "unk": 2954, "riks": 39370, "Ġpauses": 37622, "\":\"\",\"": 34713, "Ġmem": 1066, "Ġencrypted": 19365, "Ġpeers": 14495, "Ġrefreshed": 47193, "anza": 35819, "oa": 12162, "Ġclinically": 36688, "ĠRaise": 35123, "Ġadvertise": 32740, "manuel": 18713, "gd": 21287, "psey": 39070, "ĠEddie": 19478, "ĠPhys": 8687, "ĠWhole": 23431, "ilibrium": 24741, "markets": 34162, "ĠGar": 7164, "Ġbitterly": 40608, "Ġreun": 15398, "Ġmonarch": 26464, "Ġcollect": 2824, "Ġproceeded": 18814, "requent": 46018, "ĠAJ": 25347, "Ġflared": 50017, "dj": 28241, "Tang": 43909, "Ġempty": 6565, "Ġofferings": 18369, "Ġconvince": 11508, "conserv": 38925, "ĠJian": 40922, "Ġconvictions": 19131, "ubuntu": 32230, "Ġanyways": 32845, "agger": 7928, "Ari": 26529, "ß": 155, "ĠDue": 14444, "ĠSadd": 20454, "Ġ720": 26250, "ĠMort": 10788, "ĠManor": 33555, "Ġmathematician": 48251, "ĠAngela": 17799, "Ġindic": 2699, "MP": 7378, "680": 37397, "balanced": 27753, "Hen": 26055, "ĠNeither": 16126, "IRD": 46833, "riel": 11719, "ĠHammond": 26649, "ĠTODAY": 20092, "ĠGalile": 32422, "Ġconduit": 44457, "Ġprincip": 26303, "Ġselection": 6356, "osit": 7434, "ĠPercy": 38506, "ĠAMERICA": 49463, "2004": 15724, "Ġdiseng": 39402, "ython": 7535, "ĠLONG": 44533, "ĠComedy": 22329, "\");": 15341, "Ġarchaeological": 30971, "Ġnaturally": 8752, "Cru": 27535, "Ġinstallment": 25168, "Ġmim": 17007, "ĠDOC": 37760, "ĠCrossing": 31910, "ize": 1096, "ĠValentine": 23078, "adesh": 13410, "ĠPrevent": 31572, "Ġhectares": 43025, "consider": 44353, "Ġwizards": 34836, "ĠPediatrics": 46776, "Ġethos": 39676, "`": 63, "ĠFinger": 39454, "ĠZero": 12169, "Ġillustrate": 19418, "Ġshrugged": 28271, "Ġscrolling": 28659, "querque": 36119, "Regular": 40164, "Wikipedia": 48845, "opher": 8803, "alos": 41823, "ĠPsychiatry": 28897, "ĠQueensland": 21105, "ĠSlam": 30382, "STR": 18601, "î": 170, "vant": 4520, "Thor": 46765, "mits": 24883, "Ġnavigation": 16408, "ared": 1144, "ĠGained": 34775, "ĠEfficiency": 45728, "Ġopponent": 6125, "Ġgoverned": 21825, "Particip": 34363, "Ġconcentrated": 17298, "mins": 42951, "ĠOlympics": 14935, "roup": 3233, "Ġdunk": 35434, "Forge": 19857, "Ġhook": 8011, "ĠFreed": 38728, "archy": 9282, "changing": 22954, "poon": 26743, "ĠGeographic": 33636, "ĠAlv": 33414, "Ġpropell": 46059, "Ġscorn": 40987, "Ġoneself": 27186, "Premium": 36787, "Ġmoons": 31093, "Ġlots": 6041, "Ġatmosp": 6904, "ĠDisp": 36060, "ĠOsc": 40203, "urga": 45098, "play": 1759, "ĠRhod": 22509, "ĠKal": 12612, "Ġabhor": 42934, "ĠWM": 30376, "ô": 176, "umo": 43712, "Ġnicotine": 21856, "Ġconditions": 3403, "Tuesday": 26133, "anchester": 8911, "opp": 10365, "Posts": 21496, "Ġ1890": 31982, "ĠOvers": 29425, "VW": 30133, "blade": 22500, "Ġwipe": 19916, "Ġantigen": 50059, "Sign": 11712, "Ġassume": 7048, "Ġpoaching": 49879, "gui": 48317, "disciplinary": 40625, "Wo": 49450, "Ġinsanely": 40848, "ĠEvents": 18715, "Ġcaching": 40918, "ĠRoose": 18589, "ĠKou": 30559, "Ġtherap": 6987, "Fuck": 34094, "ĠHeroic": 34364, "better": 27903, "Ġrend": 9851, "Ġnations": 7027, "path": 6978, "Ġsatisf": 5244, "ĠVI": 13889, "urion": 40956, "ĠRum": 25463, "ĠLady": 11182, "campaign": 35012, "ani": 3216, "WINDOWS": 33207, "ĠPeriod": 18581, "Ú": 150, "esome": 5927, "Ġbarrels": 17907, "ÑĤ": 20375, "1001": 47705, "Ġexperience": 1998, "shall": 49271, "Ġvirtual": 7166, "Ġoutspoken": 27687, "ricted": 20941, ")âĢĶ": 27920, "Ġimmigrants": 7971, "Ġtyph": 37428, "iatus": 34704, "Ġcase": 1339, "Ġmanageable": 36426, "****************": 8412, "runners": 36740, "Beck": 43454, "Ġbiography": 26444, "Ġmisunderstand": 39653, "omorph": 25831, "Ġlatch": 43140, "auna": 32837, "ĠForth": 50095, "uh": 7456, "Stan": 32140, "ench": 24421, "Ġ187": 27649, "Ġobjectionable": 48540, "ĠBelgium": 15664, "ussions": 21585, "ĠRates": 34864, "Ġlith": 24491, "ĠmacOS": 40017, "Ġtaunt": 48146, "wise": 3083, "anguages": 33213, "Ġsome": 617, "Ġya": 21349, "Ġaber": 42499, "Ġbourgeois": 19749, "Ġâī¡": 38243, "ises": 2696, "ĠMultiplayer": 39759, "ĠWond": 31960, "ĠCisco": 28289, "));": 18125, "Ġported": 49702, "style": 7635, "Ġdipping": 43144, "Ġhump": 49779, "bee": 20963, "Hyp": 49926, "posium": 35864, "wic": 22664, "yers": 21200, "Ġsneaking": 41797, "Material": 17518, "Ġexited": 34710, "Ġexpulsion": 38812, "two": 11545, "urther": 1914, "Ġbilateral": 24537, "Ġdisturbances": 38622, "inational": 26201, "Ġselector": 31870, "RR": 21095, "chard": 30215, "hiro": 49907, "Between": 25262, "Ġfeedback": 7538, "........................": 27754, "ocre": 27945, "Ġseeks": 12932, "Ġoptimism": 24323, "ĠAsus": 46301, "Ġlocally": 15726, "void": 19382, "æĸ¹": 43095, "Department": 36261, "Always": 30374, "Ġpant": 15857, "ĠTIT": 37977, "Ġpropri": 15159, "Ġreplacements": 36205, "Ġmotorcycle": 18757, "podcast": 46032, "Ġtrajectory": 22942, "microsoft": 40485, "Ġpriv": 1953, "cluding": 6360, "ĠPrairie": 41196, "Ġinvincible": 46038, "PRESS": 32761, "ĠEgyptian": 14075, "Ġsupplier": 22693, "562": 43918, "Ġdancing": 15360, "Congratulations": 45048, "Ġopting": 37529, "Ġgrams": 16379, "ĠHercules": 32795, "ĠCake": 30799, "ĠVR": 6453, "Ess": 29508, "pid": 35317, "ĠN": 399, "930": 45418, "Ġbroke": 6265, "ĠHugh": 25464, "ĠMacArthur": 46626, "ĠInvestigation": 21505, "ĠGong": 47142, "Ġmoot": 41264, "Ġbrilliant": 10457, "Ġaltitude": 20334, "Ġbreadth": 32483, "ĠProducer": 30436, "ierra": 16367, "Ġdepos": 12304, "ĠCoco": 48222, "Ġdiminishing": 35197, "leg": 1455, "Ġflee": 11562, "Bring": 31416, "ĠRichie": 49209, "\"><": 22039, "ĠNeutral": 25627, "ĠMov": 44795, "Ġgrav": 9067, "ĠLiterature": 33818, "Integer": 46541, "Ġeconomists": 16816, "Ġgoodwill": 36374, "Ġobjective": 9432, "ĠBarr": 27883, "ĠIdeal": 41765, "ĠString": 10903, "Ġadmitting": 22688, "istrate": 28534, "borne": 13555, "Ġá": 28053, "mony": 9926, "thens": 43895, "civil": 37636, "Ġmates": 27973, "ĠOfficer": 10391, "ĠProcessing": 28403, "Breaking": 29449, "coni": 45774, "Ġtilt": 26500, "Ġ\"\"": 13538, "eme": 34755, "Ġchromos": 22630, "Ġ555": 44717, "ĠGrain": 48692, "Ble": 43413, "Ġsq": 19862, "ĠSamar": 34077, "ĠBAD": 33934, "Ġreach": 3151, "Ġow": 12334, "ATIONS": 18421, "ĠBundes": 33816, "UF": 36820, "ĠFrem": 38433, "olitan": 12977, "Ġtreason": 32204, "©": 102, "Ġlas": 39990, "Source": 7416, "ĠJPMorgan": 43318, "quart": 36008, "Ġexqu": 33954, "Ġended": 4444, "Ġmodules": 13103, "ĠHom": 8074, "Ġinv": 800, "ĠHarding": 45732, "Info": 12360, "Ġspectators": 31704, "ĠLeigh": 37907, "337": 31496, "Ġdominates": 38777, "ĠMend": 20442, "ĠDebate": 41029, "Ġartificial": 11666, "Ġrites": 41302, "Ġtroubling": 20294, "ĠLouie": 48352, "ĠOy": 39447, "ãĥĨ": 24336, "oint": 1563, "Ġpleading": 30279, "instead": 38070, "Ba": 34458, "Ġraised": 4376, "Ġhost": 2583, "ibraries": 11127, "ĠGB": 13124, "coat": 31434, "Ġrush": 10484, "Rock": 19665, "Ġfortress": 28757, "Ġpublish": 7715, "ouri": 10300, "ĠThus": 6660, "ĠThousands": 30405, "ĠWhile": 2893, "osure": 4567, "Ġfooth": 36522, "ĠBaltimore": 10346, "heat": 25080, "working": 16090, "wik": 20763, "ãĥĺ": 23363, "Ġlocation": 4067, "na": 2616, "ĠAtmosp": 33276, "Ġresist": 4180, "TO": 10468, "\\/": 11139, "ossibility": 43691, "Ġphenomenal": 28187, "ĠDO": 8410, "ĠKahn": 42264, "Ġdrawing": 8263, "Ġnewest": 15530, "Cal": 9771, "Ġgeneration": 5270, "Meta": 48526, "ĠSubmission": 42641, "lest": 32712, "ĠVehicle": 21501, "Ġindefinitely": 24391, "Ġape": 43835, "--------------": 26171, "Ġanother": 1194, "ofi": 39542, "Ġgenerous": 14431, "Excellent": 45675, "ĠOpera": 26049, "ĠRS": 19340, "ĠMars": 8706, "tical": 22869, "ĠPersonality": 30472, "./": 19571, "ĠAbsent": 49274, "Ġconsent": 8281, "ĠDodgers": 23576, "âĢĳ": 20977, "ģĸ": 45433, "Ġclaw": 26573, "ĠTwe": 24205, "avage": 33757, "ĠZoe": 32280, "Interstitial": 29447, "Ġunsett": 29286, "Ġleaned": 23831, "Ġdamp": 21151, "ulin": 11599, "held": 10217, "ellect": 6879, "Ġstriker": 19099, "Ġnegligence": 28612, "ĠInferno": 32458, "ĠIntellectual": 42443, "Ġcrap": 18824, "rays": 20477, "Ġinhab": 11381, "Ġgolf": 13126, "Ġjournalist": 10099, "Ġexpr": 44052, "oman": 5185, "ĠFitness": 34545, "Ġfolded": 24650, "Ġstriving": 34260, "bled": 9342, "amation": 14755, "Pa": 28875, "ooming": 30602, "Ġloving": 14442, "Ġharms": 34859, "Ġsuffix": 35488, "rase": 22789, "']": 20520, "ĠVill": 9757, "ĠCrazy": 19932, "rec": 8344, "ĠStudios": 13799, "Ġhtt": 1841, "Ġenforcing": 26587, "ĠBarron": 47412, "Ġhuh": 24926, "Ġchallenges": 6459, "icians": 5106, "1982": 30763, "Ġ16": 1467, "Ġinvoice": 45458, "Ġdubbed": 17494, "218": 28727, "gee": 29622, "ĠEsper": 42083, "Ġcorps": 16812, "ĠTim": 5045, "Ġ0000": 17643, "Unix": 47000, "Ġinline": 26098, "ame": 480, "ĠAnxiety": 48276, "Ġwitchcraft": 48646, "Ġdeterrence": 49272, "Ws": 46456, "Ġdips": 48904, "Ġrushes": 38596, "1985": 29110, "Ġassass": 10519, "Ġpriced": 19744, "ĠSalam": 38170, "Ġkarma": 31789, "Ġendowed": 44134, "ĠLub": 40753, "Ġauction": 14389, "Ġ));": 29226, "Ġtriggering": 26555, "ĠPRODUCT": 41458, "Ġdisclosing": 39916, "ĠCompar": 22565, "ĠSchumer": 26107, "Ġantique": 38504, "ĠLaser": 23222, "ĠClojure": 43848, "Ġbooks": 3835, "288": 25270, "Ġglutamate": 48402, "ĠEternal": 21475, "ropolis": 25986, "Ġabundantly": 49244, "Ġhypocritical": 45259, "ade": 671, "Ġsprayed": 35729, "Ġseriously": 6411, "BBC": 33833, "lan": 9620, "Below": 21106, "Ġ353": 47567, "ĠGuardiola": 46990, "Ġneighborhood": 6232, "Ġ263": 39135, "Ġvict": 2210, "Ġpavement": 31726, "ruit": 4872, "ĠGingrich": 29855, "Alpha": 38077, "Ġliabilities": 25333, "Ġunemployed": 21021, "park": 20928, "paralleled": 37859, "Ġtert": 48358, "Ġfitted": 18235, "Ġhomosexuals": 35655, "ĠguiActiveUnfocused": 30210, "Ġfertility": 21573, "Alexander": 38708, "against": 32826, "Ġinvitation": 17023, "Ġproudly": 23017, "Ġadaptations": 35030, "Ġengagements": 40588, "Ġchemistry": 16585, "Palestinian": 35969, "Ptr": 46745, "549": 44966, "Yep": 47834, "iary": 8042, "URES": 29514, "ĠBram": 35315, "ĠOccupy": 25551, "ĠXCOM": 49358, "ĠGemini": 35495, "Ġexposed": 7362, "Ġdistribut": 11309, "ĠAttribution": 45336, "obic": 20803, "ĠComb": 14336, "Empty": 40613, "Ġsmile": 8212, "ĠGallagher": 38580, "ĠGing": 26169, "Ġowning": 23107, "ĠPUBLIC": 44731, "ĠPoll": 12868, "Another": 6610, "Att": 8086, "Ġdonating": 29798, "ĠPerth": 29913, "leeve": 49189, "mson": 24996, "ĠYellowstone": 47257, "Imp": 26950, "heit": 29361, "Len": 30659, "Ġdefense": 3761, "ĠFirefly": 40374, "Ġcigars": 33204, "Ġrepresented": 7997, "ĠInquis": 38010, "ĠIgn": 16583, "ĠET": 12152, "Ġattained": 28681, "Stone": 34346, "ynes": 25337, "ĠNat": 14393, "427": 42363, "cru": 32838, "kson": 46505, "ĠRights": 6923, "apego": 40561, "ĠCriminal": 15531, ".\"[": 18161, "Game": 8777, "ĠDiscussion": 27766, "Ġpredominantly": 20736, "Ġequation": 16022, "Ġtell": 1560, "Ġsplitting": 26021, "ĠSidney": 35727, "oling": 40949, "Ġdrowning": 32249, "wiki": 15466, "FIG": 16254, "ablo": 18817, "ĠSarah": 10490, "jobs": 43863, "GPU": 33346, "ĠLawn": 46007, "ĠSamson": 47977, "Ġ2014": 1946, "Net": 7934, "Ġsuperv": 29745, "Ġremembered": 12086, "Ġtr": 491, "ĠKab": 28793, "002": 21601, "Ġhandic": 29103, "191": 26492, "upid": 7658, "Ġ\"$": 17971, "Ġworkspace": 44573, "ĠBuilder": 35869, "Peter": 19727, "Ġfrozen": 12912, "ĠPalestinians": 12890, "Ġubiqu": 23861, "series": 25076, "ĠLur": 47851, "ĠFourth": 15692, "Ġrepealing": 42753, "ĠHert": 40030, "Modern": 31439, "ĠEur": 36554, "!'\"": 49296, "Rex": 47389, "ãģĮ": 35585, "ĠSA": 14719, "Ġshow": 905, "ĠNL": 22879, "`.": 44646, "Ġsuspect": 4099, "Ġpaired": 20312, "ĠPyramid": 41450, "Ġrelied": 17498, "igan": 5516, "jad": 38442, "achev": 42961, "Patch": 33952, "ĠKitty": 21168, "Ultra": 36122, "Ġshoppers": 30303, "rett": 11489, "Ġtheories": 10946, "Ġgrasping": 44787, "Ġtorches": 49497, "Ġdaughter": 4957, "ĠDex": 16750, "ĠWater": 5638, "Ġbipartisan": 20953, "Ġ])": 33761, "virtual": 32844, "ĠWaterloo": 36782, "ĠMom": 11254, "ici": 44070, "Ġdataset": 27039, "Ġcake": 12187, "Ġcelebrates": 24538, "Hung": 39505, "ĠPug": 33260, "Ġpackaged": 25555, "paio": 43491, "Ġeffected": 43495, "ĠSafari": 23298, "Ġindication": 12955, "Ġkeywords": 26286, "457": 33032, "Larry": 42918, "Ġprosecutions": 36582, "Ġritual": 12146, "Ġlistings": 26890, "Ġedition": 8313, "Ru": 40464, "Ġgar": 5482, "backed": 17078, "ngth": 11910, "ĠASS": 24994, "ĠWilliams": 6484, "ãĢĤ": 16764, "ophe": 43852, "aments": 12604, "het": 3202, "ĠSpec": 18291, "Ġbreath": 8033, "ĠHeads": 34838, "Ġfollowers": 10569, "onis": 43524, "aunting": 20706, "Ġvehicle": 4038, "ĠNorthwest": 20572, "ĠStr": 4285, "ĠMarketable": 11966, "ĠRout": 39602, "Ġtouchdown": 10242, "Ġtapped": 22499, "Ġhomeland": 23184, "oley": 48437, "PE": 11401, "Ġ601": 49231, "ĠDying": 41011, "ĠAth": 13548, "ĠStellar": 39336, "liga": 38910, "idding": 13494, "Ġhorizon": 17810, "Ġconsultants": 29597, "Ġsnow": 6729, "Ġprohibitions": 49724, "ĠNames": 28531, "ĠRodham": 41848, "ĠPride": 21735, "ĠWestbrook": 35345, "ĠBr": 1709, "ĠDud": 30673, "Ġtc": 37096, "24": 1731, "ĠNXT": 43308, "Ġdecided": 3066, "ĠCL": 7852, "wer": 15448, "penter": 26419, "Ġdrying": 29621, "Ġcred": 2600, "shut": 49625, "inx": 28413, "Ġimposed": 10893, "PS": 3705, "Ġkisses": 36544, "ĠKejriwal": 42792, "ĠDign": 43674, "ĠPassion": 37580, "Politics": 43921, "Unit": 26453, "enegger": 44028, "Ġcatalogue": 34614, "doesn": 45084, "Crunch": 49384, "ĠPf": 38477, "Ġcrabs": 49172, "ĠNP": 28498, "vale": 41161, "dh": 34985, "utes": 1769, "Ġemergencies": 36047, "Ġseminar": 37634, "Ġmilitia": 21085, "Ġshutting": 25136, "Ġbilled": 33094, "ĠSlaughter": 41148, "Users": 14490, "Ġcoincides": 47387, "Ġbreweries": 31247, "ĠChallenges": 44495, "ĠPere": 17229, "Ġprocesses": 7767, "Ord": 35422, "Ġatom": 22037, "Ġtriumph": 15499, "Ġcombined": 5929, "Ġscrutin": 30441, "ĠIII": 6711, "ĠIndividual": 18629, "Ġdistribute": 14983, "Ġuncomp": 34318, "lake": 27180, "ĠVaults": 21314, "hit": 17945, "ĠCare": 7276, "Ġgather": 6431, "423": 43356, "Ġaffidav": 21637, "Ġsevent": 10037, "CRE": 43387, "Ġfractures": 39381, "Ġrobbed": 26773, "Ġventured": 44716, "Ġviewers": 10209, "statement": 26090, "amps": 9430, "Ġsod": 32581, "Ġshifting": 15852, "Ġhaze": 42772, "odynamics": 44124, "Ġcan": 460, "ĠWer": 27648, "Ġindict": 16056, "Ġunderest": 20164, "ãĢģ": 23513, "Ġcounselor": 31928, "pain": 35436, "Ġshortened": 34464, "Ġcommunities": 5348, "onial": 30752, "elight": 49984, "Ġmil": 1465, "Ġque": 8358, "ĠKis": 30519, "Ġ450": 18523, "Ġstore": 3650, "ĠBritish": 3517, "sleep": 42832, "Ġskew": 43370, "ĠNFC": 24004, "ĠRailway": 32130, "Ġbottle": 9294, "Ġed": 1225, "Ġroy": 10611, "ĠMissing": 25639, "Ġmakers": 14429, "Ġuter": 31500, "Ġstraw": 14787, "Ġearliest": 14555, "ĠErnst": 38129, "Ġshielding": 43539, "Ġreck": 12482, "Ġdomestically": 42127, "mph": 23335, "jection": 29192, "Ġphotoc": 49857, "ername": 13292, "ĠProject": 4935, "ĠTake": 7214, "Ġamput": 40338, "Ġthemselves": 2405, "project": 16302, "Ġviolating": 18134, "ĠScale": 21589, "ĠZelda": 22166, "å¿": 33232, "Ġrespect": 2461, "ĠCorrection": 35074, "Ġhyster": 24258, "WORK": 33249, "el": 417, "Ġapartments": 19592, "gettable": 42182, "ĠNaked": 41619, "ivari": 35460, "ĠBieber": 42263, "ĠHERO": 45947, "ĠMonday": 3321, "Quote": 25178, "Apart": 39182, "Ġhundred": 3470, "Wars": 41508, "VEN": 28290, "setting": 33990, "ĠBagg": 49329, "Ġcompetitor": 20319, "ĠKhalid": 44544, "Ġcher": 21382, "ĠRud": 17421, "ĠFlake": 39727, "Ġcrushing": 24949, "Ġfriend": 1545, "Ġcp": 31396, "ft": 701, "Ġescort": 27675, "ĠMystic": 22936, "Ġaccordance": 10213, "central": 31463, "Â¢": 44359, "ĠCollective": 29128, "ĠAng": 2895, "ĠDoyle": 31233, "wing": 5469, "ĠBernard": 16197, "Ġdimin": 12110, "sea": 8583, "Wi": 31294, "Ġtrig": 5192, "uates": 12632, "Ġpoetic": 38273, "ĠEc": 14003, "iasis": 48455, "Ġfishing": 12478, "antics": 29320, "Ġno": 645, "Ġaddressing": 13593, "Ġstreams": 15190, "Ġreleases": 10050, "ĠBinding": 38904, "ĠFloating": 49768, "Ġbanned": 9301, "ĠWorking": 14594, "ĠTiffany": 40928, "ĠElephant": 42651, "ĠRogers": 15372, "Ġ129": 20248, "odiac": 40096, "Ġrouters": 41144, "Ġlocker": 17355, "Ġ18": 1248, "ĠSeptember": 2693, "ĠHER": 24906, "mt": 16762, "Ġgard": 16985, "stones": 28750, "Ġtwisted": 19074, "Ġbiased": 21925, "ĠAcc": 6366, "uddle": 24500, "erb": 23552, "Leg": 11484, "Ġchore": 30569, "ĠEveryday": 48154, "chem": 15245, "ĠPassenger": 47239, "argon": 37920, "Ġfruitful": 44474, "istry": 4592, "Ġrevision": 18440, "Ġangles": 18333, "Ġmeters": 10700, "Ġchronic": 10726, "Ġcellular": 19824, "ĠLeh": 29921, "ecd": 21142, "ĠTomorrow": 25939, "ĠGalileo": 45860, "Ġlowest": 9016, "PASS": 47924, "genic": 38516, "ĠS": 311, "Ġstreamed": 35377, "Ġassociated": 3917, "lvl": 47147, "Ġfoundational": 43936, "Ġlogger": 49706, "Ġlooms": 46234, "ĠUniversities": 42571, "aper": 2136, "**": 1174, "alysed": 47557, "ĠWatson": 14959, "opes": 13920, "La": 14772, "Ġshootings": 17690, "ĠCarpenter": 32659, "Ġscience": 3783, "ĠKelly": 9077, "acements": 28613, "PAR": 27082, "ĠAmsterdam": 24377, "ĠJ": 449, "Amount": 31264, "DT": 24544, "ome": 462, "ountain": 18635, "Custom": 15022, "Ġscreening": 14135, "isation": 5612, "Pand": 47206, "Ġrarity": 32823, "ĠHealthcare": 30289, "200000": 33470, "smith": 21453, "illin": 32672, "aez": 47246, "Ġscram": 16701, "ĠPo": 7695, "Ġbureaucratic": 31588, "their": 24571, "ĠColo": 41943, "Ġnods": 34833, "Ġfacilit": 10410, "Ġmont": 40689, "Ġleasing": 42150, "Ġdrinking": 7722, "Ġpiano": 19132, "sum": 16345, "Ġbenchmarks": 31747, "ĠMaryland": 10769, "Sw": 10462, "Ġreplen": 35278, "Ġpian": 43923, "ĠMitt": 16627, "Ġwin": 1592, "ARM": 33456, "Ġcountry": 1499, "ging": 2667, "ĠRupert": 34315, "Ġsequence": 8379, "Ġfrequencies": 19998, "500": 4059, "ĠDietary": 40767, "ĠReturns": 16409, "Ġbegging": 26732, "Ġculmination": 41089, "Ġunethical": 38486, "yrus": 21180, "ĠStamp": 40694, "Ľ": 249, "Ġlimit": 4179, "Ġveiled": 45694, "Ġofficials": 2828, "Ġmerchants": 21779, "female": 24724, "ĠProtestants": 41713, "ĠLion": 15218, "ativity": 22055, "Ġdisturbed": 24069, "ĠTornado": 48970, "omething": 8370, "Ġgrandchildren": 28986, "Ġlieu": 32267, "Ġfinally": 3443, "Ġdelegated": 49711, "ource": 1668, ")'": 33047, "Ġaxle": 41066, "Der": 28532, "Ġgit": 17606, "'d": 1549, "Color": 10258, "ĠVen": 9932, "Ġgrate": 48612, "Ġdisable": 15560, "Methods": 46202, "Ġcustom": 2183, "Ġschools": 4266, "coin": 3630, "Ġlions": 31420, "ĠCelestial": 37231, "Ġadvise": 18595, "itar": 7940, "db": 9945, "Ġlinked": 6692, "ĠSave": 12793, "Ġhealing": 11516, "ĠNormal": 14435, "ĠSplash": 45275, "694": 45214, "ĠRadiation": 47532, "ĠGuy": 13145, "ype": 2981, "Ġ625": 48868, "Ġhears": 23180, "Ġponds": 47339, "Ġdetected": 12326, "705": 34801, "Ġhomeowners": 24692, "ĠPot": 6902, "Ġhumidity": 27716, "ĠLoft": 49416, "ĠWelch": 41524, "Ġrising": 7396, "xia": 36072, "reg": 2301, "Ġdan": 46078, "clips": 31945, "Ġâĩ": 42527, "arr": 3258, "ĠUrug": 31021, "addy": 13218, "ote": 1258, "family": 17989, "Ġwidespread": 10095, "Ġright": 826, "phasis": 28432, "ĠCanterbury": 43581, "Begin": 44140, "ĠAnkara": 28760, "Ġdegrees": 7370, "ĠFTC": 35606, "eele": 26213, "ĠAkron": 45868, "ĠTwist": 44088, "ĠPopular": 22623, "Ġdisapp": 3786, "classes": 37724, "ĠPlant": 16561, "ĠTie": 36286, "Ġparam": 5772, "Ġdenomination": 47491, "Ġencoding": 21004, "ĠWiggins": 44633, "Ġloop": 9052, "Ġmetabol": 14623, "Ġparaph": 38624, "Ġretali": 28160, "Ġamd": 39971, "ĠIranians": 34608, "Ġstink": 48305, "Header": 39681, "Cover": 27245, "Ġclearing": 17304, "itten": 2621, "Ġ165": 21409, "ĠMartin": 5780, "ĠSpringer": 43100, "Ġsnag": 48456, "Ġsubsidized": 37317, "Ġexport": 10784, "ĠMoto": 23049, "ĠWave": 17084, "ĠDemand": 34479, "redo": 48454, "ĠVirtual": 15595, "skirts": 28383, "ĠAscension": 41416, "ĠMyst": 32347, "Ġpul": 17472, "ãģĨ": 29557, "ategy": 4338, "Ġtransit": 11168, "162": 25061, "Ġmodifiers": 37395, "Ġours": 16903, "Ġshred": 21163, "Ġexchanged": 22112, "connection": 38659, "Find": 16742, "ĠBal": 8528, "species": 35448, "ĠState": 1812, "Ġreson": 14309, "pos": 1930, "ĠCVE": 24640, "Ġrook": 10929, "ĠMult": 7854, "ĠCPUs": 32340, "volt": 37764, "Ġunanim": 17452, "ĠTable": 8655, "Ġratt": 27263, "enfranch": 39827, "HH": 16768, "ptroller": 44913, "ĠDelete": 23520, "Ġreservations": 24722, "Ġnumbers": 3146, "athered": 8638, "Ġumb": 20810, "Ġoffic": 1163, "ĠQuincy": 46884, "kos": 46150, "Ġdynam": 6382, "Ġmaze": 31237, "ivia": 20817, "ĠAssassins": 48975, "Ġexemption": 19572, "ĠSind": 44830, "Ġdestroy": 4117, "Ġtiny": 7009, "interested": 34339, "ĠTail": 21759, "Ġlobby": 10866, "ĠMorrison": 24454, "und": 917, "Ġconcepts": 10838, "GET": 18851, "Ġtrucks": 13960, "Ġestablish": 4474, "ages": 1095, "ĠMormons": 33003, "Ġsmartphone": 11745, "ĠChoice": 18502, "redible": 26260, "alty": 6017, "Ġpromise": 6991, "ĠGabriel": 17371, "Ġartisan": 43259, "chlor": 36813, "atis": 37749, "Ġ<-": 24293, "Http": 43481, "Ġelderly": 13830, "elta": 12514, "Ġbewild": 34672, "ï¸ı": 37929, "Ġamnesty": 33652, "ĠCT": 16356, "CM": 24187, "priced": 30883, "Ġhip": 10359, "Ġpractitioner": 32110, "Ġlogic": 9156, "ĠCIS": 36159, "Ġ192": 17817, "although": 16670, "Ġ70": 4317, "Ġperm": 9943, "Ġpredec": 14060, "ãĤº": 37426, "Ġ702": 43379, "expensive": 22031, "rand": 25192, "ĠNBN": 40841, "ĠFollow": 7281, "things": 27971, "Ġweakest": 34968, "ĠNull": 35886, "Ġbrink": 29585, "ĠCAT": 38348, "ĠManchester": 9502, "ĠShould": 10358, "Ġkilograms": 37075, "Ġdeparting": 37717, "sal": 21680, "ĠTend": 48664, "ĠWHAT": 25003, "ĠSupplementary": 43008, "Ġmemory": 4088, "asis": 17765, "Ġclaws": 28421, "ĠBeing": 11204, "Ġclearance": 19745, "Ġado": 50129, "download": 15002, "ĠScal": 34529, "Ġgraveyard": 27672, "assin": 44961, "Ġcustomizable": 38322, "Ġappeal": 5198, "Ġskipped": 26684, "Ġdiplomat": 28278, "adobe": 36752, "Ġ??": 19153, "ĠHyper": 15079, "hyd": 15511, "ĠMell": 32993, "Ġreminders": 40687, "iddy": 34208, "Session": 36044, "ARE": 12203, "ĠFC": 10029, "ä¸į": 38834, "Ġcores": 21758, "oenix": 8538, "rt": 17034, "ISC": 37719, "ĠLAR": 47211, "elligence": 3480, "Ġsubstr": 47294, "ĠIDs": 32373, "ĠPi": 13993, "Ġpor": 16964, "Ġkings": 21557, "arna": 28610, "anche": 6362, "ĠAU": 27548, "Rew": 30003, "Ġhomeowner": 40130, "Ġinterpre": 16795, "ĠRent": 29832, ",-": 12095, "ĠHust": 42941, "Ġfreshman": 18621, "Ġrealizes": 23660, "END": 10619, "ĠGot": 11853, "Ġidentifier": 27421, "Ġphilosophers": 24858, "Ġmarvelous": 43937, "ĠResearchers": 26685, "Ġresulting": 7186, "Ġsubparagraph": 24077, "ĠFishing": 28944, "ĠHowever": 2102, "Ġancest": 10790, "771": 46761, "ĠShipping": 24147, "Ġreiter": 19291, "ĠAdds": 34333, "Ġunfamiliar": 22594, "flower": 25547, "G": 38, "Ġunderlying": 10238, "ç": 163, "ollywood": 31777, "urable": 11970, "amide": 37905, "Ġexample": 1672, "Ġreacted": 22798, "ffen": 46985, "Ġrotated": 38375, "Ġ($": 7198, "Ġalbum": 5062, "one": 505, "sky": 15688, "Ġanalges": 48895, "Ġsuppliers": 20499, "Ġsure": 1654, "Ġclassic": 6833, "Ġally": 12525, "Ġcompounded": 36944, "ĠDu": 10343, "ĠHitler": 11908, "onne": 47476, "ĠIV": 8363, "Ġreferees": 42692, "ĠSheldon": 34536, "Ġdirectly": 3264, "far": 16370, "Ġlicensee": 35796, "Ġiceberg": 34849, "cknowled": 33165, "ĠPlayStation": 14047, "ĠCache": 34088, "Ġdictate": 27861, "Ġprojections": 19887, "ĠWednesday": 3583, "ĠHB": 25997, "Ġaccount": 1848, "Ġemancipation": 48936, "Ġinvolved": 2950, "Ġsouthern": 8372, "ĠSTATES": 47023, "Ġchapter": 6843, "Ġculprit": 26581, "Ġflung": 45111, "fig": 5647, "Ġenchantment": 43706, "Ġtack": 6331, "Ġ392": 48207, "¸": 116, "ught": 8951, "ĠCB": 10078, "Ġbloodstream": 46005, "Steve": 19206, "Ġlow": 1877, "arate": 30748, "Toronto": 31359, "Ġchop": 30506, "',": 3256, "Ġdone": 1760, "Ġlitres": 49622, "Don": 3987, "Ġprime": 6994, "oil": 9437, "Ġcolon": 7633, "Past": 34533, "enario": 39055, "Ġcounselors": 44135, "Ġcontradictions": 32962, "Photo": 6191, "rue": 24508, "Indiana": 49153, "Stop": 19485, "Ġeviction": 38738, "ĠInk": 33068, "ĠVish": 36900, "Ġregulators": 17199, "ONG": 18494, "Ġdaylight": 26010, "ĠBeth": 19223, "Ġtank": 6873, "Ġinclusion": 14900, "ĠBreakfast": 32175, "supported": 15999, "ĠExpect": 23600, "[[": 30109, "ĠBayer": 48009, "Ġsickness": 26359, "shore": 14640, "Ġsqueezed": 29650, "ĠEzra": 36999, "versely": 21243, "ĠRiverside": 35597, "SQL": 17861, "egg": 33856, "Ġprose": 27149, "Ġretribution": 40788, "imal": 4402, "Ġexped": 13604, "Ġshelling": 38406, "ema": 19687, "Ġtrib": 8433, "Ġalphabet": 24830, "Ġemerges": 25457, "Ġchops": 44512, "Ġcow": 9875, "Ġconsciousness": 10510, "ĠAlfred": 22044, "uzzle": 9625, "Ġcontradiction": 25741, "Ġ287": 38721, "ĠUC": 14417, "Absolutely": 40501, "Ġdisp": 4596, "Ġsets": 5621, "Ġvitality": 41687, "bon": 4189, "ĠLange": 47579, "Ġhormone": 17770, "Ott": 49092, "Ġcrumble": 49478, "ĠHoward": 8442, "Ġsignify": 44078, "ometers": 40077, "ĠMaiden": 30591, "Ġpneum": 29631, "Ġmicrophone": 21822, "Ġ428": 45063, "Ġimmigration": 6272, "ĠCovenant": 25489, "Ġworkshops": 25982, "Ġing": 5347, "ĠWebster": 31890, "Ġsucceeded": 14131, "type": 4906, "aching": 8103, "sided": 22339, "Ġsaturated": 24725, "ĠPagan": 46856, "Ġrenters": 48028, "Ġacquaint": 24852, "ĠLoch": 45264, "verty": 8077, "@@@@": 22675, "ĠATT": 26195, "ĠRNA": 25897, "ĠGates": 15953, "Ġneck": 7393, "ogg": 10332, "ĠLumin": 43496, "gas": 22649, "Ġkg": 14211, "ieth": 19235, "Ġprecon": 49394, "Ġbecomes": 4329, "Ġrepetition": 29693, "unky": 28898, "burst": 31961, "ULL": 9994, "Ġsh": 427, "Ġentitle": 44594, "Ġ310": 28947, "operation": 27184, "Ġsummarized": 31880, "hent": 6925, "Ġcenturies": 10675, "Ġtriggered": 13973, "JP": 12889, "Ġcessation": 35120, "Ġneuroscience": 39738, "706": 35402, "ĠVolunteer": 45202, "Ġfracking": 25441, "Ġreinvest": 50135, "ĠChinese": 3999, "Ġassociation": 8112, "ĠDivision": 7458, "Ġpressed": 12070, "plement": 26908, "ĠOng": 48041, "Ġweekends": 21511, "Ġpancakes": 47008, "e": 68, "Ġnight": 1755, "Ġrather": 2138, "Ġvenerable": 45682, "ĠGram": 20159, "ĠDom": 9666, "Ġexterior": 20897, "ĠEditing": 39883, "Ġprejud": 14696, "Ġcrowd": 4315, "fc": 16072, "Ġprize": 11596, "Ġinspecting": 49889, "ĠFA": 9677, "Ġterrified": 22144, "ļé": 21253, "Ġslept": 21256, "Ġinflict": 28640, "ĠMouse": 21839, "responsive": 39772, "idential": 35599, "Ġfilmmaker": 26479, "ĠWATCHED": 30134, "ĠBroadcast": 44244, "spective": 49540, "points": 13033, "Ġmisconduct": 17063, "???": 28358, "ĠFix": 13268, "Ġlabou": 45161, "acky": 36053, "Ġunexpectedly": 25884, "ĠVance": 40154, "ĠMog": 30926, "DM": 23127, "ato": 5549, "Ġquestionable": 18269, "ĠOrders": 30689, "Ġmineral": 18352, "kept": 45089, "Turkish": 42872, "Ġtotality": 44861, "ajo": 34944, "Ġ257": 36100, "Ġunfl": 42880, "ĠAngry": 31900, "ĠPolic": 37147, "Ġamenities": 35468, "Ign": 32916, "Ġdoing": 1804, "Ġprobabilities": 39522, "ĠSince": 4619, "umni": 25402, "Ġ202": 22131, "ALTH": 40818, "ĠANG": 33278, "Ġstoring": 23069, "udes": 8401, "Ġdenouncing": 45041, "tle": 7100, "Ġstartups": 21685, "Ġenlight": 19128, "ĠSol": 4294, "ĠEconomic": 11279, "Ġdystop": 39227, "ĠJets": 14728, "Ġtouted": 28275, "Ġmeta": 13634, "SL": 8634, "ayette": 27067, "Many": 7085, "pter": 42104, "ypes": 9497, "ĠMech": 18202, "Ġbookmark": 44007, "Ġninth": 19646, "ĠMIC": 35878, "Ġghetto": 46482, "Anthony": 32697, "ĠHO": 40115, "properties": 48310, "âĢĭ": 9525, "ĠCarter": 10831, "ä¹": 20046, "Ġbandwagon": 49401, "Ġartic": 17251, "anger": 2564, "TING": 48996, "Ġadopted": 8197, "west": 7038, "Ġmodifying": 30620, "Ġprinciples": 7811, "asure": 5015, "->": 3784, "Ġsupplemental": 34885, "Ġproved": 8302, "ĠJeanne": 48202, "ĠHun": 5900, "Ġdisparities": 35797, "Ġtricky": 17198, "äºĶ": 49390, "ĠNet": 3433, "ĠClint": 21549, "Ġ242": 34353, "Ġdevices": 4410, "Ġtimeout": 26827, "42": 3682, "hea": 21632, "ĠGos": 30007, "Norm": 35393, "âĹ¼": 48366, "ĠBone": 21717, "Ġenraged": 37530, "ĠScientology": 24990, "Ġbattlefield": 13480, "ĠAim": 36223, "tim": 16514, "Ġconformity": 39974, "Ġperfect": 2818, "ridge": 12818, "Ġactivating": 35795, "Ġindust": 2226, "Ġbased": 1912, "ĠGift": 21208, "Ġdiploma": 41220, "ĠTotal": 7472, "ic": 291, "heastern": 18160, "avy": 2830, "liners": 34380, "Ġobser": 7961, "Ġbelieved": 4762, "ustain": 19542, "Ġlieutenant": 30269, "Ġspices": 27952, "ĠCPS": 32084, "days": 12545, "K": 42, "rib": 822, "ĠPOWER": 40295, "Ġboy": 2933, "Ġ1979": 13521, "Ġhtml": 27711, "Ġcommunity": 2055, "::::": 24022, "ĠSter": 18949, "Ġfodder": 41579, "ĠHoliday": 22770, "During": 7191, "LB": 30501, "Ġversatile": 21362, "Ġvalleys": 43088, "HOU": 46685, "ĠInterior": 19614, "882": 42980, "Ġawkward": 13006, "Pat": 12130, "Ġambiguous": 27102, "Ġignited": 40442, "Ġcomplicity": 48234, "bo": 2127, "Ġbenign": 32293, "Ġinauguration": 23166, "ĠAfric": 3295, "ues": 947, "Ġolive": 19450, "Ġloyalty": 15843, "ĠThorn": 31422, "ĠShard": 32822, "Ġtu": 12777, "Ġbutcher": 38042, "Ġsalute": 34967, "Ġut": 3384, "Ġspill": 19431, "Ġperf": 23035, "Ġrecurring": 24824, "ĠFi": 23238, "noon": 6357, "Div": 24095, "Ġfrivol": 43418, "ĠMajority": 22171, "Ġcigarette": 17779, "Ġspectrum": 10958, "Ġranc": 32205, "Ġshudder": 50130, "ĠAve": 12761, "Ġfixing": 18682, "Ġthousand": 7319, "omical": 22545, "Ġgoal": 3061, "ĠNIC": 45593, "Ġcollecting": 13157, "endment": 5904, "after": 8499, "re": 260, "ĠGP": 14714, "lex": 2588, "Ġrenegoti": 48312, "Ġsenseless": 41439, "mop": 35244, "Ġtreat": 2190, "mal": 7617, "ĠRohing": 32571, "Ġredirected": 45158, "ĠCommands": 49505, "Ġenz": 26365, "ĠDolphins": 21668, "dash": 42460, "Ġhikers": 47961, "Ġfreedom": 4925, "ĠGonz": 17109, "Ġundermined": 31256, "Ġinflamm": 14092, "ĠRory": 37178, "ackers": 28874, "ĠÃ¾": 40265, "ĠFeature": 27018, "Ġspeech": 4046, "ĠThat": 1320, "xe": 27705, "th": 400, "ĠGujar": 28600, "paces": 43076, "960": 39277, "Ġinexper": 31830, "abella": 43653, "ĠCannot": 26003, "Ġglare": 36785, "ĠDemon": 7814, "Minor": 39825, "ĠOval": 25165, "ĠDoctors": 28274, "Ġshame": 10195, "ĠVision": 19009, "avery": 12447, "Ġanecdotal": 41666, "ĠHindus": 33735, "Ġtechnically": 14497, "ĠJourney": 15120, "Ġmourning": 33404, "leaning": 25909, "ĠRacing": 14954, "Ġaudition": 31678, "Ġterritory": 7674, "Ġscoreboard": 50198, "Services": 31007, "ione": 7935, "ĠEas": 38647, "ĠBurns": 23592, "ength": 3286, "Ġtranscripts": 29351, "bath": 37648, "Ġaccusation": 25984, "Ġcheered": 34767, "Ġobstruct": 26520, "ĠAdam": 7244, "Ġib": 24283, "ess": 408, "Ġswast": 47923, "stasy": 31695, "Ns": 47503, "Ġtheat": 23776, "Ġbehaviour": 9172, "ĠTruth": 14056, "Todd": 42817, "Ġanimals": 4695, "ĠFederation": 11937, "Ġicons": 17149, "unders": 41116, "Ġfors": 46931, "ĠMandatory": 47018, "ĠCrit": 10056, "Ġwiping": 36906, "ĠGauntlet": 48941, "Ġpostings": 44656, "Ġmultic": 47368, "ĠVale": 31832, "ĠListen": 20600, "ĠServices": 6168, "lasting": 24810, "Yellow": 39499, "adle": 35166, "Ġdowngrade": 48514, "Ġmastery": 30677, "ĠEdinburgh": 23475, "Ġbinge": 34735, "Ġworsening": 42373, "ĠCAS": 35106, "Ġpathological": 42306, "ĠHS": 18070, "Ġguaranteed": 11462, "ĠActing": 37539, "ĠScholars": 26381, "swick": 30961, "Ġdarn": 39189, "____": 1427, "ĠThunder": 9850, "ĠSummoner": 49167, "Days": 38770, "Ġfiguring": 22714, "Ġinterfaces": 20314, "ovan": 22590, "police": 38191, "Ġuncons": 13962, "Ġwiser": 47897, "ĠTransparency": 49165, "Ġbegin": 2221, "Ġgeneral": 2276, "Ġlick": 36728, "sam": 37687, "opens": 44813, "romptu": 49255, "inosaur": 21317, "ĠImplement": 48282, "Ġlaptops": 26635, "workers": 22896, "ĠWheat": 34744, "Ġhighly": 4047, "ĠGi": 8118, "ĠAmar": 44291, "ĠCow": 10417, "ophen": 47806, "umn": 4182, "Ġenerg": 19647, "Guard": 24502, "ellow": 5037, "Ġ840": 48777, "Ġunreal": 22865, "aido": 44354, "ĠMN": 29060, "aman": 10546, "ĠRelief": 30323, "ĠSe": 1001, "ĠImpl": 34347, "ĠSimilarly": 15298, "Ġimplication": 26863, "Ġapostles": 40759, "Ġfellows": 36627, "Ġattitude": 9408, "Jews": 47415, "Hidden": 41691, "Ġgoggles": 42762, "Ġimplying": 30253, "ĠHY": 43624, "ĠRoger": 13637, "Ġhopeful": 17836, "ista": 12523, "Closure": 45398, "Ġsenses": 17627, "ĠFinish": 32585, "Ġpleaded": 16407, "brother": 37343, "ĠBrigham": 37434, "Ġdanger": 3514, "digital": 34725, "ĠRarity": 21948, "essa": 21411, "Ġrepeat": 9585, "Ġbudgetary": 47560, "~~": 4907, "Ġpron": 9668, "ĠChamber": 15840, "Ġblogging": 38310, "ĠDmitry": 45181, "Ġprovoked": 29579, "Ġatro": 38324, "Ġru": 7422, "ĠCena": 46625, "Ġattractions": 29156, "Information": 21918, "Ġgo": 467, "Ġpercentages": 28071, "icism": 11965, "gres": 34239, "ingu": 6680, "ĠForestry": 45413, "Ġclich": 35478, "548": 49934, "ĠAqua": 24838, "stretched": 49729, "Ġrevise": 32548, "ortmund": 34876, "Ġworry": 5490, "Ġstorytelling": 23689, "Sample": 36674, "ĠGiul": 35267, "ĠOath": 37838, "ĠSeoul": 22372, "Ġhallway": 23959, "ĠApp": 2034, "ĠGoldstein": 45655, "byter": 36204, "Ġadding": 4375, "92": 5892, "pite": 2595, "Ė": 210, "berus": 39192, "ĠHollow": 18710, "Ġdisk": 11898, "Ġcapac": 18457, "akery": 33684, "notation": 38983, "ĠTransgender": 44002, "riers": 8910, "Ġexpenditure": 20705, "Ġnamesake": 49829, "wered": 8279, "ĠSeraph": 42771, "ĠSpiel": 34841, "231": 25667, "Ġranking": 12759, "Ġassist": 3342, "Ġcomposite": 24185, "ĠFILE": 45811, "Market": 27470, "ĠDav": 2544, "Ġstru": 2874, "Ġmarch": 9960, "auder": 29233, "Mut": 41603, "Ġ1850": 35745, "ĠPra": 21127, "ĠOVER": 28729, "Ġrebounds": 18841, "ĠUrs": 37935, "ependence": 15091, "Ġcooled": 32162, "ĠJugg": 39296, "ĠSlot": 32026, "ĠWant": 16168, "ockets": 11603, "witz": 28155, "ĠMerch": 34414, "ĠTokens": 47365, "switch": 31943, "Ġfunk": 46212, "Ġglossy": 40551, "ĠâĢİ": 24398, "stairs": 17617, "Ġmodern": 3660, "alien": 42690, "ĠCong": 2908, "0100": 39103, "ĠMicha": 38844, "ĠPROG": 38688, "Ġgroove": 35096, "vp": 36133, "sic": 21383, "ipher": 10803, "ĠDW": 29652, "Ġrang": 28077, "333": 20370, "ĠLIKE": 34178, "uania": 29743, "ĠEnt": 7232, "ĠIncarnation": 47881, "Ġperspect": 6009, "Ġmillionaires": 48675, "Notice": 26396, "Ġattainment": 40375, "Ġstreaming": 11305, "Ġarose": 21172, "Ġbranch": 8478, "aded": 5286, "Ġpumps": 29019, "ĠDr": 1583, "ĠHubbard": 34342, "Ġprivat": 21883, "ĠIsaiah": 29756, "Ġdeep": 2769, "ĠPoints": 11045, "Ó": 143, "ĠThu": 26223, "Ġinj": 2529, "ĠFrost": 15122, "Compar": 50249, "Dragon": 17808, "Else": 40674, "ĠMaya": 26041, "Ġcurious": 11040, "dis": 6381, "ĠMans": 18580, "Ġfinale": 19523, "ĠLump": 41499, "ĠSab": 9910, "igm": 17225, "ĠBattalion": 29887, "ĠPublishers": 43403, "ĠStars": 10271, "ccess": 1591, "ĠProtection": 9985, "channel": 17620, "Ġhomepage": 34940, "ĠRogue": 16432, "Ġinterchange": 26478, "bean": 14289, "ustration": 44027, "avid": 8490, "é¾įå¥": 39820, "some": 11246, "ĠKe": 3873, "Ġpav": 45549, "Ġsealing": 38689, "Ġmisogyny": 36108, "Ġren": 8851, "ĠNur": 49281, "ĠMPH": 43822, "amping": 37843, "ĠFallon": 36503, "Ġ233": 30435, "864": 39570, "Ġflock": 29556, "ocene": 34973, "DJ": 35028, "Ġcivilizations": 35928, "Playing": 36530, "onel": 26261, "Ġassassinate": 48327, "Ġfrustration": 14285, "enic": 35866, "ðŁ": 8582, "lations": 49905, "nai": 38600, "TT": 15751, "isites": 31327, "irmed": 15491, "Ġpatented": 34824, "Lastly": 37511, "idered": 3089, "Ġcorrectional": 49187, "ilings": 43271, "Ġ4090": 48908, "Ġclerks": 44115, "Ġtraverse": 38138, "Jane": 41083, "Ġthreaten": 16180, "Ġcontains": 4909, "ved": 1079, "Ġpiercing": 30662, "Ġidentical": 10411, "Ġ96": 9907, "dain": 27162, "sin": 31369, "EH": 42413, "than": 14813, "Ġneurons": 16890, "476": 35435, "alm": 38182, "ĠCompany": 5834, "Ġrepresentatives": 10826, "Capt": 19209, "Ġhumid": 35441, "Initial": 24243, "Ġtoys": 14958, "rants": 15087, "ĠTRANS": 44069, "ĠBl": 1086, "Ġay": 38762, "five": 13261, "Ġtestify": 19671, "Ġresponded": 7082, "ĠFif": 12830, "Jan": 12128, "Ġcrossing": 12538, "PDATED": 49316, "esthesia": 34811, "Party": 33553, "Ġcultivate": 32237, "ĠKim": 6502, "Ġknows": 4206, "SPONSORED": 37190, "alks": 23833, "Ġexplor": 39180, "Driver": 32103, "else": 17772, "hess": 33979, "Ġresume": 15294, "oken": 4233, "Ġsubmission": 14498, "Ġpunitive": 32952, "ĠAliens": 39301, "File": 8979, "flight": 22560, "Ġmessages": 6218, "Ġmath": 10688, "movie": 41364, "Ġdiscounts": 25684, "berry": 8396, "ĠArchives": 22275, "Ġlatent": 41270, "Ġartery": 37646, "ennis": 10679, "Near": 40640, "Ġenough": 1576, "Cook": 28937, "icated": 3474, "AMD": 28075, "Ġwarrant": 8084, "ysical": 15380, "Ġhomer": 44155, "Ġwre": 30154, "Ġtabs": 22524, "Ġbounce": 20110, "ĠJennings": 30593, "Ġdisgust": 16234, "urrence": 33928, "ĠAnat": 28880, "ropolitan": 14823, "Ġdisrupted": 30067, "volume": 29048, "batch": 43501, "Gay": 41787, "ĠSpaces": 48086, "Ġsandwiches": 29777, "Ġmeltdown": 37824, "åĲ": 28938, "Sham": 43478, "ÙĪ": 30335, "ĠCir": 21239, "iframe": 39621, "hetical": 21485, "ĠGly": 27949, "Ġimprov": 37080, "Important": 33796, "orthy": 18906, "OO": 6684, "ĠChero": 37156, "Ġqualifier": 39265, "Ġnominated": 19332, "ĠOECD": 33802, "ĠCharacters": 26813, "Ġdiets": 18977, "anything": 49459, "Ġrequest": 2581, "Ġblat": 21451, "Ġtwins": 20345, "arte": 32074, "ĠSchneider": 26039, "ĠAf": 2483, "Ġoppressive": 30983, "ĠKurt": 20642, "ĠIt": 632, "ĠMess": 10626, "ĠLC": 22228, "Ġres": 581, "Ġsund": 37437, "vere": 4119, "illegal": 47749, "Ġconflic": 4183, "ĠClaims": 36880, "Ġtimely": 19376, "ĠHalloween": 16032, "ronic": 4565, "Hart": 44719, "Site": 29123, "Ġdimensional": 38517, "Ġarsenal": 24375, "Ġvantage": 47929, "ĠOverse": 46864, "Ġsocialist": 15889, "Ġcontributor": 18920, "Ġpregnancy": 10241, "azel": 41319, "Ġscanning": 21976, "umin": 7230, "ĠTransform": 26981, "ĠUpdates": 28090, "ĠInformation": 6188, "Ġ{\\": 43839, "ĠSubst": 24944, "Ġcontingency": 38820, "TRUMP": 42473, "ĠTeams": 24690, "Ġnotch": 29838, "olithic": 30764, "ĠGron": 40214, "shed": 35762, "Ġwhis": 12563, "âĸĢ": 44033, "Ġeleg": 15361, "HOW": 37181, "286": 27033, "becue": 31927, "ĠBrush": 39846, "ĠEqual": 28701, "aaa": 46071, "Ġ1970": 8069, "kB": 38841, "aunder": 21118, "ĠDIS": 13954, "CD": 8610, "Ġovercame": 49490, "Ġbetween": 1022, "ĠBoko": 40160, "Ġdevoid": 34065, "Ġ1907": 41435, "Gu": 8205, "oscope": 40326, "Æ": 130, "ĠDHCP": 43729, "ĠKyle": 14316, "Ġve": 1569, "ĠMadonna": 42345, "Ġdespised": 44990, "Ġgradual": 24972, "ĠWillow": 33021, "Ġedible": 35988, "Ġmarked": 7498, "ĠKill": 12265, "Ġenable": 7139, "Ġsettled": 10282, "Ġradiator": 50036, "ĠSinai": 33745, "Ġdisparate": 37433,
[...]
